n e 482239728
e n 389773023
s t 362422988
s e 333686167
st r 295243933
〖 str 282612752
l i 275053040
li ne 228330335
ne w 228275031
new line 225549850
〖 newline 225510238
〖newline 〗</w> 225510238
l o 224053556
o p 208678784
c lo 190582307
op en 189208828
clo se 188850053
close 〗</w> 188463208
i n 161026554
en t 146546947
open : 146093346
d e 141529128
〖str close〗</w> 141306376
c o 137648081
〖str open: 136450150
d ent 128381509
dent 〗</w> 126609636
r e 106708308
a t 100977791
' 〗</w> 99513740
〖stropen: '〗</w> 94155606
co m 84795378
se l 77619521
sel f</w> 75578851
〖 com 74629030
o r 64787042
a r 64307840
t e 63732772
〖 in 63304818
〖 de 63304818
〖in dent〗</w> 63304818
〖de dent〗</w> 63304818
o n 58643475
t h 57050216
a n 56760432
▯ ▯ 56237557
" 〗</w> 51634930
t i 51265038
r o 50208301
e r 49402008
a l 48245853
l e 44716978
a m 43947027
u r 41710078
a s 41676618
〖stropen: "〗</w> 41482703
l f 38015167
〖 lf 37702508
o n</w> 37468814
open 〗</w> 37314534
〖com close〗</w> 37314515
〖com open〗</w> 37314515
f i 37037091
g e 35485524
t _ 32072334
a c 31010302
d o 30951507
〖lf 〗</w> 27868740
s e</w> 27517805
o r</w> 27254768
d i 26992827
s i 26456545
i n</w> 26193343
l e</w> 25472857
co n 25203596
th e</w> 24934703
m p 24917149
u n 24899179
e c 24541001
r i 24338210
▯▯ ▯▯ 23642989
c e 23071064
\ x 23061229
i f</w> 22875831
m a 22865541
am e</w> 22759245
s t</w> 22666188
de f</w> 22375995
m e 21794705
do c 21668248
d at 21471118
e l 20842111
se r 20477402
m o 20125882
t ur 19982985
n o 19924635
d _ 19775807
e x 19760058
〖 doc 19684588
q u 19585118
u e</w> 19134405
c h 19089246
u l 18838480
e r</w> 18634438
a p 18403181
in g</w> 18228038
a b 17984476
at i 17562135
re s 17299646
re tur 17283323
y p 17153352
n ame</w> 16974776
u t 16541291
i s</w> 16532590
a d 16139817
or t</w> 15928034
i t 15819400
t r 15531456
retur n</w> 15403426
p ar 15403095
k e 15269614
i mp 15138480
s _ 15014599
a l</w> 14888877
on e</w> 14844027
e s</w> 14515597
f or</w> 14090567
en t</w> 13923763
c l 13511292
ti on</w> 13449115
u m 13356325
i d</w> 13007419
imp ort</w> 12868633
t o</w> 12653821
v i 12641113
N one</w> 12607218
0 0 12605084
e _ 12537766
t yp 12532890
t o 12520387
f ro 12224436
p o 11830964
te r 11761038
r a 11742562
c e</w> 11702218
ti on 11685669
p ro 11456838
u p 11374815
s p 11354342
g s</w> 11332357
f or 11233738
v er 11229278
i l 11164502
as ser 11089754
v al 11046551
g e</w> 10839127
T r 10726340
t s</w> 10662488
s h 10657990
p at 10518624
an d</w> 10462940
st _ 10070767
fro m</w> 10063189
o f</w> 10042083
e d</w> 9920974
d e</w> 9919092
〖doc close〗</w> 9842294
〖lf 〗 9833767
t a 9685107
〖doc open: 9642436
o l 9615846
Tr ue</w> 9475924
i c 9368221
o b 9265514
R e 9227373
typ e</w> 9167893
b u 8831957
in g 8785394
dat a</w> 8783592
in t</w> 8713930
j ec 8713641
i s 8693266
at e</w> 8627608
l a 8536070
y _ 8497342
_ _ 8463729
p r 8306993
▯▯▯▯ ▯▯▯▯ 8302843
no t</w> 8273161
b o 8202784
cl as 8200048
= =</w> 8148803
" " 8089367
u b 8078097
u t</w> 8055857
"" "〗</w> 8002977
s c 7990696
ati on</w> 7959258
f a 7749379
ge t_ 7673085
pat h</w> 7503953
i d 7394519
a t</w> 7343441
te x 7339786
h e 7310408
〖docopen: """〗</w> 7299538
a li 7137351
t t 7026386
ap p 6995039
0 . 6962944
a s</w> 6853551
i g 6753736
d u 6741304
I n 6697886
li n 6677923
i t</w> 6674683
asser t 6627933
s s 6612591
ar gs</w> 6522559
fi le</w> 6519440
val ue</w> 6485313
s o 6471259
mo de 6428685
qu e 6411710
ro r</w> 6361829
al se</w> 6349303
ati on 6281577
st an 6277893
at e 6237782
w or 6231660
m e</w> 6207691
ul t</w> 6191634
si on</w> 6126774
clas s</w> 6103566
ge t</w> 6095973
F alse</w> 6094471
v e 6070145
de r</w> 6041050
w it 6026588
a n</w> 6018343
d ▯ 6007178
u se 5986876
ce p 5967059
am e 5924230
c al 5892913
v e</w> 5892882
en d</w> 5836208
c t</w> 5762210
te st_ 5721183
d s</w> 5680359
a ge</w> 5638729
a ge 5637570
k _ 5594371
s ▯ 5541326
wit h</w> 5527813
tex t</w> 5520025
te r</w> 5508659
li st</w> 5508578
T h 5501677
l _ 5472369
e t 5386113
c re 5372409
el se</w> 5364512
h o 5347038
F i 5341134
le _ 5205599
m at 5193307
l s</w> 5134327
fi el 5103373
E r 5096661
s . 5095879
lo g 5062420
ab le</w> 5022270
s y 4951910
ob jec 4937238
, ▯ 4912268
c tion</w> 4904113
f f 4871775
〖str open 4856226
th o 4855425
r an 4845817
z e</w> 4834633
c t 4820515
in i 4814576
an g 4768744
de r 4767661
st r</w> 4724914
tion s</w> 4704050
t e</w> 4694682
p l 4657824
con fi 4649729
se t</w> 4640148
lo c 4636752
qu al</w> 4634053
c h</w> 4621762
m _ 4617642
p re 4603190
o ut 4591039
C on 4588480
t ▯ 4570542
o s</w> 4551114
con t 4519232
fi l 4500636
Er ror</w> 4489002
I N 4483020
te d</w> 4444293
ke y</w> 4433001
le s</w> 4428660
- - 4385353
ex p 4379096
li c 4375596
co r 4373197
C o 4354489
ti me</w> 4349319
f un 4300916
th e 4293436
re que 4258630
pr int</w> 4246037
de fa 4237568
b e 4186361
i te 4180766
in stan 4166832
t h</w> 4119800
c ur 4109152
m ent 4098933
a m</w> 4086122
a se 4038474
ge t 4027932
g i 4021895
ac k 4014385
T e 3996191
2 0 3973244
le n</w> 3955062
l y</w> 3954383
s ub 3952407
a d</w> 3948741
at u 3942805
ne r 3932122
s u 3921304
b e</w> 3905292
in f 3902192
i p 3901089
ex cep 3882771
se t 3876043
E R 3859535
as e</w> 3831209
co un 3823338
si on 3805702
: ▯ 3778076
a r</w> 3773789
an d 3772996
p y 3771797
E qual</w> 3765640
p er 3755592
D e 3728781
S e 3714688
n um 3701032
st ar 3698409
n p</w> 3695412
me tho 3662225
: '〗</w> 3662031
E x 3642348
ti me 3637401
t y</w> 3630009
ar e</w> 3625853
p ut</w> 3609539
s s</w> 3596147
com p 3588731
S t 3586795
com m 3582402
st e 3552837
sc ri 3543596
co de</w> 3541521
x _ 3540269
w i 3538755
g ro 3532827
at t 3507653
u p</w> 3507322
ad d 3500196
val u 3498234
res p 3481464
N o 3444155
sh o 3442833
op er 3437323
in de 3428372
_ id</w> 3409554
tr y</w> 3390000
n s 3386019
mo du 3377043
\ u 3376873
app end</w> 3373734
ur l</w> 3366367
1 0 3361965
assert Equal</w> 3357678
m s</w> 3355802
O N 3337029
ra i 3335009
resp on 3334232
e n</w> 3320373
A T 3315003
th at</w> 3286805
ar g 3283195
er _ 3282388
R E 3278061
w ri 3259295
th is</w> 3254942
el d</w> 3237149
a g 3231192
in _ 3215825
w h 3209076
te st</w> 3199843
a u 3198392
at e_ 3195290
d b 3183115
ce _ 3177729
u ser 3172016
w e 3146687
scri p 3144931
si ze</w> 3117586
ch ec 3112867
1 1 3108697
C h 3102318
p as 3102069
j o 3076702
reque st</w> 3073881
lin e</w> 3073842
o o 3071582
i s_ 3070016
〖stropen u 3066754
ad d_ 3054388
c li 3053324
ma t</w> 3051039
co l 3047554
n am 3043971
te st 3028171
inf o</w> 3027269
instan ce</w> 3022650
am p 3007195
o ut</w> 2993786
res ult</w> 2990981
o u 2975107
me ss 2974927
ac e</w> 2959829
i ma 2958261
al l</w> 2951476
di ct</w> 2950260
A N 2947650
dat e</w> 2947333
f lo 2929807
E _ 2926650
m ent</w> 2920047
o f 2897445
c _ 2891407
a _ 2885186
〖lf〗 ▯▯▯▯▯▯▯▯ 2879270
T yp 2873594
asser t</w> 2862586
L i 2856294
e v 2850971
S T 2847574
a i 2847408
1 . 2841889
j ang 2836992
M o 2833475
metho d</w> 2817615
ac h 2817285
v er</w> 2805252
l ab 2804418
str ing</w> 2792148
al _ 2791067
use r</w> 2782976
g _ 2781571
h tt 2773313
ar i 2768567
en se</w> 2768345
par am</w> 2753941
E N 2751739
Th e</w> 2751662
for mat</w> 2749635
ar ra 2745301
ent _ 2734356
* *</w> 2729682
Fi eld</w> 2728386
A R 2722158
ce s</w> 2704530
or y</w> 2698461
di r</w> 2696651
v ali 2690704
b er</w> 2687821
n s</w> 2680173
h t</w> 2669267
en d 2662517
re d</w> 2662413
L ic 2661553
d jang 2661182
la y 2644090
n _ 2643314
m ar 2643073
en g 2642496
rai se</w> 2641135
objec t</w> 2638947
I T 2626534
defa ult</w> 2621690
b y</w> 2620309
confi g</w> 2619353
ac k</w> 2614713
k w 2609578
se s</w> 2609504
respon se</w> 2604343
excep t</w> 2600302
an s 2597229
% s 2596805
re s</w> 2595445
u e 2577809
inde x</w> 2547742
con text</w> 2535418
u ti 2533723
ch an 2532290
so ur 2530495
y ▯ 2522375
ini t_ 2517516
te mp 2511356
e li 2511289
in t 2504713
se r</w> 2502202
1 2 2501848
c i 2486633
to _ 2484137
u s 2480763
o ur 2480018
modu le</w> 2471364
m s 2449074
f in 2449039
0 x 2444053
st atu 2438119
re _ 2434584
ing ▯ 2421697
in gs</w> 2415379
ac t 2403229
si g 2400614
st o 2396637
ke y 2394792
g r 2386381
t en 2383244
eli f</w> 2381407
P ro 2380333
kw args</w> 2371778
a v 2365194
h as 2364271
f e 2361748
sp ec 2357033
Lic ense</w> 2355356
p u 2354513
f o 2349863
ing _ 2343689
〖stropenu :'〗</w> 2323905
t ab 2323196
in ter 2321872
th er</w> 2319047
dat e 2314513
ver sion</w> 2311146
re p 2309695
te _ 2302204
str i 2287371
ut e</w> 2284443
j s 2279545
A d 2276015
m i 2264356
cur r 2262911
r u 2258146
se t_ 2256381
qu i 2230933
m an 2230171
e d 2228227
er s</w> 2226528
he a 2223897
V al 2219291
c tion 2217904
__ init_ 2213958
Te st 2211960
w _ 2210689
par am 2206304
a y 2203769
i fi 2201311
on _ 2198015
+ =</w> 2193289
\ n</w> 2190471
__init_ _</w> 2185176
c op 2183854
p _ 2178969
cl s</w> 2174172
ge r</w> 2172681
P ar 2172247
s up 2164166
k s</w> 2159166
O R 2156716
p ut 2156442
coun t</w> 2155471
lo g</w> 2153813
ri g 2145566
r or 2140755
D E 2134722
n ame 2124485
se _ 2122403
h t 2120626
jo in</w> 2099010
ap e</w> 2097849
00 00 2095233
cl u 2089495
pro ce 2080135
fun ction</w> 2076703
vi e 2075161
en ame</w> 2072030
ent s</w> 2071206
di re 2069291
2 . 2065886
ter s</w> 2063998
valu es</w> 2063890
e l</w> 2063607
i f 2062640
or e</w> 2061598
T _ 2059911
qu er 2059599
t ar 2052835
con ne 2051391
G e 2043628
d b</w> 2042670
L o 2042630
ne t 2034448
E n 2032901
re ad 2027368
il l</w> 2026125
arra y</w> 2023177
mo c 2018961
i m 2018699
res s</w> 2018011
M e 2010710
at ed</w> 1999619
le r</w> 1995594
no de</w> 1992020
ur e</w> 1990106
cli ent</w> 1987987
to ▯ 1986456
\x 0 1984748
bo o 1979084
st ate</w> 1970498
the ▯ 1964167
a ▯ 1963693
fi le 1959829
ro o 1948776
ation s</w> 1944310
bu il 1940066
te s</w> 1937822
mode ls</w> 1932470
l eng 1931016
at or</w> 1929779
u m</w> 1925192
ran ge</w> 1923244
mode l</w> 1922389
T I 1920151
i st 1913784
str u 1911728
a ve</w> 1911285
ti t 1883205
= = 1881138
% s</w> 1878983
ob j</w> 1866032
1 0</w> 1859128
D at 1850100
h el 1845805
exp ec 1843039
d ing</w> 1835304
le d</w> 1832893
mess age</w> 1830712
ch e 1828835
h and 1827052
r un 1819543
de d</w> 1817875
sy s</w> 1817155
R O 1816281
er ror</w> 1812676
s or 1809435
m l</w> 1808973
un i 1808256
w id 1794954
se s 1785611
r e</w> 1784340
tr ans 1782165
Th is</w> 1779860
p or 1775524
param s</w> 1773697
w ar 1772876
au th 1772491
2 5 1766155
for m</w> 1763246
u g 1757592
p ri 1751825
ns 3</w> 1751468
pr oper 1745115
l as 1744847
de le 1744150
out put</w> 1742242
N ame</w> 1741218
wri te</w> 1736801
w ill</w> 1735346
se tt 1733643
pro jec 1732683
re a 1728840
t ri 1725023
fiel d 1724816
U R 1717075
is ▯ 1711875
A L 1708947
lo w 1708596
re mo 1704629
me m 1698003
re gi 1695671
op tions</w> 1688827
U n 1688649
a x 1686364
djang o 1685795
leng th</w> 1683960
vi ce</w> 1680494
k e</w> 1679192
v o 1678914
re e</w> 1678135
no de 1676053
sp li 1675547
res our 1672118
m is 1671267
f r 1670465
A r 1669948
di s 1668731
P o 1667762
v al</w> 1663545
p h 1662558
t w 1660264
I f</w> 1657031
ite m</w> 1654952
er e</w> 1652814
mode l 1650173
sh ape</w> 1648241
re qui 1646697
i l</w> 1645068
gro up 1643808
star t</w> 1638040
ma x_ 1635664
b loc 1632746
9 9 1632428
e le 1630600
z e 1626826
al l 1626466
re f 1623526
m in 1621091
w e</w> 1618266
defa ul 1613564
se ri 1613201
new _ 1610239
par ame 1605869
ac e 1605090
〖lf〗 ▯▯▯▯ 1602736
do w 1601654
pu t_ 1597748
a ut 1597598
statu s</w> 1595938
K e 1594973
Re tur 1594827
b ack 1594486
Typ e</w> 1593390
A S 1591995
\x 6 1590085
: : 1584968
A l 1581104
L E 1580936
ul d</w> 1577549
0 0</w> 1573019
res ul 1572782
v ari 1571076
de scrip 1570393
T o 1565919
ar y</w> 1565879
wi th 1565487
er ror 1564404
js on</w> 1557449
A C 1555496
S tr 1554818
ms g</w> 1552795
u se</w> 1552718
D i 1549470
col um 1548510
s / 1544186
p ort</w> 1544157
ne r</w> 1543511
or i 1536305
fil ename</w> 1532366
b ase 1530721
O p 1529826
asser t_ 1529743
o u</w> 1529643
fi le_ 1528974
re ad</w> 1525486
ti c 1523716
htt p 1519794
c m 1519135
t as 1518369
po si 1515556
net wor 1511567
! =</w> 1506920
w a 1505712
con ta 1502436
b in 1501745
sel ec 1499467
att r</w> 1494793
al s</w> 1490833
co lo 1488856
re l 1482382
cre ate_ 1481988
p lo 1480549
1 5 1475567
T i 1472258
_ name</w> 1468490
co de 1468399
p p 1466574
S er 1465826
L I 1462505
wor d</w> 1461680
fiel d</w> 1460678
django . 1458023
ac tion</w> 1457662
a f 1457436
1 3 1455057
temp l 1451623
fi les</w> 1451567
cor e</w> 1451018
it y</w> 1448686
gro up</w> 1446543
arg um 1446397
lab el</w> 1438410
1 8 1437163
b l 1435141
ch _ 1433276
uti ls</w> 1431370
m ul 1430201
t able</w> 1429399
1 6 1429364
c an</w> 1428406
it s</w> 1427344
b i 1424335
en ce</w> 1421060
S E 1419636
ima ge 1419065
dat a 1417089
/ / 1415664
c u 1414609
num ber</w> 1414123
L O 1412105
tr a 1408619
typ es</w> 1408218
fi r 1405942
D _ 1404593
ge ner 1404220
v ol 1402575
A P 1401836
dat e_ 1400457
nam e_ 1397727
i p</w> 1397577
ri bu 1397029
objec ts</w> 1396213
S _ 1395899
f la 1394883
C O 1392826
se d</w> 1392802
1 4 1392243
pas s</w> 1383574
py th 1382669
b d 1380322
\x 3 1379033
me ta 1378976
A M 1378347
un d</w> 1377394
Ex cep 1377181
ma p</w> 1376280
te d_ 1374039
g ra 1372791
ub li 1371582
T E 1369178
c an 1369020
fiel ds</w> 1368643
\ n 1363032
cop y</w> 1355228
li b 1354337
pat h 1351701
v e_ 1351455
model s. 1345260
ad d</w> 1343274
F I 1343212
tit le</w> 1342834
db . 1342628
m in</w> 1338457
m u 1337335
st ▯ 1335632
ne d</w> 1334796
no t▯ 1334586
G et 1334427
ali z 1333471
= " 1331897
F or 1327556
lo n 1326622
ach e</w> 1325382
ac ti 1322793
o _ 1322289
ent r 1318062
sour ce</w> 1314369
\x 8 1314069
ne x 1312842
lo a 1312236
di stri 1311317
se ar 1311177
field s. 1307742
\x 7 1307294
hea der 1302876
li b</w> 1300484
f _ 1292777
op en</w> 1289470
ex ec 1288140
or _ 1287187
< / 1287156
D o 1284413
O b 1282767
t u 1281886
db. models. 1281869
db.models. fields. 1280838
is instance</w> 1276298
ma in</w> 1273162
t or</w> 1272408
of ▯ 1271849
Excep tion</w> 1268466
\ 〖lf〗 1267920
3 2</w> 1267315
n o</w> 1266295
vi r 1265207
C ON 1263141
rig ht</w> 1262124
for m 1259394
-- -- 1257447
u id</w> 1256745
ro w 1255296
in ▯ 1254410
s r 1252113
ation _ 1248632
Val ue 1248054
: "〗</w> 1246419
a re 1246303
T H 1243205
w he 1242979
I D</w> 1242910
sett ings</w> 1239940
ke n</w> 1235439
de bu 1235038
at es</w> 1234078
up date</w> 1233050
spli t</w> 1232383
nam es</w> 1229765
fro m_ 1226945
di r 1226720
o p</w> 1225965
par ser</w> 1223759
F o 1222668
dat a_ 1222331
confi g 1222225
use d</w> 1222111
sho uld</w> 1220556
ses sion</w> 1219783
ab le 1218067
D I 1214331
ig ht</w> 1211911
S I 1211769
A n 1211507
s q 1211043
b y 1210435
▯ ( 1210099
in put</w> 1208868
O R</w> 1208139
lo ad</w> 1207176
c ke 1206213
re pl 1205722
quer y</w> 1204622
P O 1204127
ro w</w> 1203996
s o</w> 1203686
wor k 1200580
o ver 1196511
fi x</w> 1194849
1 9 1193040
\x c 1190639
s amp 1189733
sig n 1189672
ke _ 1189526
v _ 1188092
s or</w> 1187658
age _ 1185770
mo de</w> 1185743
ro l 1184201
A B 1183800
4 0 1183207
1 7 1182771
django. db.models.fields. 1181570
o ther</w> 1181110
ex ist 1179151
C re 1178677
spec ifi 1177758
U L 1175434
str e 1172026
dire ct 1170675
ve l</w> 1169541
sion s</w> 1168321
\x 9 1168306
d a 1164419
\x 00 1164370
b ack</w> 1164075
c le 1162855
pas s 1162317
f ol 1158245
ima ge</w> 1157143
2 2 1156037
age s</w> 1155810
or s</w> 1153007
w w 1150648
on ly</w> 1146420
lo b 1146236
Li st</w> 1143498
ig h 1143170
ma x</w> 1141032
ment s</w> 1135878
n ing</w> 1135525
ho st</w> 1133774
typ e 1133033
bo d 1132721
\x e 1131793
s k 1129621
i le</w> 1128158
= ▯ 1127189
cre ate</w> 1124756
d type</w> 1124524
f ul 1122404
log g 1121423
date time</w> 1120817
ran do 1118264
o ne 1115273
c tions</w> 1114792
ns 3 1110798
. . 1109577
lab el 1109046
A G 1106844
ve n</w> 1103011
ti es</w> 1102501
ap i</w> 1102322
ev ent</w> 1100220
comm and</w> 1100104
key s</w> 1099893
ch il 1099648
P y 1099196
ru n</w> 1098542
p e 1098537
flo at</w> 1097931
st er</w> 1093018
Mo de 1092999
\x b 1091167
l am 1091035
n u 1090373
ex tr 1089788
T ex 1088496
V i 1085764
i _ 1083992
\x 4 1082550
re cor 1081913
ht ml</w> 1081832
pro vi 1078949
B o 1077705
ns3 :: 1077685
\x f 1077358
op s</w> 1076043
C H 1074023
ap p</w> 1073995
chec k_ 1073417
n or 1071287
ser ver</w> 1070920
cont ent</w> 1068347
3 2 1068325
en v</w> 1066691
or t 1066079
lo cal 1063441
w in 1062153
Ge ner 1060177
ne w</w> 1058335
m as 1056785
t a</w> 1053598
o ff 1052686
e mp 1052377
e ma 1051758
ch ar 1049262
: // 1046682
Ad d 1045993
log ger</w> 1045905
A A 1045586
chan ge 1044710
ter _ 1044396
ite ms</w> 1043725
distri bu 1042958
h ave</w> 1042932
M a 1041919
c t_ 1040503
ate g 1037591
ut t 1036548
s che 1036392
descrip tion</w> 1035309
3 . 1034918
\x d 1034762
al l_ 1032347
id s</w> 1032080
an y</w> 1031550
er ▯ 1028149
\x 5 1027938
% s▯ 1026958
m on 1025334
for ▯ 1024720
st ati 1024113
s en 1023938
ne l</w> 1023717
lam bd 1023634
de p 1020567
mat ch</w> 1020409
fil ter</w> 1018821
e s 1015965
un der</w> 1015868
Co m 1015620
' ' 1010589
ini ti 1008944
moc k</w> 1008747
vi ce 1007564
Te st</w> 1006151
T O 1005220
cal l 1004722
ri b 1002370
p ack 1001598
Ob jec 1001052
Ch ec 999024
tion _ 998348
re f</w> 996601
co ding</w> 996069
htt p</w> 995685
logg ing</w> 995162
tion al</w> 994449
li st 993384
Typ e 992762
add ress</w> 992493
〖lf〗▯▯▯▯▯▯▯▯ ▯▯▯▯▯▯▯▯ 991700
ic h</w> 990978
to ol 990650
▯ - 990044
p i 988539
co ur 987234
ta g</w> 987226
di sp 985486
6 4 984489
Con fi 981003
y ou</w> 978593
c ce 976592
b ase</w> 976139
r en 976137
sion _ 973785
un d 973179
gr ap 972359
tw are</w> 972247
O U 972186
par ent</w> 969902
in clu 969431
n ul 968253
3 3 967590
lambd a</w> 967133
wh ich</w> 966520
v ar 964929
N O 962780
for mat 960964
H T 959531
line s</w> 956437
〖stropen r 956253
V er 954473
debu g</w> 954182
p y</w> 953778
l at 953098
to ken</w> 952790
A tt 951372
" ▯ 950693
'' '〗</w> 950338
fun c</w> 948289
s s_ 947930
ig n 947413
I d</w> 945307
lo ad 944790
v ed</w> 943614
p age</w> 942433
Retur ns</w> 940797
proper ty</w> 940337
0. 0</w> 940301
user _ 940253
a il 938630
) ▯ 938497
sy ste 935191
pro du 934496
tar get</w> 934295
resul ts</w> 934180
Value Error</w> 934169
age r</w> 933811
li m 932563
t up 931755
s ol 930517
m a</w> 929370
m en 929340
〖 tab 929105
t s 927981
mp y</w> 927608
o k 927594
O N</w> 926684
wid th</w> 925689
in s</w> 924626
num _ 924503
l u 924304
hel p</w> 923884
in e</w> 923766
roo t</w> 922904
r _ 922888
1 2</w> 922429
Con t 921931
sc al 921867
\x 2 921491
in put 920755
sp ace</w> 920193
con st</w> 919243
i c</w> 917778
ar d</w> 915419
m ▯ 914844
vie w</w> 914558
sp e 914391
\x a 910999
co m</w> 910844
▯▯ ▯ 910551
〖tab 〗 910524
t x 909750
pyth on</w> 908646
le vel</w> 908127
en c 907273
po int</w> 906243
djang o</w> 906126
P at 904998
No t 904859
〖docopen: "〗</w> 902831
1 ▯ 902820
mul ti 901745
Re que 900495
in ts</w> 900216
- 0 899493
8 6 899109
E S</w> 899060
clo se</w> 898076
i on</w> 897669
ac ce 896998
chec k</w> 896580
M A 895579
Co mp 895579
ac h</w> 895386
R I 895202
7 7 893299
E S 892143
ur l 890368
bod y</w> 889240
cal l</w> 885608
parame ters</w> 883883
header s</w> 883417
or der</w> 881587
ang u 877354
chec k 877263
6 4</w> 876930
requi red</w> 876814
S E</w> 875111
der _ 874823
d f</w> 874722
defaul t_ 873112
_ get_ 870669
1 6</w> 870639
proce ss</w> 870373
to t 869607
b at 869535
* * 867580
_ P 867125
doc um 866842
c k</w> 865270
Dat a 865143
po s</w> 864441
Ch ar 863455
1 00 862943
▯ to▯ 862400
t op 859247
ex ten 859128
app lic 858153
networ k</w> 858146
Ti me 858044
3 4 857562
ta il 856047
fi x 851169
e p 850949
I mp 850827
col le 850012
le ment 848002
s n 847950
2 00 847629
sup er</w> 847535
ser ver 847412
in t_ 844963
S et 844831
moc k_ 844207
al ly</w> 842805
B u 842766
I te 839910
3 0 839154
par se</w> 838913
T he 838308
e qual</w> 837437
ma x 836634
k en 836278
m y 835490
C op 833501
g lob 833434
op tion</w> 831477
G N 831309
e i 830920
co l</w> 830060
ct or</w> 829971
fi c 829171
pl ug 826944
ce l 826661
cm d</w> 824787
hea der</w> 823939
W AR 823770
_ _</w> 823759
\u 5 822592
{ } 821465
ac ke 818770
in di 818439
f t</w> 818315
st s</w> 817045
P r 816559
ex amp 816372
con ver 815256
s um 815039
S i 813280
boo l</w> 813058
whe n</w> 813009
C ol 811375
M P 811104
t f</w> 810673
or g</w> 810537
tr an 810466
y right</w> 809116
== == 807451
mem ber</w> 806618
W W 804751
se con 803271
p er</w> 802347
fir st</w> 802020
5 0 801995
comp le 800819
sy n 799303
ma y</w> 796838
0. 0 796833
an k</w> 796597
vie w 795105
g o 795001
re q</w> 794909
tur e</w> 794343
name_ _</w> 793518
A D 793152
M an 792001
nu mpy</w> 791568
L _ 787631
2 4 786426
m b 786406
in put_ 786245
Val ue</w> 786199
ubli c</w> 785779
e di 785385
10 0</w> 785383
meta data</w> 784808
I D 781940
lin k</w> 781716
li st_ 780497
f u 780151
expec ted</w> 779447
projec t</w> 779444
cont in 779279
loa d_ 776932
__ name__</w> 776845
or ig 776560
ur ation</w> 776330
an d▯ 775488
Fi le 774890
m p</w> 774677
S p 774418
S y 773538
mo di 773430
no w</w> 772829
f act 772243
an d_ 772142
u me 770323
k er 769703
st y 768670
i ter 768363
〖lf〗▯▯▯▯▯▯▯▯ ▯▯▯▯ 768074
ig r 766783
db _ 766063
templ ate</w> 765167
U N 764182
in st 762670
Fi le</w> 762451
p lay 762156
g oo 760850
bu t</w> 760604
g re 759776
with _ 759747
ax is</w> 759529
t ing</w> 759117
pass word</w> 759051
n um</w> 758914
colo r</w> 758274
e d_ 758026
G E 756773
at tr 755875
in te 754654
h _ 754176
pre fix</w> 753562
t y 753277
rando m</w> 753244
de f 752285
sp on 749857
so f 749095
Se e</w> 748877
be ▯ 748305
c f 748150
st at 747038
up date_ 746900
〖docopen: '〗</w> 745765
po l 745738
cke t</w> 744870
de _ 744218
b y_ 743990
max_ length</w> 743416
Ke y 742952
1. 0</w> 742140
B U 741198
d . 740818
si b 739767
on ▯ 739756
curr ent_ 739491
uti l</w> 738285
Test C 738218
d ri 737723
G ro 737258
2. 0</w> 736617
excep tion</w> 736590
u int 736559
c s</w> 736266
ne n 735598
op e</w> 733812
argum ent</w> 733278
m er 733126
an ce</w> 732558
la y</w> 731947
m l 730902
ac t</w> 730605
w r 728668
o me 727673
un it 727617
star t_ 727571
Se t</w> 726070
att ribu 725278
D ic 724798
c ache</w> 724133
p a 723362
valu e 723090
out put_ 722820
ch o 722395
R ai 722228
c r 722134
has _ 721111
3 6 721062
〖stropenu :"〗</w> 719723
curr ent</w> 719585
Ke y</w> 718868
Re spon 718722
u i</w> 718321
as _ 718063
〖stropenr :'〗</w> 717619
k er</w> 716670
00 0 716281
y e 715792
c a 715401
% ( 714161
2 0</w> 713940
u s</w> 713513
par se_ 713391
f f</w> 712983
bl ank</w> 712918
d o</w> 712736
c s 711888
Q t 711388
entr y</w> 710040
repl ace</w> 709948
W id 709570
fe atu 709346
Me ss 709285
nul l</w> 708769
p res 707695
o w 707311
or t_ 707263
1 1</w> 707152
st ore</w> 706651
i o 704249
S T</w> 704130
node s</w> 704067
ema il</w> 703880
b as 702127
i dent 702090
t or 699825
loc ation</w> 699747
l angu 699675
tex t 698370
direct ory</w> 698058
clas s 697689
an t</w> 697453
exist s</w> 697276
3 5 696596
i r 695854
3 7 694727
A u 694532
〖docopen: '''〗</w> 694302
tr ue</w> 694248
ver bo 694005
Y P 693185
8 0 692962
no w 691577
con stru 691089
〖stropen b 690877
E v 690212
wh ile</w> 689789
N e 688200
ne t</w> 687569
flo at 686784
a ve 686566
st er_ 685961
c ateg 685859
Q u 685396
Dat a</w> 685147
colum n</w> 684598
gi ven</w> 684399
c ent 684100
resour ce</w> 683352
tup le</w> 683158
user name</w> 682081
ali ze</w> 681846
ff er 681563
lo w</w> 681050
P er 680982
g ri 680947
In ter 679501
I S</w> 678338
ser vice</w> 678097
T P 677162
com po 676702
i d_ 676298
le ▯ 675857
U ser 675591
Str ing</w> 675394
I L 675218
v ar</w> 674846
sear ch</w> 674059
E X 673373
mat ch 673169
ic k 672967
u uid</w> 672707
R AN 672349
ma in_ 671930
at ure</w> 671721
TestC ase</w> 671401
vali d</w> 671337
et a</w> 671103
distribu ted</w> 670700
re d 670283
c at 669631
ou r</w> 667944
Char Field</w> 667577
lin g</w> 666303
In te 666234
g en 665631
M E 665629
1 _ 665526
j u 664829
IN G</w> 664114
s ing 663928
do w</w> 663868
p s</w> 663798
stri p</w> 663282
C li 663264
# # 663053
h as</w> 663000
dele te</w> 662819
1 5</w> 662733
time out</w> 662151
su m</w> 661467
bo x</w> 660693
c er 660685
vi ce_ 660482
. ▯ 660210
E C 659670
o l</w> 659570
H e 659279
N um 657924
f ace</w> 657614
m in_ 657029
de l 656713
s ave</w> 656668
run _ 656145
2 _ 655470
assert True</w> 655410
Par ame 655329
pat ch</w> 655091
e ach</w> 654524
b _ 654112
al ▯ 653915
In de 653130
F A 652931
de tail 652027
rea d_ 651991
do c</w> 651563
re ▯ 651296
G _ 650777
ate d_ 650324
retur n_ 650090
H and 649781
co or 648529
mat ri 648295
pat ter 647535
aut o 647461
g n 646715
K E 646311
out put 646147
b rea 646116
cu sto 645897
h ol 645558
per mis 645515
Vi e 645238
rib ute</w> 644906
c ap 644892
statu s_ 644675
h i 644147
8 9 644023
C las 643972
conne ction</w> 643761
Y _ 643450
Lo g 642873
bloc k</w> 642078
de s</w> 641750
t_ id</w> 641612
lon g</w> 641454
B ase 641081
ER _ 640616
N AM 640341
A c 639759
for _ 639426
un t</w> 639135
to ken 638392
su cce 638351
contin ue</w> 637894
te d 636999
expec ted_ 634589
stre am</w> 634461
Gener al</w> 633199
i es</w> 632581
2 7 632070
Cop yright</w> 631231
num b 630202
error s</w> 629841
no ti 629799
re e 629788
I C 629693
ref er 629658
m ore</w> 629257
se qu 628845
st or 628759
de vice</w> 628304
4 4 627629
t ree</w> 627496
I ma 627081
Py th 626579
Mode l</w> 626182
Att ribu 626121
ar g</w> 626086
2 9 625557
AN Y</w> 624208
id x</w> 623609
2 6 623182
S ub 623163
▯ of▯ 622977
off set</w> 622888
in d</w> 620822
con f</w> 620493
am p</w> 620027
http :// 619736
▯ =▯ 619261
ar ch 619163
dow n 618738
av ail 618625
P ublic</w> 618092
me di 618063
la st_ 617945
as t</w> 617174
gra m</w> 616967
an _ 615455
ip _ 614713
11 11 614079
o th 613753
tas k</w> 613598
test s</w> 613563
con stan 613250
ex t 611613
\x 1 610788
d r 610690
GN U</w> 610092
tex t_ 609295
log _ 609050
ment _ 608660
conta i 607639
5 6 606686
S h 605389
dat ab 603861
i li 602882
spe c</w> 602700
utt on</w> 602575
T YP 602523
re ce 602283
U S 602070
st er 602048
5 . 601288
c ase</w> 601202
u te_ 600807
ou t_ 600729
Confi g 600288
I P 599658
pro to 598780
j ob 598064
vol ume 597922
OU T</w> 596373
emp ty</w> 596094
▯ is▯ 595293
re c 594195
us ing</w> 594188
ma pp 593945
roo t_ 592957
ho st 592433
e m 591091
ma ke_ 591016
ma in 590900
flo w</w> 590751
b r 590309
en d_ 590288
▯ the▯ 589971
ab le_ 589467
wi tho 588545
O F</w> 588424
posi tion</w> 588173
〖stropen: """〗</w> 586905
ff er</w> 586590
Rai ses</w> 586434
add_ method</w> 586403
ei ther</w> 586225
me tri 585811
L e 585589
UR L</w> 584955
F r 584941
4 . 584385
O r 584064
8 8 583921
typ e_ 582824
ent i 582681
en um 582195
or g 581875
t mp 581853
f er 581313
L ay 581170
tool s</w> 580819
Com m 580753
pro b 580317
c k 580090
d ra 579875
or ▯ 577596
\ \ 576285
b ar</w> 575928
A p 575607
v ec 574985
f n</w> 574775
W IT 573650
re ver 573342
U p 573041
f y</w> 572902
fr ame</w> 572873
op _ 572694
goo g 572673
O n 572548
ele ment</w> 572503
mode l_ 572194
k now 571921
he ight</w> 571668
D AT 570654
f on 570486
De fa 570366
um e</w> 569943
ke d</w> 568308
c p 567863
line _ 567836
S C 567512
st i 567269
rece i 567216
I s 566769
proce ss 566393
M O 566115
syste m</w> 565701
Retur n</w> 565499
e p</w> 564785
{ 0 563831
ob j 563045
po lic 562315
y i 562037
b in</w> 561832
m igr 561555
N ame 561336
up _ 561274
fin d</w> 561082
d en 560837
qu o 560714
image _ 560266
3 9 559988
fa il 558890
20 0</w> 558808
ro n</w> 557818
O ut 557658
ap i_ 556716
sh a 556508
5 5 556504
li ed</w> 555977
compo nen 555592
label s</w> 555522
conne ct</w> 555352
in ser 555121
nex t</w> 555015
r s</w> 554962
S O 554288
W in 553534
A pp 552862
Li st 551586
man ager</w> 550581
x ml</w> 549839
do main</w> 548394
hand ler</w> 547931
I n</w> 547600
de fi 547322
base _ 547215
t s_ 546376
ati ve</w> 546173
Tex t</w> 545815
form ation</w> 545203
instan ce_ 544709
remo ve</w> 544565
ab led</w> 544064
po ints</w> 543973
p k 543364
ta gs</w> 543143
fo o</w> 543027
l ▯ 542947
use _ 542180
recor d</w> 542090
▯▯▯▯▯▯▯▯ ▯▯▯▯▯▯▯▯ 541227
6 6 540532
L E</w> 540471
ab les</w> 540439
mas k</w> 539275
ste p</w> 538968
on s</w> 538750
c ul 537729
Reque st</w> 537399
argum ents</w> 537139
M at 536475
\x00 \x00 536059
sho w</w> 535598
trans l 534960
sour ce 534512
in to</w> 534468
si mp 534444
st do 533766
sof tware</w> 533733
cho i 532985
Dic t</w> 532781
ac k_ 532147
wor k</w> 531696
an ▯ 531577
seri aliz 531379
langu age</w> 529245
re t</w> 528638
buil d_ 528010
i z 527919
it e</w> 527331
error _ 527285
po p</w> 526865
pl t</w> 526650
s h</w> 526602
Y ou</w> 526461
st amp</w> 526142
sup por 525945
ten sor 525829
par ti 525531
clas s_ 524586
ar d 524473
ut f</w> 524228
detail s</w> 523792
Ch an 523679
time _ 523322
n g</w> 523124
grap h</w> 523015
Au th 522763
retur ns</w> 522098
R un 522001
fla gs</w> 521250
no t 521193
T R 520566
ar _ 520244
tx t</w> 519851
di ction 519735
S P 519484
lay er</w> 519426
Pat h</w> 519418
inde x 519226
by tes</w> 518923
h ere</w> 518820
---- ---- 518394
as y 517646
ON _ 517309
stan ce</w> 517145
re le 516483
1 3</w> 516359
f ac 516158
Col um 515670
I N</w> 515417
1 4</w> 515154
p ubli 514658
mu st</w> 514411
metho ds</w> 514356
u re_ 514020
No de</w> 513715
low er</w> 513292
S of 513173
dat ion</w> 513124
WAR RAN 513121
al ph 511298
st u 511259
wh ere</w> 510650
it y_ 509671
en ce 509664
input s</w> 509073
ww w</w> 508966
cor re 508574
p ay 508509
con n</w> 508314
mar k 508291
se ts</w> 508261
er i 506986
colum ns</w> 506153
Q U 506088
ge ts</w> 505753
Re s 505383
sc ope</w> 505266
brea k</w> 505247
unit test</w> 505078
s ame</w> 504967
f oo 504693
v el 504130
2 8 503879
str a 503752
s li 503448
uni qu 502874
s c</w> 502644
Er ror 502132
> ▯ 501883
se e</w> 501798
vo id</w> 501710
5 9 501481
nor ma 501105
li ke</w> 500965
the n</w> 500936
3 8 500226
con di 499506
\u 0 498603
g er 498438
st ack</w> 497909
chan nel</w> 497029
confi g_ 496447
dent i 496298
tar get_ 496101
we b 495967
r ap 494955
res p</w> 494017
po st</w> 492798
exec ute</w> 492441
o s 492412
vi de 492399
objec t_ 492360
jec t</w> 492011
Attribu te 491988
proper ties</w> 491861
; ▯ 491637
att ribute</w> 489927
plo t</w> 489845
T ▯ 489753
par t</w> 489387
ter n 489264
3 0</w> 488437
X _ 488417
matri x</w> 488384
po s 487762
S H 487199
call back</w> 487074
A ut 487051
S U 486646
act u 486042
lic en 485835
chil d 485654
B oo 485304
acti v 485097
pro x 484810
〖stropenb :'〗</w> 484610
stdo ut</w> 484364
pro gram</w> 484094
P RO 482641
fo und</w> 482436
F il 481024
le ft</w> 480930
re d_ 480475
o k</w> 480431
ct x</w> 480221
N et 480047
Te mp 479984
al y 479704
ke y_ 479251
witho ut</w> 478930
b a 478727
te d▯ 478498
so cket</w> 478364
y . 478124
WIT H 478031
t y_ 477479
f o</w> 477209
we igh 477002
code _ 476787
sty le</w> 476240
ent ation</w> 476122
pri mar 475799
E R</w> 475775
ze ro 474979
ation ▯ 474976
ac coun 474945
B y 474633
if y</w> 474561
me ta</w> 474417
K _ 473857
assert Raises</w> 473722
M _ 473132
F un 472567
yi eld</w> 472427
fa ke_ 471290
F F 470700
vir tu 470492
ro u 470078
chan ne 470013
vari able</w> 469866
ne _ 469601
p ip 469393
\ t 469304
D ate 469050
Ti me</w> 468790
au se</w> 468173
:▯ %s</w> 467892
D O 467441
I p 466910
vol ume</w> 466018
le ss</w> 465192
P _ 464886
a a 464673
Ite m</w> 464250
7 0 464088
P re 463933
2 4</w> 463926
mess ages</w> 462732
da y</w> 462670
c ri 462501
fin d_ 462431
L ab 462182
a st 462114
: ▯</w> 461588
Con ne 461534
. com 461357
LI C 461036
m ini 460859
loc k</w> 460830
i x 460776
W e 460357
b er 460129
t r</w> 460028
s av 459924
am es</w> 459525
_ type</w> 459485
d f 459093
sib le</w> 458667
en ▯ 457903
attribu tes</w> 457602
constru ctor</w> 457498
si z 457474
The ▯ 457258
row s</w> 456249
fiel d_ 456206
Respon se</w> 455769
AT I 455609
sour ce_ 454583
fol low 454581
ac he 454448
l y 454380
co n</w> 454255
5 0</w> 453807
Tr ans 453750
in ing</w> 453207
a log</w> 453102
A s 452887
cre ated</w> 452790
E D</w> 452261
V ER 452079
Objec t</w> 452049
sn ap 451889
aut h</w> 451795
f et 451770
Str ing 451548
for ms</w> 451177
ab ili 450919
t . 450806
group s</w> 450711
sy m 450422
C L 450355
> =</w> 449854
in d 449802
Co lo 448931
st ate 448872
sh ed</w> 448674
ay s</w> 448366
s on 448280
specifi ed</w> 448133
n ▯ 447950
op tional</w> 447904
hand le</w> 447629
fa i 447450
py test</w> 447228
V ari 446984
acti ve</w> 446980
dele te_ 446951
l an 446900
curr ent 446871
m t</w> 446765
U ser</w> 446661
comm on</w> 446625
stru ct</w> 446416
Pr oper 446133
arg v</w> 446124
pl at 445486
4 9 445342
fro m▯ 445098
r p 444810
er r</w> 444062
up dat 444050
' ▯ 443910
l ate 443638
orig in 443558
ut f 443258
specifi c</w> 443012
buil d</w> 442541
or der 441959
op ts</w> 441942
NAM E</w> 441814
am e_ 441708
pr op 441630
as ▯ 441449
" > 441096
cont ent_ 440857
4 8 440729
Ver sion</w> 440618
th ing</w> 440348
has h</w> 440265
ge s</w> 440127
A L</w> 439753
HT TP 439472
lim it</w> 438967
2 ▯ 438950
wid get</w> 438620
c ach 438436
Sof tware</w> 438393
re g 437823
ction _ 437782
R o 437613
le d_ 437565
6 0 437262
De le 437028
ex it</w> 436689
op tion 436448
ST _ 435829
ori z 435737
Fi el 435557
q _ 435293
do _ 434923
re ign 434909
ti ve</w> 434779
p ai 434532
a z 434308
ic _ 433973
stat s</w> 433963
Ge t</w> 433685
clas ses</w> 433536
Chec k</w> 433153
se ction</w> 432927
ac tion 432704
with ▯ 432140
asy n 431983
af ter</w> 431916
v es</w> 431847
stre am 431474
0 1 431089
a w 430607
Bu il 429993
Tex t 429673
Gro up 429656
ad min</w> 429344
cre ate 429249
0. 5</w> 428992
to p</w> 428580
Ar gs</w> 428357
en coding</w> 428232
{ }</w> 428193
s ing</w> 428119
Objec t 427744
sho w 427109
g u 426896
W i 426758
A U 426542
mat h</w> 426184
que ue</w> 425980
path _ 425503
dep end 425275
no _ 425023
ma ke</w> 424943
V ali 424863
Cre ate</w> 424702
g ▯ 424465
al read 424123
WITH OUT</w> 423467
config uration</w> 423210
stati c 423049
get attr</w> 422846
IT Y</w> 422348
gr am 421722
for e</w> 421371
arra y_ 421360
Ad d</w> 420882
par tic 420654
cf g</w> 420560
di ffer 420418
return_ value</w> 420225
Add ress</w> 420086
pr int_ 419852
p acke 419804
sr c</w> 419699
sto p</w> 419592
chan ge</w> 419342
Al l</w> 419317
g l 419028
un it</w> 418943
chil d</w> 418922
add res 418913
en code</w> 418532
F ro 418377
AP I</w> 418355
enc y</w> 418354
a x</w> 418317
cont ro 418203
attr s</w> 418060
vir on 417646
quer y_ 417014
5 7 416987
si te</w> 416816
In fo</w> 416444
res ol 416272
s m 416201
win dow</w> 416137
F or</w> 416112
W or 415509
de l</w> 415208
scrip t</w> 415118
rep res 415082
A _ 414447
E le 414444
wor ds</w> 414443
m y</w> 414319
0 ▯ 414310
B ase</w> 414185
s ure</w> 413676
star t 413627
st der 413601
us r</w> 412975
t k</w> 412902
at ▯ 412870
lib r 412865
f ut 412380
D O</w> 412293
group _ 412187
du mp 412062
e s_ 411929
B e 411771
in formation</w> 411670
P AR 411651
tas k_ 411608
ra di 411554
L in 411541
so me 411371
d s 410918
w x</w> 410781
las t</w> 410739
ec t</w> 410734
wa it</w> 410469
T AB 410361
cur sor</w> 409613
ver sion 409004
multi p 408938
Si ze</w> 408372
Vie w</w> 408345
po ol</w> 408206
c um 408157
dri ver</w> 408085
ra w</w> 407802
p ub 407618
ap i 407589
Inde x</w> 407366
Se le 407119
T a 407094
ge _ 406484
scal e</w> 406465
C all 406436
reque st_ 406301
featu res</w> 405876
datab ase</w> 405745
path s</w> 405363
imp lied</w> 405325
H o 405294
C ur 405210
b et 404978
k ▯ 404714
St ar 404691
cont rol 404579
si ze 404544
a der</w> 404236
c r</w> 404068
E qu 403695
status_ code</w> 403393
re n</w> 403332
s in 402991
add_ argument</w> 402566
as h 402323
de st</w> 402321
ch un 402239
2 5</w> 402229
ch a 401992
wri te_ 401968
of _ 401962
up date 401896
Hand ler</w> 401395
ul t 400944
I O 400748
vari ables</w> 400384
__ main_ 399800
d d 399649
regi ster_ 399488
Colum n</w> 399391
S o 399120
__main_ _</w> 398793
star ts 398631
e t</w> 398556
ne s</w> 398256
F e 398180
u tion</w> 398045
Aut o 398026
vi ces</w> 397799
sp ac 397796
bu ffer</w> 397777
y our</w> 397634
w as</w> 397415
mar k</w> 397377
St atu 396907
in it</w> 396673
cal l_ 396614
Pyth on</w> 396570
St ate</w> 396287
acce ss</w> 396280
at o 395477
X M 395039
time stamp</w> 394971
B AS 394248
O per 394242
el l</w> 394113
se ▯ 394044
cli ent_ 393973
lo c</w> 393882
cal led</w> 393768
ol d_ 393692
ma ke 393388
c ted</w> 393114
add r</w> 392877
no t_ 392403
g s 392321
ON S</w> 392179
( ? 392116
pro file</w> 392045
licen ses</w> 391688
cour se</w> 391635
d in 391621
th read 391474
R an 391404
starts with</w> 391052
A R</w> 390269
lo ok 390177
4 7 390046
M I 389858
al le 389811
resour ce_ 389258
Fo reign 389086
an s</w> 388948
n i 388183
Pro ce 388036
fu l</w> 387851
del ta</w> 387228
b it 387109
ac cep 387096
ou s</w> 387059
Re mo 386917
ne ed</w> 386679
seri alize</w> 386274
en vi 385736
F act 385078
it y 384957
ome try</w> 384529
glob al</w> 384507
ase s</w> 384119
H O 384065
me an</w> 384055
do ub 383799
g ame</w> 383761
TO DO</w> 383653
. 0</w> 383641
ST AT 383489
d um 383439
U T 382970
} ▯ 382936
FA UL 382486
cre denti 382320
li g 382267
or y 381898
nex t_ 381870
Ip v 381801
De scrip 381211
ur i</w> 380701
25 5</w> 379740
WW WW 379706
stder r</w> 379649
diction ary</w> 379465
Par ser</w> 379301
parame ter</w> 379228
su b</w> 379103
P l 378952
DE FAUL 378932
th ere</w> 378906
u re 378812
9 0 378062
clo u 377854
s v 377297
6 7 377104
2 3 377066
H E 376890
〖tab〗 〖tab〗 376814
ac tions</w> 376670
ent ic 376578
ne e 376367
M ul 375803
envi ron</w> 375712
f re 375569
< =</w> 375451
avail able</w> 374310
lo op</w> 374080
L E_ 374000
0000 0000 373913
▯ for▯ 373543
W ri 373456
sen d_ 373427
Mo ck</w> 373153
fut ure_ 373089
H el 372882
c lic 372766
ex i 372181
snap sho 372091
so me</w> 371952
over ri 371930
r ate</w> 371858
wr app 371842
w er</w> 371783
sc re 371741
sche ma</w> 371404
C lo 371210
R u 371020
A S</w> 370998
C _ 370834
ident ifi 370705
dow n</w> 370694
wri te 370643
s le 370566
c ar 369753
jo b</w> 369369
e ff 369249
an ce 368870
indi ces</w> 368860
c c 368677
be fore</w> 367539
For m</w> 367331
ex t</w> 367222
rever se</w> 367221
user s</w> 366813
format _ 366727
excep tions</w> 366567
Foreign Key</w> 366240
f ace 366126
Mess age</w> 366023
fro m 365765
ju st</w> 365492
X X 365290
8 7 365199
m l_ 365098
data set</w> 365072
b row 365015
di m</w> 365000
inter face</w> 364772
b ran 364656
se g 364476
examp le</w> 364316
ten sor</w> 364262
s end</w> 363891
fil ter_ 363531
ig no 363500
bloc k_ 363487
Wid get</w> 363459
1 e 363435
s w 363377
ex clu 362601
3 _ 362535
U p</w> 362480
vali d_ 362050
tw o</w> 361980
patter n</w> 361917
s core</w> 361832
S our 361821
networ k_ 361730
Confi g</w> 361365
==== ==== 361082
ta g 360914
de d 360443
Cli ent</w> 360341
en _ 360079
: :▯ 359653
set up</w> 359609
st ed</w> 359442
permis sions</w> 359270
se cur 358950
ful l_ 358890
di men 358611
stati c</w> 358285
e s▯ 358238
uni code</w> 358176
Type Error</w> 358117
p ack</w> 357737
Fo un 357284
http s</w> 356713
In vali 356378
ter min 356327
__ future_ 356302
tab le_ 356287
__future_ _</w> 356191
ter ms</w> 356170
O P 356164
T en 356147
bu f</w> 355688
per io 355170
1 7</w> 355100
le ar 354901
i o</w> 354876
z ip</w> 354590
le t 354487
〖lf〗 ▯▯ 354361
p t</w> 354291
0 2</w> 354272
I O</w> 354181
tot al</w> 354045
f s</w> 353768
for m_ 353438
ver sion_ 353202
T ER 353062
Parame ters</w> 352963
TI C 352824
sq l</w> 352663
enum er 352399
par se 352206
H tt 352062
has attr</w> 352006
v 2</w> 351994
ul d▯ 351634
V I 351498
ex c</w> 351480
IL ITY</w> 351450
A g 351324
ac count</w> 351305
Re gi 351029
W e</w> 350978
st in 350963
la y_ 350671
th is▯ 350313
gri d</w> 350297
ou ▯ 349934
sor ted</w> 349899
por t 349782
sub process</w> 349398
verbo se</w> 349155
pre di 349021
dire ct</w> 348997
at h</w> 348863
an ds</w> 348853
M eta</w> 348725
ru le</w> 348603
reque sts</w> 348599
D B 348455
ev ents</w> 348327
Qu er 348160
initi aliz 347793
ra w_ 347673
django.db.models.fields. CharField</w> 347470
Ar ra 347458
an aly 347359
node _ 347085
ori es</w> 347049
D is 346763
- 8</w> 346695
bat ch_ 346628
N E 346362
s co 346342
id d 346188
ta in</w> 346051
b ar 345614
C C 345455
at ch 345442
primar y_ 345346
p op 345065
rai ses</w> 344959
al lo 344487
sto re_ 344400
S ER 344265
selec t</w> 343965
ti fic 343719
c n 343649
de ▯ 343508
so ci 343487
l y_ 343304
ur l_ 343252
G ui</w> 343194
l y▯ 342792
Cre ate 342778
po st 342697
ol d</w> 342528
der s</w> 342261
at ing</w> 342182
root_ module</w> 342162
S S 342109
comp ile</w> 341904
sear ch_ 341793
0. 1</w> 341776
m it 341698
tot al_ 341569
auth or</w> 341263
res sion</w> 340371
c y 340283
ent ▯ 340196
fla g</w> 340164
s ur 340060
) ,▯ 339873
F _ 339687
ner _ 339563
ye ar</w> 339468
CH AN 339019
server _ 339009
ne d_ 338927
1 8</w> 338520
fun ctions</w> 338458
en ces</w> 338060
pack age</w> 337983
Htt p 337634
5 4 337511
Ar g 337043
t - 336987
ser vice_ 336739
1 / 336648
h ist 336620
n on 336447
ev ent_ 336309
http s 336280
ES S</w> 335997
sequ ence</w> 335650
vi si 335596
mess age_ 335265
er r 335135
Fr ame</w> 335049
local _ 334973
6 9 334939
ar y 334808
Equ als</w> 334766
m d 334764
lo t</w> 334735
LIC EN 334189
dir name</w> 333929
comm ent</w> 333867
regi ster</w> 333862
\ " 333518
al so</w> 333506
imp lement 333445
loc al</w> 333127
u r</w> 332802
Clas s</w> 332571
vali dat 332476
plug in</w> 332360
war n 332173
ta i 332026
fact ory</w> 331708
sum mar 331574
ema il 331345
am o 331256
su f 331114
ite m_ 330859
s on</w> 330710
Mul ti 330660
6 . 330592
yp e</w> 330542
E ▯ 330362
z one</w> 330281
inter n 330262
o ▯ 330201
le vel 330120
child ren</w> 330048
categ ory</w> 329865
or m 329419
d t</w> 329368
Un i 329226
IT I 328991
char ac 328825
f l 328718
th an</w> 328581
re ge 328111
Mode l 327929
p k</w> 327910
ma il 327696
op t</w> 327670
rig h 327637
z er 327458
fil ters</w> 327383
de v</w> 327106
lim it 327076
0 - 327044
th read</w> 327003
al low 326872
pip e 326517
bat ch</w> 326351
ex p</w> 326272
fol der</w> 326112
Sy ste 326075
wa y</w> 325949
vi sion</w> 325383
ma p 325352
w . 325192
s ort</w> 324932
le . 324759
〖lf〗 〖lf〗 324532
modi fi 324459
▯ % 324328
de code</w> 324021
wor d 323846
f ree</w> 323801
n d 323656
bet we 323605
J S 323354
.com / 323055
mu st▯ 322256
AA AA 322207
a / 321906
si de</w> 321850
Ex p 321826
B O 321564
polic y</w> 321531
we ight</w> 321528
[ ' 321280
S Q 321268
modu les</w> 321189
h s</w> 321172
LICEN SE</w> 321159
0 1</w> 321129
R ec 320737
Fiel d 320659
mo d</w> 320416
f t 320304
ad ded</w> 320276
secon ds</w> 320181
7 . 320148
F OR</w> 320116
alph a</w> 320110
pri v 320012
TH E</w> 319924
val s</w> 319811
Man ager</w> 319667
** ** 319270
Qt Gui</w> 319264
re as 319261
str o 319260
tran sp 319157
ic s</w> 318836
is o 318831
6 0</w> 318683
image s</w> 318593
T as 318583
M EN 318537
s - 318469
me r</w> 318021
fir st_ 317993
E L 317942
defaul t 317873
js on_ 317834
Co unt</w> 317827
le x 317806
resour ces</w> 317784
has h 317731
proce ss_ 317545
samp les</w> 317489
o c 317303
extr a_ 317242
uniqu e</w> 317221
cal cul 316700
d▯ to▯ 316539
\u5 e 316351
Bo x</w> 316168
samp le</w> 315841
Se tt 315783
GE T</w> 315626
b utton</w> 315491
fr ame 315288
ri b</w> 314840
HT M 314723
mi z 314712
weigh ts</w> 314355
be g 314266
de vice_ 314244
AP I 314023
templ ate_ 313952
load s</w> 313937
S u 313543
Ele ment</w> 313440
de sc</w> 313322
or y_ 313254
sh _ 312888
F OR 312853
inclu de</w> 312806
Sp ec 312790
lin k 312769
8 4 312731
per _ 312664
contai ner</w> 312664
s a 312563
imp le 312528
auth _ 312487
en ci 312402
en abled</w> 312192
var s</w> 311895
ar y_ 311612
p ick 311071
Ser vice 310933
te ▯ 310875
V AL 310773
bo x 310639
Inte ger 310463
th _ 310228
docum ent</w> 310214
zero s</w> 310203
norma li 310157
h a 310055
i ti 309921
wi se</w> 309860
S ho 309821
Foun dation</w> 309514
log in</w> 309399
h er 309209
modu le_ 309178
C an 309130
\u 6 308953
r on 308947
Chec k 308869
ge ometry</w> 308818
Ser i 308811
do es</w> 308336
sho w_ 308331
Se s 308283
_ t</w> 308277
exten sion</w> 308249
le an 308246
s ave 308194
us h</w> 308164
St re 308112
r t</w> 308053
Lo c 308010
Ev ent</w> 307982
set Up</w> 307885
tra in</w> 307710
PO ST</w> 307651
pro g 307641
eng ine</w> 307624
po st_ 307588
https :// 307387
disp lay</w> 307353
S ec 307327
Cont ent 306815
sing le</w> 306794
pyth on 306320
fil en 306211
Ima ge 306155
ch ar</w> 306127
plo t 306029
I t</w> 305864
war ning</w> 305550
ev ent 305432
ta il</w> 305315
G P 305251
change d</w> 305118
cs v</w> 304945
Imp lement 304578
8 . 304549
ac t_ 304037
de v 304034
sh e 303860
tab le 303805
DI R</w> 303725
assert Equals</w> 303547
li ty</w> 303454
w d</w> 303405
ab sol 303395
bloc k 303242
Q ue 303229
1 .</w> 303065
succe ss</w> 303025
s 3 302944
regi str 302919
L A 302719
E di 302478
te mp</w> 302133
en viron 302040
E V 302020
mess age 301776
] ▯ 301620
c ture</w> 301545
m y_ 301272
Mess age 301152
im g</w> 301136
sche du 301057
ve ▯ 301003
ite m 300836
enumer ate</w> 300688
follow ing</w> 300545
par ts</w> 300541
name space</w> 300497
Fro m 300437
TI ES</w> 300327
output s</w> 300195
Wi th 300046
I d 300029
view s</w> 299783
b ec 299628
le an</w> 299558
e ▯ 299549
ho st_ 299521
s af 299462
res _ 299329
op ti 299237
" :▯ 299043
prob le 299028
e valu 298986
ac tion_ 298866
ro ug 298682
virtu al</w> 298574
in ter</w> 298300
V ec 298298
Lic en 298272
assert_ equal</w> 298167
exp r</w> 298159
fun ction 298108
1 , 297771
& # 297675
di ct_ 297621
d on</w> 297522
Me ta 297481
I ter 297474
plat form</w> 297387
st ate_ 297298
inte ger</w> 297149
e ven</w> 297039
Ex amp 296756
cour se_ 296726
k i 296702
bo un 296270
Li ne 296239
x ml 296127
imp or 295705
class method</w> 295533
t re 295461
0 2 295168
ele ments</w> 295150
sav e_ 295130
sh ap 294764
bin ary</w> 294660
Mo du 294614
cont ents</w> 294374
M ER 294339
str ings</w> 294160
provi ded</w> 293993
rol l 293909
p age 293699
utf -8</w> 293548
app _ 293351
str ic 293229
par t 293227
ig ht 293011
O f 292913
at _ 292597
defi ned</w> 292352
dir s</w> 292255
ent ri 292101
- ></w> 292073
g g 291909
p i</w> 291746
bo t</w> 291425
un its</w> 291329
are ▯ 290919
WARRAN TIES</w> 290906
D ec 290585
pay load</w> 290460
Pro to 290350
pi x 290304
sig n</w> 290303
F IT 290063
n on</w> 289785
Arg um 289742
oper ator</w> 289668
ext end</w> 289539
comp ute</w> 289499
sign al</w> 289493
* ▯ 289313
modi fy</w> 289196
f ini 289007
Con text</w> 288678
mapp ing</w> 288526
Reque st 288512
credenti als</w> 288472
i ter</w> 288358
.. .</w> 288213
primary_ key</w> 288044
Op en 288039
d y 287777
pre vi 287642
sup port</w> 287581
defaul ts</w> 287088
lo b</w> 287049
time s</w> 286936
0 .</w> 286917
sle ep</w> 286843
c ts</w> 286729
sear ch 286662
on t 286551
gre g 286429
co ver 286114
Do w 286041
ro le</w> 285927
tr ack 285824
bo l</w> 285693
ST R 285302
cel l</w> 285235
buil d 285068
) s 284639
f name</w> 284619
Fact ory</w> 284605
Me tho 284582
valu e_ 284564
C al 284417
projec t_ 284153
th res 284089
9 7 284056
se cre 283881
S M 283862
b b 283716
migr ations</w> 283539
p la 283219
ne ri 283023
' %s 283018
re du 282830
ab s</w> 282830
m k 282754
' ,▯ 282686
ser ved</w> 282678
' ]</w> 282615
inf o_ 282536
con st▯ 282381
Test s</w> 282355
def ini 282237
of f</w> 282115
2 2</w> 282101
spec i 281793
vie w_ 281529
Po lic 281484
co ok 281249
le d 281021
## ## 281010
ip v 280847
inser t</w> 280818
back end</w> 280693
retur ned</w> 280500
Comm and</w> 280189
lat er</w> 279978
p age_ 279976
\ s 279947
Po si 279930
T T 279421
ur ls</w> 279343
ase _ 279264
u e_ 279147
po int 278953
oper ation</w> 278840
2 1</w> 278838
5 8 278747
a k 278651
100 0</w> 278566
. p 278554
comm it</w> 278552
b utt 278440
e q 278224
An d 278201
Op tional</w> 278170
1111 1111 278144
B utton</w> 278098
te n</w> 277863
inde x_ 277828
user _id</w> 277725
resour ce 277694
lin ks</w> 277667
Num ber</w> 277489
recei ved</w> 277354
remo ve_ 277319
cont ent 277244
p d</w> 277208
pre c 276894
_ C 276871
at h 276847
as soci 276714
Co un 276595
S che 276541
0. 00 276429
k w</w> 276129
- ▯ 276083
bo ard</w> 276079
Gro up</w> 276033
ad di 275849
ex tern 275736
cach e_ 275514
IN G 275438
di ff</w> 275309
F ree</w> 275183
F lo 275081
z h</w> 274993
refer ence</w> 274525
sh if 274437
idd le 274267
at or 274240
grap h 274232
v 1</w> 274205
cal ls</w> 274112
en co 274019
T E</w> 273933
res h 273788
applic ation</w> 273763
imp ort_ 273687
s lu 273631
static method</w> 273623
A ction</w> 273569
▯- ▯ 273251
ser vice 273238
No de 273152
% d 273114
g it 273068
lo ss</w> 273048
pro to</w> 272932
pas sed</w> 272830
1 9</w> 272747
v m_ 272687
con stra 272556
de d_ 272497
men u</w> 272465
DEFAUL T_ 272445
st ates</w> 272390
Ev ent 272365
LO G</w> 272310
d one</w> 272290
ter ▯ 272264
li ance</w> 272052
doub le</w> 272026
U P 271971
Win dow 271820
m ac 271706
cont rib 271659
re ct 271523
ign ore</w> 271397
\x 20 271188
comm ands</w> 271180
choi ces</w> 271101
is_ const</w> 271072
colo r 270996
proto col</w> 270730
T ag 270461
la st 270244
descrip tor</w> 270175
s_ to_ 270081
val _ 269981
re tri 269969
an not 269754
quer y 269560
K IN 269498
d n 269472
t mp</w> 269367
aut o_ 269021
c ro 268959
tr y 268929
bo t 268889
stan d 268816
fi t</w> 268711
fin d 268697
App lic 268141
by te 268075
stor age</w> 267925
P AT 267892
l ar 267686
gi th 267634
w o 267521
ra g 267462
p b 267459
w il 267393
se par 267265
ser v 267070
ge d</w> 266960
c / 266951
P ri 266915
{0 } 266669
No te</w> 266548
v en 266353
Lab el</w> 266350
ne d▯ 266281
de n</w> 266185
ge o 266014
oth er 265977
▯▯▯ ▯</w> 265818
ic al</w> 265718
in vo 265603
v m</w> 265491
dis able</w> 265275
par ent_ 264990
F L 264989
< ▯ 264959
b ro 264789
P ol 264731
sub scrip 264730
Ima ge</w> 264475
Integer Field</w> 264422
de te 264248
ri d 264216
distri b 264090
g p 264086
s wit 264067
RE S 263959
Un less</w> 263725
rep o</w> 263595
proce s 263567
ra w 263273
gener ate_ 263147
a - 263131
ren der</w> 263051
res s 263045
re al 263008
file ▯ 262989
e f 262916
( ) 262801
a long</w> 262668
4 5 262617
G H 262540
IN F 262447
sp ace 262401
no v 262169
le g 261999
ho o 261755
ful l</w> 261733
ad min_ 261673
ad e</w> 261567
betwe en</w> 261273
lay out</w> 261254
dump s</w> 261010
L IN 260933
volume _ 260727
l er 260622
inter val</w> 260578
colle ction</w> 260508
s d 260429
lo p 260304
rando m_ 260144
coor din 260092
RE C 259750
f p</w> 259621
be en</w> 259477
att ach 259334
stan ce 259118
ma p_ 258769
applic ation 258758
test ing</w> 258705
extr a</w> 258657
ww w. 258246
pl ace 258225
warn ings</w> 258171
po ol 258024
u b</w> 257962
use ful</w> 257938
c ache 257924
G rap 257669
e qu 257595
m g 257367
B ack 257318
__ class_ 257176
publi shed</w> 257150
or der_ 256877
al g 256855
00 0</w> 256846
instan ce 256564
fa il</w> 256533
samp le_ 256482
u te 256253
lic ense</w> 256159
wri ting</w> 256146
bloc ks</w> 256047
goog le</w> 256038
lay ers</w> 255990
at ors</w> 255978
clu ster</w> 255878
P U 255859
dat ase 255693
t rig 255298
ro t 255185
header _ 255137
y s</w> 254965
Al l 254880
F ai 254858
war d</w> 254857
ori th 254844
Co de</w> 254769
an ti 254715
vec tor</w> 254610
4 6 254397
> < 254261
vali date_ 254222
token s</w> 254123
C u 254121
th roug 254116
f alse</w> 254061
▯ in▯ 253799
ag ent</w> 253768
clas si 253597
rep r</w> 253590
Do cum 253507
do es 253453
__class_ _</w> 253438
m ut 253130
+ ) 253106
entri es</w> 252937
W he 252676
instan ces</w> 252572
T Y</w> 252525
k ind</w> 252510
ap _ 252373
d n</w> 252088
P UR 251372
_ re 251187
O S 251002
hol d</w> 250700
au di 250511
No ▯ 250362
enci es</w> 250329
Re ad 250310
loc k 250130
assert False</w> 249895
e ver 249890
LE C 249651
rep ort</w> 249537
verbo se_ 249525
M y 249303
constan ts</w> 249131
TYP E_ 249125
4 0</w> 249036
M ix 248940
bec ause</w> 248896
N ESS</w> 248811
t d 248735
base d</w> 248731
\ d 248727
In stance</w> 248657
co ls</w> 248649
comp i 248619
one s</w> 248574
w are</w> 248554
9 6 248433
i on 248401
lin t</w> 248330
99 99 248291
an iz 248168
8 0</w> 248062
ang le</w> 247743
resul t_ 247720
the y</w> 247677
js on 247611
auth entic 247488
distrib ute</w> 247481
ab o 247475
arch i 247444
# ▯ 247424
s end 247252
pub lic 247216
M ar 247178
se q</w> 247148
ti l</w> 247006
par ent 246982
ac e_ 246934
_ de 246915
orm [' 246898
ma il</w> 246894
MER CHAN 246811
in ste 246796
ase ▯ 246726
suf fix</w> 246488
PUR PO 246468
m ach 246392
alread y</w> 246315
UL AR</w> 246314
PAR TIC 246269
R A 246236
doc s</w> 246147
. * 245967
the m</w> 245924
ru les</w> 245811
Vali dat 245516
Imp ort 245396
D ▯ 245345
mb ol 245233
MERCHAN TAB 245111
ge n</w> 245061
In put 245032
actu al</w> 244860
label _ 244821
contro l</w> 244775
f d</w> 244620
con si 244545
Vari able</w> 244540
\u5e 02</w> 244518
T able</w> 244473
A cce 244429
Ap ache</w> 244361
l l</w> 244292
AN D</w> 243983
FIT NESS</w> 243734
PURPO SE</w> 243703
J o 243590
TE R</w> 243498
fe ature</w> 243364
R _ 243216
produ ct</w> 243205
P as 243160
rel ate 243153
op e 243031
CON D 242810
Log ger</w> 242629
tra in_ 242496
KIN D</w> 242481
PARTIC ULAR</w> 242128
M M 241925
ste ps</w> 241843
MERCHANTAB ILITY</w> 241799
P acke 241794
0x 0 241707
us age</w> 241676
si ty</w> 241579
F a 241471
\u 77 241197
Pl ug 241066
s a</w> 240989
re . 240971
b it</w> 240753
run ning</w> 240679
c ▯ 240662
dep th</w> 240658
Inde x 240639
U D 240408
fi g 240317
〖lf〗▯▯▯▯▯▯▯▯▯▯▯▯▯▯▯▯ ▯▯▯▯ 240265
conta ins</w> 240236
Not Implement 240083
gener ated</w> 239894
F RO 239882
secon d</w> 239852
mem b 239578
W OR 239522
zer o</w> 239415
de stin 239408
g over 239366
ch es</w> 239318
F la 239251
p id</w> 239228
DE BU 239111
siz e_ 239086
respon se_ 238904
identifi er</w> 238574
. html</w> 238536
i r</w> 238183
R P 237873
M on 237764
know n</w> 237757
Licen sed</w> 237716
slu g</w> 237665
g ue 237630
use s</w> 237542
ro ute</w> 237384
Statu s</w> 237141
p ho 237042
P Y 236912
sk ip 236808
\x0 1 236736
s al 236635
m ati 236635
TI ON</w> 236601
por t_ 236557
1 - 236522
se e 236510
I D_ 236350
r type</w> 236191
mo ve</w> 236141
p ages</w> 236020
re t 235871
disp lay_ 235802
l d 235721
Res ult</w> 235546
0 , 235448
Str u 235432
e po 235390
I S 235345
summar y</w> 235140
sq l 235078
b y▯ 235026
Proce ss 234971
sq rt</w> 234912
7 9 234816
pack ages</w> 234641
ali ty</w> 234585
assert Is 234250
u d 234034
ec h 234024
〖lf〗▯▯▯▯ ▯▯ 233849
2 3</w> 233325
f las 233320
mo d 233318
st d 233192
h id 233037
LO C 233014
%s / 232980
\u77 01 232771
ob tain</w> 232543
ima l</w> 232540
Con ver 232418
ti ve 232347
> 〖lf〗 231931
reas on</w> 231725
C S 231705
mark er_ 231648
Proper ty</w> 231519
htt p_ 231478
componen t</w> 231411
u u 231272
In iti 231198
e sc 231166
com par 231069
re posi 231050
rele ase</w> 230889
f mt</w> 230853
libr ary</w> 230813
w ai 230701
ali ze 230675
do t</w> 230612
r m 230414
Cli ent 230379
conta in 230362
cal led_ 230344
o ver</w> 230309
comp ute_ 230293
li ter 230232
updat ed</w> 230061
fon t</w> 230029
in st</w> 229998
Po int</w> 229813
8 5 229788
Re cor 229673
w ant</w> 229662
A b 229568
tensor flow</w> 229541
w er 229213
tr ace 229105
f t_ 229104
the se</w> 229094
di ff 229037
Defa ult 228966
en ce_ 228837
no te</w> 228667
ren der_ 228585
num er 228545
di st</w> 228527
con text_ 228295
In fo 228290
f . 227972
me d</w> 227952
U M 227854
a . 227812
Se qu 227770
) ; 227692
colle ctions</w> 227631
sin ce</w> 227461
In t 227377
ate d 227347
amo unt</w> 227327
ke s</w> 227114
pl ace</w> 227095
f ▯ 226853
prox y</w> 226678
ent ity</w> 226575
boo k</w> 226511
up lic 226262
ne ss</w> 226222
w s 226076
regi on</w> 226068
_ create_ 225961
UR L 225946
oper ations</w> 225928
initi al</w> 225869
sett ing</w> 225849
comp liance</w> 225700
M ax 225438
Ma p</w> 225237
applic able</w> 225175
is su 225156
W H 225136
control ler</w> 225096
uint 32</w> 225042
Ite m 224982
〖stropen: '''〗</w> 224936
25 6</w> 224767
Di r</w> 224682
c b 224620
coun ter</w> 224567
str ing 224510
corre ct</w> 224495
Arra y</w> 224439
he ad 224396
q s</w> 224390
ap ache</w> 224382
Respon se 224365
C ore</w> 224330
partic le_ 224329
Defa ult</w> 224268
sp ath</w> 224234
fi ci 224094
th er 223994
con so 223983
ma ster</w> 223779
key word</w> 223775
\x ff 223745
x x 223709
We b 223690
In put</w> 223645
end point</w> 223557
ad min 223513
play er</w> 223409
SE LEC 223336
in t▯ 223335
exec ut 223293
ate ▯ 223211
AL _ 222758
V ol 222714
tas ks</w> 222642
Date Time 222559
G U 222508
st d</w> 222421
% d</w> 222358
ar an 222205
man u 221871
ne ▯ 221866
trans form</w> 221847
si s</w> 221779
l o</w> 221727
we e 221651
at ch</w> 221572
float 32</w> 221559
match es</w> 221455
si x</w> 221410
noti fic 221269
add ing</w> 221262
conta ining</w> 221137
t ory</w> 221112
sub ject</w> 221047
l d</w> 221017
fil ter 220978
Re source 220970
n one</w> 220889
SI Z 220828
M en 220475
A n</w> 220313
p end 220312
Not Fo 220291
he ad</w> 220281
G L 220192
TYP E</w> 220167
ta b</w> 220149
change s</w> 220081
constan t</w> 220060
Cur r 219980
Cu sto 219957
7 6 219941
ar ti 219919
set up_ 219909
ar r</w> 219882
ev al</w> 219777
hand l 219744
S imple 219729
exp ress</w> 219597
acce ss_ 219507
de cor 219461
se ed</w> 219341
rep e 219301
p t 219224
c pu 219207
rea der</w> 219157
pol y 218986
COND ITI 218964
glob al_ 218889
I M 218774
am il 218694
ag a 218600
Op tions</w> 218531
n a 218468
WARRAN TY</w> 218030
rel ated_ 218015
F T 218005
la w</w> 217894
sr c_ 217894
AL L</w> 217847
must▯ be▯ 217434
n an</w> 217348
VER SI 217292
ci r 217284
w ays</w> 216977
hand le_ 216940
sti mat 216817
, ▯</w> 216629
am s</w> 216623
ag greg 216601
3 1</w> 216467
Ser ver 216395
ab out</w> 216325
id ▯ 216315
fla v 216314
x y 216277
hel per</w> 216004
S te 215922
M ▯ 215875
py lint</w> 215873
seri es</w> 215866
ne l 215757
man age 215715
de li 215571
pr int 215537
differ ent</w> 215495
IN _ 215494
〖lf〗▯▯▯▯▯▯▯▯▯▯▯▯▯▯▯▯ ▯▯▯▯▯▯▯▯ 215415
stru ct 215374
W ar 215313
di stance</w> 215248
d ur 215227
Win dow</w> 215156
i e</w> 215089
W _ 215023
transp ort</w> 214923
di g 214840
e d▯ 214822
T o</w> 214669
environ ment</w> 214628
multip le</w> 214453
3 ▯ 214430
ali as</w> 214419
m it</w> 214399
assert_ called_ 214333
se t▯ 214324
ar d_ 214297
ag re 214264
provi der</w> 214180
di v 213901
ne g 213892
Ne w 213876
ul ar</w> 213875
M S 213831
A ▯ 213826
relate d. 213810
ta _ 213787
ar ch</w> 213783
str ing_ 213673
sour ces</w> 213608
Q gs 213447
application / 213442
django.db.models.fields. related. 213430
an y 213105
stru cture</w> 213009
De vice 212961
Re fer 212939
vali date</w> 212930
S up 212899
r yp 212863
D B</w> 212854
a ff 212851
ic ro 212739
r ati 212713
h igh 212667
asyn c</w> 212660
t x</w> 212629
ne d 212508
Colo r</w> 212424
Key Error</w> 212341
en ds</w> 212334
{ 1 212034
distribu tion</w> 211944
exi st</w> 211867
op ro 211731
g a 211661
Mo de</w> 211588
R a 211393
b n 211098
st at</w> 210916
t 1</w> 210802
En try</w> 210768
tas k 210718
ht ml 210703
s▯ to▯ 210623
S k 210471
Op tion 210426
flo w 210368
limit ations</w> 210223
7 8 210141
L AT 209999
Th is▯ 209910
Inte ger</w> 209898
cli ent 209883
tr y_ 209858
bo th</w> 209773
docum entation</w> 209750
T ar 209669
s .</w> 209607
cle ar</w> 209407
6 5 209231
le t</w> 209208
CONDITI ONS</w> 209091
re po 209043
t / 208995
ho me 208587
re al</w> 208550
se ss</w> 208546
temp _ 208518
po se</w> 208380
fai led</w> 208378
st op 208374
3 4</w> 208343
cle an 208340
BAS IS</w> 208262
9 . 208252
packe t</w> 208028
wor d_ 207949
out file</w> 207806
no ▯ 207573
Ta g</w> 207535
re st</w> 207503
gover ning</w> 207483
B _ 207335
host name</w> 207250
s l 207214
s 2</w> 207162
exp ression</w> 207093
assert In</w> 207024
agre ed</w> 206869
P age</w> 206757
y am 206643
gener ator</w> 206578
sk ip</w> 206539
Pro du 206346
age ▯ 206338
x ▯ 206292
RI P 206254
T C 206201
s qu 206056
Out put 206027
Auto Field</w> 205935
conver t</w> 205923
' t▯ 205686
abo ve</w> 205599
s p</w> 205585
Ch il 205573
custo m</w> 205535
s 1</w> 205250
SER V 204935
te ri 204845
un der 204838
ind ent</w> 204758
verbose_ name</w> 204750
4 2</w> 204612
C RE 204596
condi tions</w> 204506
y ou▯ 204468
sign ature</w> 204212
origin al</w> 204046
pres ent</w> 203978
f lat 203874
ow ner</w> 203867
dis k</w> 203835
u _ 203696
d s_ 203623
mem ory</w> 203576
ax es</w> 203573
default_ value</w> 203494
OR _ 203477
up per</w> 203444
file_ name</w> 203395
Ser vice</w> 203264
de c 203238
I dent 203194
Boo lean 203186
d uration</w> 203100
O F 203086
Lay out</w> 203063
cont rib</w> 202985
eng th</w> 202968
7 5 202967
mon it 202744
( [ 202721
sym bol</w> 202627
cr yp 202538
wri ter</w> 202496
ver ti 202352
Ipv 4 202308
p ic 202185
ne t_ 202152
win dow 202143
de vice 202112
rec ip 202014
bi lity</w> 201957
" , 201955
whe ther</w> 201926
tab les</w> 201857
e x</w> 201802
N s3 201757
modu le 201678
Vie w 201598
dis k_ 201485
ver if 201454
n e</w> 201259
ro w_ 201031
S pe 201006
s entr 200945
z z 200877
dele ted</w> 200873
sh are 200847
An y</w> 200743
disp lay 200673
em be 200589
ed Error</w> 200504
it ▯ 200377
content_ type</w> 200313
A t 200236
g o</w> 200194
lin k_ 200125
Mix in</w> 200105
wh at</w> 200046
w ho 199945
re distribute</w> 199870
〖doc open 199858
P < 199662
in valid</w> 199643
AU TH 199639
ful l 199591
rep lic 199579
custo m_ 199531
v m 199489
pro p</w> 199394
back gro 199253
T RI 199219
object_ name</w> 199192
as h</w> 199084
cha in</w> 199049
exten sions</w> 199041
loa der</w> 198905
gener ate</w> 198903
CON FI 198837
L oo 198831
re r</w> 198821
sy mbol 198815
buil der</w> 198798
For mat 198755
boo lean</w> 198751
St or 198743
40 4</w> 198723
pop ul 198716
cour se 198645
o s_ 198600
Pro vi 198582
tra in 198575
componen ts</w> 198555
0- 9 198530
comp ati 198469
j av 198389
retur n 198385
wai t_ 198382
sc en 198380
ment ▯ 198197
ta g_ 198158
〖stropenr :"〗</w> 198148
U r 198109
coun t 198107
max im 198087
de plo 198066
Sy n 198055
Re f 198038
cent er</w> 198007
on g</w> 197979
_ path</w> 197946
h ave 197898
rel ative</w> 197882
rege x</w> 197842
_ data</w> 197780
man y</w> 197762
throug h</w> 197687
DEBU G</w> 197660
4 3 197485
S ign 197360
cor respon 197256
wrapp er</w> 197214
c c</w> 197142
ele m</w> 197125
Cont rol 197071
b le</w> 196923
di a 196923
Di sp 196790
% d▯ 196727
war ran 196609
0 9 196584
fil l</w> 196493
bo und 196250
〖stropenb :"〗</w> 196153
T S</w> 196050
Me m 196024
NotImplement edError</w> 195936
d ays</w> 195883
Ser ver</w> 195705
exp eri 195691
0. 7</w> 195655
E mp 195607
channe ls</w> 195568
▯▯▯▯ ▯ 195433
ti v 195415
DateTime Field</w> 195276
; &# 195217
ch ▯ 195196
inste ad</w> 195179
a ver 195177
In stance 195076
remo te_ 194994
SC RIP 194981
MO D 194957
th um 194948
for ce</w> 194856
does n</w> 194815
C F 194785
produ ct_ 194695
dire ction</w> 194643
c ast</w> 194576
Con tai 194561
gra di 194492
Ex ten 194388
an ts</w> 194380
conver t_ 194372
lan g</w> 194132
nor m</w> 194088
per s</w> 194010
0. 9 193881
( ' 193857
am _ 193832
b al 193568
_ test_ 193300
Pat h 193296
ter m</w> 193108
patter ns</w> 193103
P h 193093
colum n_ 193009
de ri 192959
i con 192882
sp h 192790
HTM L</w> 192753
comple te</w> 192752
succe ss 192730
reque st 192728
Ex ec 192603
hist ory</w> 192483
Invali d 192344
all ▯ 192273
recor ds</w> 192177
cu r</w> 192140
-------- -------- 192127
s : 192093
fact or</w> 192052
at temp 192044
Net work 192024
fin e</w> 191981
fo un 191975
an t 191932
l en 191812
ra p</w> 191687
O K</w> 191659
O ver 191530
1. 0 191523
Fun ction</w> 191516
me as 191473
un sig 191349
v s</w> 191298
fi er</w> 191260
s lo 191255
(? P< 191179
s_ list</w> 191149
C E 191142
se p</w> 191019
requi re 190957
uni code_ 190888
di ms</w> 190887
depend encies</w> 190790
scre en</w> 190750
in cre 190738
Col le 190693
O L 190685
ari es</w> 190619
suppor ted</w> 190490
x range</w> 190467
st ack 190464
pro te 190410
mar ker</w> 190375
alg orith 190223
U se</w> 190081
i e 189980
h ope</w> 189940
c at</w> 189851
WWWW WWWW 189652
ma _ 189632
g ate 189549
/ /</w> 189531
n t</w> 189451
_ check_ 189399
To ol 189352
wh i 189283
D ate</w> 189254
% s. 189232
W h 189218
trans action</w> 189096
e ar 189067
file_ path</w> 188848
norma l</w> 188806
el l 188625
St ate 188553
j s</w> 188434
l ate</w> 188359
inter fac 188294
de prec 188266
ste d_ 188240
m d</w> 187971
Co ur 187946
L ine</w> 187940
warran ty</w> 187912
do m 187688
TE X 187677
cer tific 187639
T ra 187507
war n</w> 187352
imp ort 187159
ms g_ 187096
por ts</w> 187085
act or</w> 186983
2 8</w> 186964
tar gets</w> 186902
po int_ 186868
T A 186857
selec ted</w> 186766
OR T</w> 186669
,▯ " 186626
bas ename</w> 186541
Di rect 186321
acti ve_ 186264
= ' 186107
EN T</w> 186038
Re qui 186036
2 , 186026
ab spath</w> 185846
/ v 185845
Qt Core</w> 185806
al loc 185628
P a 185574
12 8</w> 185554
fr ame_ 185527
our ▯ 185406
e -0 185396
Up date 185357
ta x 185324
ar tic 185300
change _ 185271
AG E_ 185253
f req</w> 185226
nul l 185189
re st 185128
EX P 185113
mis sing</w> 185106
ner g 184984
Ses sion</w> 184926
RO O 184925
In c</w> 184835
fre qu 184833
{} ▯ 184817
abili ty</w> 184772
resh ape</w> 184627
simp le</w> 184486
k o 184478
metri c</w> 184435
G G 184418
Polic y</w> 184386
1 : 184292
sup er 184259
RE QU 184226
dr op 184200
0 4 184185
si te 184135
re set</w> 183999
ER R 183944
h yp 183939
http:// www. 183872
f c 183844
dat es</w> 183790
absol ute_ 183762
is s 183670
fi g</w> 183595
D ri 183548
A V 183517
FL AG 183494
Di alog</w> 183452
dat a▯ 183430
el s</w> 183404
opti miz 183223
projec t_id</w> 183221
or ity</w> 183215
l a</w> 183210
" : 183203
b t 183123
Typ es</w> 182847
C ateg 182746
M igr 182726
v ent 182573
ran d 182550
si d</w> 182526
p ul 182517
CON F</w> 182390
ed ge</w> 182379
b ig 182279
N _ 182140
lin g_ 182128
add_ constructor</w> 182120
1 0. 182110
\x 12 182074
goog le 182051
bot to 181904
as ci 181862
KE Y</w> 181732
mon th</w> 181726
s ,▯ 181555
M E</w> 181541
ati ve_ 181450
b its</w> 181415
metri cs</w> 181402
Quer y 181274
S Y 181150
i con</w> 181114
lo n</w> 181042
fun c 181031
si mul 181004
Fil ter</w> 181004
Data Frame</w> 180942
CO L 180876
> </ 180871
ai r 180866
one _ 180797
ma n</w> 180789
re direct</w> 180721
ner s</w> 180671
m il 180640
org / 180574
: % 180535
G R 180508
end s 180436
de sc 180409
fo re 180328
c d 180290
r c</w> 180258
00 : 180121
He ader</w> 179989
obj _ 179899
fin ally</w> 179847
Man y 179660
dri ver 179571
transl ate</w> 179373
org aniz 179365
2 6</w> 179286
has ▯ 179198
sh ip</w> 179133
3 3</w> 179126
| ▯ 178817
__ file_ 178736
fet ch 178719
Mat ri 178692
tar get 178688
batch_ size</w> 178612
corre ct 178479
C or 178375
C I 178365
ri te 178350
ren de 178343
x 1</w> 178328
g am 178240
Out put</w> 178232
PO IN 178160
z er</w> 178127
e - 178030
O _ 177993
z _ 177988
exist ing</w> 177980
la t</w> 177926
6 8 177920
x - 177832
log in_ 177733
cop yright</w> 177718
M ac 177710
snapsho t</w> 177703
▯ and▯ 177658
t 2</w> 177636
B in 177636
__file_ _</w> 177621
Sour ce 177578
T able 177566
Descrip tor</w> 177536
leng th 177528
prog ress</w> 177509
nd array</w> 177467
Re source</w> 177245
i fe 177240
sho uld▯ 177175
le a 177131
3 5</w> 177130
I P</w> 177120
T P</w> 177119
> > 177055
lon g_ 177044
selec tion</w> 177015
colo rs</w> 176924
p ur 176874
nee ded</w> 176771
brow ser</w> 176733
wh ite 176726
sr c 176724
ATI ON</w> 176622
inst al 176582
bran ch</w> 176563
Tr an 176520
x t</w> 176519
allo w_ 176407
permis sion</w> 176291
12 34 176177
flo w_ 176155
tran si 176112
ms g 175962
mis sion</w> 175936
bu cke 175893
- 20 175847
d uplic 175767
Pro jec 175698
Ma ke</w> 175529
a wait</w> 175508
9 5 175496
sentr y. 175462
list s</w> 175416
li ste 175333
Se arch 175247
templ ates</w> 175221
p c 175219
condi tion</w> 174930
t i</w> 174794
En d</w> 174748
with in</w> 174640
ex c_ 174540
coun ts</w> 174309
su ch</w> 174288
k ing</w> 174287
accoun t_ 174285
numb er_ 174262
D jang 174138
be ing</w> 174126
co l_ 174109
i ne 174088
+ ▯ 174045
E D 173885
By te 173848
ol d 173683
t ors</w> 173660
co s</w> 173542
2 7</w> 173465
inclu de_ 173432
tion ▯ 173425
) ) 173399
c am 173348
dra w 173311
B lock</w> 173274
b le 173124
p and 173096
Ten sor</w> 173093
de cl 173041
<▯ ns3:: 172990
inf o 172947
Import Error</w> 172917
M as 172906
as sig 172882
. com</w> 172877
clic k</w> 172806
ser vices</w> 172805
- =</w> 172759
aran ge</w> 172714
\x1 b 172437
M u 172382
ul ts</w> 172338
url lib</w> 172148
U ti 172114
oo l</w> 172002
Applic ation</w> 171966
ge neri 171945
i m</w> 171894
hel p_ 171878
Attribute Error</w> 171855
3 6</w> 171793
secre t</w> 171701
Type Id</w> 171685
gen _ 171651
s ent</w> 171620
pb 2</w> 171503
app ly</w> 171337
ch ro 171194
E lement 171179
config ur 171178
x y</w> 171155
re c</w> 171137
SIZ E</w> 171091
ge st</w> 171054
pre ci 170957
V _ 170937
exec u 170937
Conne ction</w> 170874
if ▯ 170820
plug ins</w> 170811
secur ity_ 170775
repres ent 170720
re pr 170715
get Logger</w> 170705
ke d_ 170674
remo ve 170571
perio d</w> 170556
2 9</w> 170475
c p</w> 170425
ro und</w> 170417
tr ace</w> 170386
z ip 170367
7 4 170361
l s 170155
sli ce</w> 170113
choi ce</w> 170003
the ir</w> 169978
u es</w> 169968
p le 169900
process ing</w> 169785
de vices</w> 169723
sub _ 169707
bu cket</w> 169616
uniqu e_ 169594
e stimat 169582
N UL 169500
ker nel</w> 169494
loa ded</w> 169469
L angu 169422
sh ell</w> 169308
▯▯▯▯ ▯▯ 169249
c types</w> 169235
ran k</w> 169231
E D_ 169195
M ap 169160
RE _ 169118
s_ by_ 169081
indi c 169036
comm and_ 168921
sett ing 168920
b an 168739
scri b 168714
ends with</w> 168573
> ></w> 168464
f lu 168145
sho ul 168129
▯ %s▯ 167970
f i</w> 167918
in x</w> 167837
if _ 167803
wil l▯ 167799
D A 167777
is_ virtual</w> 167714
th at▯ 167706
vali dation</w> 167706
ho w</w> 167686
mi x 167621
f amil 167544
boo k 167527
e c</w> 167259
Syste m 167245
inst all</w> 167244
ne ut 167241
eq _</w> 167231
W r 167201
code s</w> 167177
as sign 167070
x ml_ 167067
sor t_ 167014
remo te</w> 166936
0 6 166924
S cal 166775
thres hold</w> 166773
Wor k 166726
modifi ed</w> 166696
can v 166565
',▯ ' 166506
_ p 166434
cm d 166410
d y</w> 166309
f li 166271
T O</w> 166149
eff ect</w> 166070
0 5 166035
re ct</w> 165887
m al 165764
Run time 165733
G oo 165672
AG E</w> 165631
conta in</w> 165551
ab str 165550
w al 165502
\ ' 165496
ali g 165476
job _ 165467
Boolean Field</w> 165459
Sour ce</w> 165458
u i 165413
p ublic</w> 165405
String IO</w> 165228
ac es</w> 165128
sp i 165015
To ken</w> 164986
r g 164886
tit le 164856
we b</w> 164842
normali z 164828
top ic</w> 164823
t y▯ 164767
Fa ke 164608
R en 164499
o id</w> 164498
EN T_ 164440
contrib . 164437
do m</w> 164434
sh util</w> 164389
cop y 164343
ite rite 164317
pos sible</w> 164271
C ho 164205
R el 164106
oth er_ 164020
Q t</w> 163830
iterite ms</w> 163786
p 1</w> 163736
ref _ 163707
si ve</w> 163640
time delta</w> 163639
test_ get_ 163625
numb ers</w> 163621
inte gr 163604
at or_ 163512
T it 163430
u res</w> 163349
S ▯ 163307
A D</w> 163306
cm d_ 163244
date time 163236
set up 163198
P age 163152
qu anti 162906
T H</w> 162877
selec t_ 162868
n ing_ 162707
U s 162658
al ways</w> 162482
iddle ware</w> 162435
Seri aliz 162419
he x</w> 162372
c b</w> 162341
fon t 162294
〖lf〗▯▯▯▯▯▯▯▯ ▯▯ 162276
Comp one 162226
} / 162205
N o</w> 162194
spac es</w> 162190
templ ate 162164
Acce ss 162127
edi t</w> 162069
7 5</w> 162048
4 _ 162025
n g 162023
pri ce</w> 162003
p s 161947
Up date</w> 161915
rou ter</w> 161871
GH T</w> 161845
assert_called_ on 161787
2 .</w> 161783
5 00</w> 161749
d a</w> 161668
\x6 5 161649
O O 161639
G I 161567
on t</w> 161453
other wise</w> 161435
ver sions</w> 161404
app s</w> 161368
b m 161314
De vice</w> 161294
e e 161258
ut ▯ 161207
lin g 161134
er▯ of▯ 161108
in spec 161071
d l 161055
p ed</w> 161000
TE ST_ 160986
D S</w> 160979
trace back</w> 160929
tra ining</w> 160902
\x 18 160783
ht ml_ 160783
call able</w> 160670
ref res 160586
di alog</w> 160491
g tk</w> 160489
de ci 160458
igh b 160364
ri d</w> 160311
C P 160187
exp i 160122
PAT H</w> 160112
St y 159998
featu re_ 159956
d types</w> 159827
▯of▯ the▯ 159740
g lob</w> 159558
ho ok</w> 159426
can _ 159364
h ig 159306
) s▯ 159284
az ure</w> 159252
ho me</w> 159243
cle an</w> 159112
c tr 159089
ip s</w> 159071
handl ers</w> 159053
have ▯ 159031
ses sion 159002
P le 158857
1e - 158823
b ul 158817
c le</w> 158768
S amp 158728
clou d</w> 158668
di st 158621
FI LE</w> 158613
fa st 158572
,▯ ns3:: 158534
Parame ter 158451
dy nam 158450
coor ds</w> 158447
rel ated</w> 158441
T op 158388
ab c</w> 158378
resul t 158314
chil d_ 158263
d - 158221
mat plot 158216
ali gn 158196
objec t 158069
h ex 158055
L a 158003
0 _ 157948
arg parse</w> 157877
9 8 157860
enc ryp 157781
de lay</w> 157767
p c</w> 157729
S c 157720
q a</w> 157537
tr ack</w> 157460
P ack 157388
t z</w> 157376
B E 157360
st ion</w> 157354
ad ap 157354
pl an 157347
As ser 157290
de d▯ 157268
meta _ 157195
Ten sor 157128
e p_ 157029
\ . 156956
mo st_ 156881
R oo 156877
per son</w> 156870
verif y_ 156826
file path</w> 156794
ha vi 156710
dum p</w> 156656
Ipv 6 156624
0 8 156577
job s</w> 156511
%s ,▯ 156445
chun k</w> 156420
mini m 156349
su ite</w> 156267
9 0</w> 156211
0000 00 156157
syn c 156151
si n</w> 156050
for ce_ 156036
Invali d▯ 156035
t p 156026
pai r</w> 155962
ma c</w> 155955
O ff 155909
auth or_ 155852
VAL U 155840
Wr app 155822
1 )</w> 155812
G i 155811
sc ip 155663
marker_ sets</w> 155581
en um</w> 155570
M s 155521
ho sts</w> 155468
t_ name</w> 155447
N or 155419
d st</w> 155320
cur _ 155311
ce_ with</w> 155310
e st 155110
D F 154975
_ set_ 154920
initi al_ 154906
in c 154860
_ serialize</w> 154642
local e</w> 154629
channe l_ 154545
Buil d 154468
assert_called_on ce_with</w> 154454
previ ou 154428
can di 154359
Lay er</w> 154349
register_ Ns3 154302
▯ geometry</w> 154265
s ent 154251
d c 154240
the me</w> 154170
▯ %s</w> 154150
J EC 154139
0x 00 154074
allow ed</w> 154043
c ation</w> 153995
IN G_ 153987
look up</w> 153933
ses sion_ 153896
uint 32 153894
ed ges</w> 153883
pack age 153835
ph y 153822
S im 153777
defini tion</w> 153660
h oriz 153578
S cri 153515
[ 0 153450
e q</w> 153431
intern al</w> 153417
Fi r 153406
Star t</w> 153353
4 e 153348
〖lf〗 1▯ 153348
ic k</w> 153252
django.db.models.fields.related. ForeignKey</w> 153181
el y</w> 153076
SQ L 153073
Vi r 152983
Clas s 152925
la z 152910
sh ort</w> 152885
pick le</w> 152826
ur n 152700
spli t 152663
__ str 152566
STAT U 152554
wi k 152531
Si ze 152476
tmp _ 152447
OR S</w> 152430
mat ch_ 152424
requi res</w> 152350
pr ops</w> 152337
x 2</w> 152336
ai l</w> 152293
VERSI ON</w> 152073
int 32</w> 151985
par ser 151964
▯ " 151950
Ser ies</w> 151884
wo uld</w> 151833
I MP 151830
Pas s 151810
inst all_ 151784
bo x_ 151745
ge t▯ 151721
%s )</w> 151720
so ck</w> 151663
plo t_ 151606
Stre am 151554
Po int 151522
django. contrib. 151460
INF O</w> 151431
sc op 151406
st amp 151399
de serializ 151395
associ ated</w> 151383
p ag 151333
open _ 151317
fun c_ 151282
ne l_ 151273
NO T</w> 151268
tr u 151233
ta x</w> 151174
are a</w> 151169
on g 151062
4 00</w> 151023
j a 150988
accep t</w> 150968
t f 150896
c wd</w> 150848
mo st</w> 150820
A - 150800
able ▯ 150597
var _ 150597
str _ 150558
b en 150542
m - 150513
\x0 2 150513
n n</w> 150470
v a 150435
) 〖lf〗 150385
c ut 150373
Dow n 150372
n on_ 150366
D N 150352
full_ name</w> 150344
w in</w> 150337
4 8</w> 150335
st ub 150314
Whe n</w> 150307
str f 150241
Att ribute</w> 150232
__str __</w> 150232
mer ge</w> 150204
B it 150148
ER S</w> 150101
recor d_ 149980
On ly</w> 149952
co der</w> 149898
las s</w> 149753
L ength</w> 149746
WAR E</w> 149702
Le vel</w> 149700
si de_ 149651
ten an 149507
pro c</w> 149499
g it</w> 149485
c al</w> 149478
to l</w> 149439
c o</w> 149418
\ t</w> 149385
\ 0 149369
G lob 149279
U U 149261
SO FT 149169
C ap 149094
.. / 149034
projec t 149007
re vision</w> 148994
__ dict_ 148988
A v 148977
fa ke</w> 148948
c ases</w> 148937
rep or 148914
I G 148877
B ad 148785
F in 148779
man ife 148764
ce ss 148708
coun t_ 148651
mo un 148636
WH ER 148584
P L 148554
al low</w> 148535
Fi x 148460
RO R</w> 148431
subscrip tion 148385
syn c</w> 148298
wa it 148264
related_ name</w> 148170
email _ 148150
ati ve 147959
ke ep</w> 147876
righ ts</w> 147845
ur s</w> 147826
matplot lib</w> 147795
ep iso 147758
nov a</w> 147726
3. 0</w> 147671
AC K 147624
ver ify</w> 147616
9 9</w> 147551
exten sion_ 147537
t ing▯ 147511
lay er 147451
C R 147416
======== ======== 147355
on y 147326
com ments</w> 147247
ro ut 147246
Comm and 147235
r o</w> 147195
fa ke 147180
vide o</w> 147172
t wi 147164
se d_ 147163
proble m</w> 147135
Lo ad 147117
docum ent 147111
M IT 147017
networ k 147007
pro t</w> 146975
P tr 146945
i t_ 146897
strf time</w> 146869
can ▯ 146865
__dict_ _</w> 146856
2 - 146836
N a 146790
beg in</w> 146748
W a 146743
pro gram 146717
add_ option</w> 146588
Dat ab 146586
Temp late</w> 146564
me ans</w> 146542
repl ace 146533
p ec 146517
A li 146513
St ati 146491
re cur 146475
lo gs</w> 146456
igno re_ 146454
0x 00</w> 146448
Add ress 146440
al er 146433
CO D 146405
C E</w> 146363
Fe atu 146310
Curr ent 146261
2 / 146228
lon g 146223
cop y_ 146180
h d 146147
mis s 146110
un til</w> 146083
memb ers</w> 146057
overri de</w> 146025
no qa</w> 145959
o t 145898
R ou 145843
ER ROR</w> 145799
metho d_ 145793
b und 145731
const▯ &</w> 145725
que ue_ 145714
Validat ion 145623
0. 5 145565
vide o 145547
m t 145478
n b 145447
p adding</w> 145364
Content - 145344
no te 145343
. txt</w> 145207
vali d▯ 145199
di sc 145154
":▯ " 145116
En d 145055
Lo g</w> 145033
o log 144832
DE SCRIP 144789
B as 144771
0 7 144724
Th read</w> 144666
arra ys</w> 144662
P tr</w> 144659
M app 144652
de tail</w> 144637
on ce</w> 144571
param _ 144564
He a 144534
auto mati 144526
fig ure</w> 144499
ast ype</w> 144471
For mat</w> 144444
p yp 144400
cle a 144290
JS ON</w> 144245
thread s</w> 144107
F E 144088
U C 144003
um _ 143980
reposi tory</w> 143955
class =" 143948
Re g 143692
t m</w> 143646
T up 143628
te ar 143563
c ub 143475
down load</w> 143467
clu ster_ 143466
B lock 143452
d ent</w> 143437
XM L</w> 143411
3 9</w> 143392
pipe line</w> 143349
_ client</w> 143319
b eta</w> 143315
pai rs</w> 143275
. py</w> 143237
ans wer</w> 143217
O ne 143171
medi a</w> 143144
A I 143120
spe ed</w> 143116
SELEC T▯ 143095
name ▯ 143094
frame work</w> 143050
t ten</w> 142970
use ▯ 142911
thread ing</w> 142887
te x</w> 142839
w er_ 142838
cal ly</w> 142762
in valid_ 142746
Call back</w> 142714
se c</w> 142682
registr y</w> 142673
gn u</w> 142560
Ru n</w> 142451
rel ation 142416
LO G 142396
place hol 142370
10 24</w> 142333
Tas k</w> 142289
Bo x 142285
ON E</w> 142274
ar o 142235
chec ks</w> 142129
do main 142122
yam l</w> 142119
gra d</w> 142097
1 ,▯ 142083
vi a</w> 142040
Metho d</w> 141970
〖stropen f 141969
pre fix 141961
.p ng</w> 141936
cre ated_ 141920
de stro 141862
G C 141807
origin al_ 141804
arg _ 141713
radi us</w> 141676
updat es</w> 141636
plug in 141625
wor ks</w> 141608
pre tt 141564
d ing 141337
EN D 141325
Migr ation</w> 141314
rep ort_ 141290
by te</w> 141253
Ex tr 141249
h ref</w> 141199
maxim um</w> 141137
do es▯ 141104
token _ 141086
3 7</w> 141068
sty le 141049
store_ true</w> 140986
server s</w> 140972
destin ation</w> 140908
plug in_ 140885
Tas k 140871
aut o</w> 140868
dra w</w> 140861
SOFT WARE</w> 140853
f y 140840
__ repr 140779
\x0 a 140769
addres ses</w> 140766
9 4 140751
query set</w> 140751
stand ard</w> 140697
t or_ 140641
en su 140628
r h 140627
ver ifi 140616
tic al</w> 140505
i ce 140490
me sh</w> 140487
u tes</w> 140366
is h</w> 140328
Temp late 140320
A ction 140313
b s</w> 140297
1 10 140263
ate d▯ 140220
Ran dom 140124
tr un 140051
test ▯ 140044
gith ub</w> 140043
0000 0</w> 140025
time zone</w> 139937
saf e</w> 139879
fir st 139855
orig in</w> 139855
Cour se 139822
numb er 139600
__repr __</w> 139537
ti te 139496
lib vir 139496
1 99 139482
Examp le</w> 139474
wid th 139465
pl y</w> 139442
T L 139423
Lo cal 139411
**** **** 139363
Exp ec 139355
acce ss 139321
a log 139265
gl yp 139259
O TH 139143
St r</w> 139102
Y ou▯ 139048
\x0 8 139034
s ch 138908
mi t_ 138899
syste m_ 138839
ve lop 138755
auth . 138733
Runtime Error</w> 138698
uu id 138581
or d</w> 138563
{ { 138536
Call back 138446
\s * 138386
scal ar</w> 138370
iter ator</w> 138367
.. . 138351
tup les</w> 138261
et c</w> 138181
Text Field</w> 138160
examp le 138128
fl ush</w> 138110
dimen sion</w> 138091
\x7 4 138010
bin d</w> 138005
g i</w> 137946
tran s</w> 137941
state ment</w> 137912
DAT A</w> 137904
stream _ 137902
E M 137826
noti ce</w> 137784
▯is▯ not▯ 137782
P P 137772
f ri 137699
at s</w> 137694
in ver 137652
dir _ 137594
emp ty_ 137548
d f_ 137449
Modu le</w> 137392
pri ority</w> 137379
HT TP</w> 137319
Quer y</w> 137290
G L_ 137258
uint32 _t</w> 137250
sh ort 137130
django.db.models.fields. AutoField</w> 137111
or de 137093
Pro gram 137020
ch ron 136963
extr act_ 136955
la un 136910
mem ber 136891
assert_ array_ 136837
bo und</w> 136808
Bu ffer</w> 136757
im g 136715
mis sion 136708
re d▯ 136699
FRO M▯ 136567
w as▯ 136548
i ter_ 136484
en able</w> 136421
rati o</w> 136401
shif t</w> 136388
SU B 136384
sco res</w> 136339
mat eri 136321
can ce 136293
MA X_ 136267
pack age_ 136245
t k 136205
z il 136135
expec t</w> 136118
W S 136096
AP P 136038
vi sible</w> 136026
s si 136006
speci al</w> 135964
ident ity</w> 135880
CO MP 135811
4 5</w> 135750
Ad min</w> 135746
mo ve 135661
se q 135653
\x 22 135604
Sett ings</w> 135602
u de</w> 135575
EN T 135524
or y▯ 135485
ic al_ 135448
In st 135440
be havi 135389
Hel per</w> 135363
t z 135340
NotFo und</w> 135335
r up 135266
y our▯ 135197
L D 135194
l l 135133
algorith m</w> 135104
tr ai 135085
com bin 135069
la b</w> 135041
emp ty 135040
spli t_ 135029
coor d</w> 134961
d x</w> 134945
sup p 134869
M ag 134867
exclu de</w> 134855
sq l_ 134850
set attr</w> 134842
sto red</w> 134737
ever y</w> 134651
re stric 134601
LI AB 134574
) , 134565
t ree 134545
mo ve_ 134493
0000 0 134481
fail ure</w> 134472
3 , 134461
p ng</w> 134373
i ▯ 134352
s▯ ( 134308
exp lic 134238
Descrip tion</w> 134190
ef fici 134182
an other</w> 134152
DE R</w> 134151
ct xt</w> 134129
h al 134115
model_ name</w> 134105
i prot</w> 134094
auth oriz 134045
at ing▯ 133930
Goo g 133921
re main 133888
e nerg 133833
p g</w> 133758
v ing</w> 133727
d ro 133677
exp ort</w> 133674
EN D</w> 133638
v n 133618
remo ved</w> 133617
F ol 133596
T ree 133582
to ol</w> 133580
aa aa 133515
re served</w> 133513
li st▯ 133496
Fr ame 133444
unsig ned▯ 133440
d ay 133439
fix ture</w> 133400
d ash 133370
arg 0</w> 133322
ele ment 133304
s▯ for▯ 133302
t d</w> 133271
Conne ction 133266
liter als</w> 133156
C M 133122
w s</w> 133118
Ver sion 133083
Grap h 133031
O B 133018
que sti 133018
S to 132959
J ob 132958
me _ 132891
g ran 132886
AC TI 132881
ap pro 132826
pre fer 132788
does▯ not▯ 132649
entr y_ 132592
st ers</w> 132545
. g 132482
C E_ 132331
x p</w> 132318
C U 132299
ac y</w> 132090
opro t</w> 132079
11111111 11111111 132026
{0 }</w> 132022
T ree</w> 131999
T OR</w> 131990
initializ er</w> 131966
th is 131956
al most_ 131954
di ag 131952
m arg 131945
down load_ 131919
coordin ates</w> 131909
re try</w> 131888
transl ation</w> 131815
scrip t 131760
5 1</w> 131728
c 1</w> 131576
scip y</w> 131561
implement ation</w> 131553
quo te</w> 131534
Argum ent 131477
Con stra 131475
h ar 131466
A D_ 131462
Par ams</w> 131456
comm and 131436
b ad 131416
key words</w> 131392
Par se 131243
f y_ 131182
\x0 3 131175
in▯ the▯ 131167
ar s</w> 131149
previ ous</w> 131134
a re_ 131031
grap h_ 130989
bu ff 130950
Ptr <▯ns3:: 130821
sk ip_ 130727
a y</w> 130725
name =" 130698
c ms</w> 130659
12 3</w> 130619
inst all 130581
s par 130536
un ic 130527
m i</w> 130513
qu e</w> 130505
conne ct 130424
fi re 130383
li p 130371
x . 130370
TE MP 130301
str um 130298
py game</w> 130286
ke t</w> 130283
per son 130263
l s_ 130262
sub net</w> 130178
P ER 130168
x s</w> 130122
2 d</w> 130094
allo we 130031
nex t 129984
si te_ 129981
= %s</w> 129952
che my</w> 129917
im g_ 129891
Chan ge 129888
b ack_ 129838
De tail 129816
comm on_ 129801
di v</w> 129787
Dow n</w> 129677
7 f 129629
in it 129626
Que ue</w> 129617
sy s 129594
comp res 129571
si g</w> 129542
y - 129517
FLAG S</w> 129450
co st</w> 129423
Wid th</w> 129396
KE Y 129384
ele ment_ 129280
War ning</w> 129273
cle an_ 129226
r b</w> 129220
[ ^ 129114
samp le 129090
l ap 128999
\x6 1 128973
Remo ve</w> 128971
group _name</w> 128919
ag er 128888
W A 128841
Iter ator</w> 128836
seri alize 128807
sen der</w> 128728
T er 128672
m o</w> 128613
url lib 128594
Mo di 128544
for war 128487
to day</w> 128470
s▯ of▯ 128388
N ames</w> 128385
re vi 128364
parti tion</w> 128354
spac e_ 128273
a p</w> 128254
\x00\x00 \x00\x00 128163
IN CL 128099
n d</w> 128046
p 2</w> 127994
wor ld</w> 127988
_P AT 127975
de st_ 127943
f al 127919
▯ not▯ 127850
con text 127729
rig ht 127685
re dire 127671
\u 8 127661
temp file</w> 127643
` ` 127640
s :▯ 127616
Re ge 127582
En um</w> 127538
run ner</w> 127507
B S 127490
close d</w> 127465
lin u 127441
s parse</w> 127425
be low</w> 127362
uld▯ not▯ 127354
ul l 127352
M i 127331
Custo m 127296
almost_ equal</w> 127232
Attribu tes</w> 127223
Flo at 127194
DE LE 127191
ne cess 127188
b rid 127075
c d</w> 126984
Auth entic 126983
m . 126973
asci i</w> 126853
cke t 126800
sha red</w> 126779
sq li 126765
Re ad</w> 126749
4 ▯ 126745
DI REC 126744
Sequ ence</w> 126688
char s</w> 126685
data / 126671
TE ST 126645
0. 2</w> 126609
assert Not 126556
B utt 126535
) s</w> 126464
TI ME 126418
_ get 126413
time r</w> 126390
order ing</w> 126384
le d▯ 126382
0 3 126380
H _ 126361
print_ function</w> 126336
re si 126333
filen ames</w> 126320
pand as</w> 126222
pro mp 126217
ma j 126202
evalu ate</w> 126123
hel pers</w> 125994
polic y_ 125884
new ▯ 125784
me s</w> 125737
w ay 125722
< <</w> 125643
format s</w> 125583
absolute_ import</w> 125566
5 12</w> 125564
ff ff 125551
colum n 125544
\x 10 125540
in stru 125506
li ke 125453
di vi 125410
nam ed</w> 125409
to o</w> 125389
wi fi</w> 125365
. 〖lf〗 125342
correspon ding</w> 125333
in f</w> 125330
1 f 125323
addi tional</w> 125239
o d 125238
h u 125233
ad o</w> 125208
I F 125192
ateg y</w> 125097
exp res 125040
/ > 125039
AD D 124994
at er</w> 124967
st op_ 124941
S ol 124931
c m</w> 124866
. .</w> 124800
nor m 124729
P e 124695
meta data_ 124684
re g</w> 124662
en di 124661
c ss</w> 124619
fi x_ 124618
con d</w> 124584
work er</w> 124405
un known</w> 124399
i ce</w> 124379
_ descriptor</w> 124353
A x 124341
p ack_ 124323
un pack</w> 124308
stu dent 124294
add on</w> 124264
IN TER 124258
LE D</w> 124188
L L 124171
le d▯to▯ 124167
Ob j</w> 124158
docum ents</w> 124132
nee ds</w> 124028
fet ch</w> 124025
uni t_ 124007
f rag 123959
up load_ 123938
is file</w> 123899
roo t 123885
wri tten</w> 123871
g ui</w> 123863
ent ity_ 123853
I _ 123828
Spe c</w> 123781
wid gets</w> 123776
ST AR 123716
s/ { 123716
n ing 123674
L AN 123664
co uld</w> 123642
loc ation 123516
Loc ation</w> 123504
de ep 123478
_ is_ 123461
ve d 123436
deplo y 123419
categ ories</w> 123392
st ack_ 123383
edi tor</w> 123364
ta ke</w> 123341
fix tu 123328
di ct 123302
\x6 9 123189
Co de 123181
pyth on_ 123177
po wer</w> 123130
bod y_ 123119
M AT 123107
up load</w> 123080
consi st 123023
▯ a▯ 122979
top _ 122947
gri d 122947
exp an 122878
#### #### 122873
s _</w> 122795
thum bn 122786
mo x</w> 122711
St and 122688
me t 122675
n p 122634
attribu te_ 122603
C lu 122565
r v</w> 122533
charac ter</w> 122440
en ded</w> 122406
dimen sions</w> 122390
botto m</w> 122381
cl ai 122332
pro file_ 122319
S N 122299
al e 122291
Fun ction 122283
c a</w> 122196
ste p 122172
stor age_ 122159
fin al_ 122141
par alle 122120
con su 122100
no i 122070
s an 122023
comp u 121974
ba d_ 121963
H i 121936
uint 8</w> 121913
ma g 121891
par sed</w> 121869
vari able_ 121822
3 8</w> 121810
cel l_ 121795
2 D</w> 121778
pi ec 121727
saf e_ 121719
Ident ifi 121649
secon d 121610
;&# 10 121599
unicode_ literals</w> 121531
B B 121527
] + 121525
on ly▯ 121471
Djang o</w> 121442
gith ub 121425
righ t_ 121421
course _id</w> 121414
ch i 121398
rep ort 121381
f n 121314
ke ep 121287
4 2 121275
parti al</w> 121162
stati st 121141
A N</w> 121128
sche me</w> 121110
ne ighb 121089
NO TE</w> 121065
sing le_ 121055
\x6 f 121029
e ve</w> 121019
se mb 120906
STR ING</w> 120877
f ra 120876
confi r 120822
ve lo 120800
std :: 120736
Cal cul 120731
Colo r 120718
pipe line_ 120689
INCL UD 120622
an i 120564
enti ties</w> 120510
▯ -- 120509
Sy m 120415
array_ ops</w> 120402
bu s</w> 120366
u s_ 120268
ATI ON_ 120241
} } 120221
fr ames</w> 120185
Sele ct 120170
V E 120164
M in 120091
priv ate</w> 120084
sp an</w> 120067
T ri 120063
CON T 120036
c as 119894
parame ter 119845
Pyth on▯ 119801
add Widget</w> 119780
To ken 119777
l n</w> 119772
app ly_ 119733
de si 119696
S ing 119684
Ma in 119672
\x0 4 119662
po t 119580
bu g</w> 119571
edi t_ 119563
text / 119558
boun ds</w> 119552
sql al 119510
ROO T</w> 119402
charac ters</w> 119311
Contai ner</w> 119297
m or 119255
M is 119220
pre v_ 119143
Proto col 119065
public _ 119030
se d 119023
com ment 118963
RI GHT</w> 118901
ath er</w> 118866
null able</w> 118856
canv as</w> 118819
fe ed</w> 118801
Vir tu 118793
for ward</w> 118772
For m 118772
Pro file</w> 118725
Num ber 118680
boo t 118658
lay er_ 118601
Comp le 118506
read only</w> 118489
B y</w> 118488
Grap h</w> 118452
\x6 e 118443
Or de 118401
gr ade</w> 118381
django.db.models.fields. DateTimeField</w> 118371
▯ { 118314
S D 118243
hig h</w> 118202
is co 118192
re set_ 118167
fil te 118153
b on 118105
cep t</w> 118079
esc ape</w> 118078
P RE 118049
ke d 118005
1 c 117994
igno red</w> 117981
Vec tor</w> 117974
n a</w> 117916
clu ster 117907
w rap</w> 117896
e g 117894
ru le 117774
di vision</w> 117755
to ge 117755
lear n</w> 117693
constan t_ 117663
M et 117623
Li br 117580
V E</w> 117568
conne ctions</w> 117568
conne ction_ 117560
Proto col</w> 117560
Statu s 117525
2 f 117506
Vol ume 117460
N U 117400
con f 117382
di n</w> 117363
set Text</w> 117300
cl i</w> 117299
Parame ter</w> 117282
reg ul 117268
mach ine</w> 117260
AN D 117188
conne cted</w> 117136
examp le. 117072
p ap 117067
r t 117025
Wrapp er</w> 117012
F ail 116989
symbol s</w> 116892
L EN 116877
fix ed_ 116842
a a</w> 116812
CL AS 116810
serializ er</w> 116794
( )</w> 116788
syn c_ 116777
MEN T</w> 116749
To t 116721
Modu le 116706
u red</w> 116680
bin s</w> 116668
u t_ 116655
: """〗</w> 116534
\x2 e 116529
Tit le</w> 116520
Men u</w> 116485
sub class</w> 116466
Star t 116438
ing_ type</w> 116316
JS ON 116311
tensor _ 116281
pk g</w> 116268
6 _ 116218
repl y</w> 116215
temp or 116208
retur n▯ 116195
ES S 116163
u ff 116156
] +) 116124
set ter</w> 116090
able ▯to▯ 116082
contro l_ 116053
al g</w> 116052
TRI BU 116041
Con struct</w> 115937
p df</w> 115926
tt ing</w> 115867
proces sed</w> 115864
debu g_ 115856
RES S</w> 115796
\x3 2 115782
fu ture</w> 115759
i ed</w> 115746
no tes</w> 115720
an ch 115666
j _ 115633
di c 115535
G RO 115505
\x8 0 115495
P IP 115480
if y 115441
r am 115415
c ard</w> 115394
f ree 115382
assert All 115379
C ache</w> 115378
ma ps</w> 115321
cer t</w> 115298
sc rap 115295
_P RO 115280
y 1</w> 115267
\n \n</w> 115207
E T</w> 115162
Chec ker</w> 115147
ce d</w> 115053
ru le_ 115026
ti d</w> 114992
3 00</w> 114958
op t 114918
En viron 114918
WHER E▯ 114864
o m 114818
S V 114712
she et</w> 114694
exi t_ 114671
fin al</w> 114642
L ▯ 114633
p ad</w> 114616
IO Error</w> 114608
Po st 114600
b r</w> 114586
h ref 114519
per cent 114514
de fine</w> 114512
" ,▯" 114510
. / 114446
ste p_ 114407
sh ip 114392
do main_ 114372
ve d_ 114344
pre d</w> 114294
Ses sion 114292
line ar</w> 114288
dig its</w> 114220
W ifi 114214
B l 114192
qu ali 114181
le ss 114172
I ▯ 114148
ter mi 114110
cp u</w> 113997
enc y_ 113989
Pro ject</w> 113982
LI MIT 113945
be fo 113939
s mo 113895
t v 113853
bin ary_ 113846
20 14</w> 113807
\x3 0 113792
pr e</w> 113777
Dec imal</w> 113761
fet ch_ 113752
iss ue</w> 113692
hid den</w> 113664
% ▯ 113642
s am 113619
Orde red 113565
vide o_ 113556
te am</w> 113554
li m</w> 113533
ve c</w> 113470
Vec tor 113433
c v2</w> 113426
recip i 113419
F IN 113417
find all</w> 113401
G u 113350
ic ▯ 113311
m x</w> 113303
\x7 3 113237
que stion</w> 113179
cook ie</w> 113178
c k_ 113170
publi sh 113131
6 5</w> 113122
p ing</w> 113106
Ex pres 113057
re q_ 113055
t un 112952
per for 112952
bin d 112948
C H</w> 112851
Wri te</w> 112751
abili ties</w> 112733
Ac tiv 112725
A f 112709
fic ation</w> 112707
Fil ter 112632
repres entation</w> 112597
AAAA AAAA 112593
I L</w> 112591
preci sion</w> 112588
▯▯▯▯ ▯▯▯ 112486
Regi str 112369
siz es</w> 112358
C T 112337
y / 112316
mi ze</w> 112316
C er 112256
E P 112218
ma l</w> 112201
h app 112191
sel f. 112148
d on 112127
m m</w> 112091
in her 112037
co e 112018
sw ig 111959
\x0 b 111938
Inter face</w> 111915
Pol y 111896
ar ▯ 111865
w an 111838
en able_ 111812
' s▯ 111745
Clo se</w> 111736
S um 111716
Serializ er</w> 111661
M iddleware</w> 111658
input ▯ 111641
bo ard 111632
an is 111623
5 5</w> 111618
- 1</w> 111584
86 15 111563
Cont ro 111423
Error ▯ 111413
fo und 111406
Matri x</w> 111399
assert _</w> 111374
regi ste 111352
5 _ 111324
lig ht 111211
] * 111210
prop ri 111162
〖docopen r 111154
\x7 2 111150
at er 111133
du al</w> 111115
lim its</w> 111097
m icro 111035
Ab str 111025
x bm 111016
Inter face 111014
20 15</w> 110994
spec tr 110972
F F</w> 110970
one ▯ 110963
An aly 110959
%s \n</w> 110953
il l 110924
co ver</w> 110913
Lin k</w> 110913
MI T</w> 110889
5 6</w> 110883
5 9</w> 110861
w ell</w> 110859
exp ort_ 110800
CO PY 110783
un d_ 110736
con v 110731
m_ _</w> 110719
ma y 110716
ker as</w> 110715
toge ther</w> 110704
igh ts</w> 110675
Val ues</w> 110669
application/ json</w> 110605
:▯ % 110586
inclu ded</w> 110572
t b 110497
\x0 6 110482
rand int</w> 110470
pre pa 110388
frequ ency</w> 110375
0. 4 110272
sc an 110252
E d 110243
D el 110240
ST O 110161
rp c</w> 110097
fil l_ 109984
Tr ack 109968
LE S</w> 109903
backgro und</w> 109816
colo r_ 109795
r / 109789
M D 109732
(? : 109718
_ make_ 109712
dis abled</w> 109594
inclu ding</w> 109590
scrip ts</w> 109569
do w_ 109560
an y_ 109525
P ix 109487
cle ar_ 109403
Validation Error</w> 109392
descrip tion 109367
] [ 109345
Proce ss</w> 109320
h av 109291
eff ec 109256
Con stan 109211
SO UR 109180
\x3 1 109174
Ex ist 109128
Cont ent</w> 109010
sh are</w> 108952
WAR N 108939
test . 108913
instal led</w> 108728
fe ed_ 108726
Dele te 108712
orig _ 108711
ti m 108671
bu g 108626
ns3:: Ptr<▯ns3:: 108578
En g 108566
op tion_ 108552
addres s_ 108523
neg ative</w> 108516
th eta</w> 108484
level s</w> 108477
line no</w> 108476
w ag 108446
loc ations</w> 108443
G o 108440
ran ge 108343
bas ic</w> 108307
7 0</w> 108303
ro les</w> 108302
_ to_ 108292
networ ks</w> 108264
\ 2 108260
A sync 108247
Be g 108229
s_ _</w> 108185
c in 108155
Ran ge</w> 108124
conso le</w> 108091
Examp les</w> 108084
selec tor</w> 108071
comple x</w> 108056
stati c_ 108051
Plug in</w> 108036
Lin k 108011
3 - 107974
5 ▯ 107938
gam ma</w> 107924
c ab 107920
t f_ 107890
W E 107883
Tup le</w> 107862
re di 107835
B ar</w> 107833
parse_ args</w> 107809
% Y 107807
en s</w> 107801
\x6 3 107796
fe e 107760
th is_ 107742
famil y</w> 107729
St op 107643
c 2</w> 107639
pre v 107625
Ho st 107621
constra int</w> 107609
c . 107553
know n▯ 107527
horiz ont 107500
tr ue 107491
bi as</w> 107477
ti n</w> 107470
v p 107438
> 〖lf〗▯▯▯▯ 107320
share d_ 107265
Config uration</w> 107263
Ple ase▯ 107251
T U 107211
G tk</w> 107176
CO UN 107145
s la 107129
der ▯ 107122
scrip t_ 107115
se as 107090
shoul d_ 107076
h y 107066
time stamp 107043
refer ence 107037
Hand le</w> 107031
st ill</w> 106987
mi r 106983
epo ch</w> 106980
temp er 106977
Tr ace 106940
be ta 106917
exec ute_ 106876
U SE</w> 106869
message_ type</w> 106859
ad s</w> 106849
extern al</w> 106762
dele te 106754
se ction 106735
St ore</w> 106733
Wid gets</w> 106675
sol ution</w> 106643
examp les</w> 106619
di gest</w> 106591
di c</w> 106588
20 14 106493
d h 106454
per c 106443
conne ct_ 106431
Http Response 106429
cn t</w> 106412
w atch 106397
N S</w> 106375
en able 106363
ti ve_ 106361
field_ name</w> 106343
indi vi 106330
re v</w> 106317
direct ly</w> 106280
sh ut 106276
INCLUD ING</w> 106266
necess ary</w> 106261
can not</w> 106235
simp le_ 106175
Res ult 106173
foun d▯ 106164
W I 106129
Wri te 106108
c it 106085
tho se</w> 106076
r a</w> 106065
t g 106041
SQ L</w> 106001
" %s 105995
ma ster_ 105986
sen si 105968
\xd 0 105966
ro le_ 105950
Ap p</w> 105724
AL I 105699
sqlal chemy</w> 105698
datetime . 105633
\ \</w> 105628
has h_ 105619
er r_ 105600
ex po 105593
ac ts</w> 105575
tri es</w> 105554
mul ti</w> 105544
Ge neri 105541
ss l</w> 105528
si mil 105525
le ft_ 105520
l ang 105495
{ " 105495
match ing</w> 105483
FI LE_ 105449
H ash 105434
E mail 105415
▯▯▯▯▯▯▯▯▯▯▯▯▯▯▯▯ ▯▯▯▯▯▯▯▯▯▯▯▯▯▯▯▯ 105406
update d_ 105387
fi t 105374
CRE AT 105374
contai ner 105365
sy mpy</w> 105316
C D 105271
fix ed</w> 105247
Packe t 105210
\x0 7 105202
trans f 105202
20 13</w> 105200
ap s</w> 105150
si de 105136
on ly_ 105064
some thing</w> 105063
conne ction 105045
Di stri 105045
M ini 105043
Pyth on 105027
d ar 104923
c v</w> 104892
DO W 104887
DESCRIP TOR</w> 104876
q t 104832
an g</w> 104811
e val_ 104802
th read_ 104788
hid den 104765
tot al 104750
cam er 104746
con cat 104745
swit ch</w> 104718
sig ma</w> 104709
u tion 104706
ed ge 104656
posi tions</w> 104610
ch oo 104551
i i</w> 104544
posi tion 104522
4 4</w> 104477
G EN 104449
ap propri 104387
ch er</w> 104384
r ▯ 104375
r ing</w> 104341
av oid</w> 104231
0. 0. 104219
enti al</w> 104208
start_ time</w> 104204
12 7. 104202
ony mo 104196
cp p_ 104183
S R 104182
\x0 5 104182
S SI 104142
butt on 104132
00 00</w> 104105
% s_ 104094
hyp er 104038
en gi 103992
E MA 103960
help_ text</w> 103942
m u</w> 103939
1. 1</w> 103921
j i 103916
g h 103904
tit le_ 103837
Window s</w> 103746
p ▯ 103739
ut h</w> 103722
mat h_ 103712
c l</w> 103696
>> >▯ 103653
extr act</w> 103648
FI X</w> 103643
com bi 103630
c ase 103579
C UR 103525
et ree</w> 103521
0. 6 103501
P E 103490
selec ted_ 103483
p y_ 103460
Sho w 103449
cel ls</w> 103448
bro ad 103390
S en 103388
me th</w> 103386
C all</w> 103348
coun try</w> 103315
c ali 103293
s_ dict</w> 103254
bas is</w> 103246
cache d_ 103235
set default</w> 103227
inter pol 103092
cont act</w> 103067
Recor d</w> 103035
Ra di 102985
FI EL 102955
J O 102951
ker nel_ 102943
_ meta</w> 102902
archi ve</w> 102888
be st_ 102860
mo st 102843
si st 102839
Ur l</w> 102832
{ : 102729
att rib</w> 102707
.. .. 102673
s▯ in▯ 102622
Projec t 102622
W R 102621
Posi tion</w> 102610
Meta data</w> 102566
Rec ei 102533
s lot</w> 102532
s_ path</w> 102465
serialize d_ 102434
g r</w> 102388
tre e_ 102356
type ▯ 102355
ari o</w> 102336
po s_ 102310
constra ints</w> 102297
com e</w> 102258
ver _ 102220
shap es</w> 102148
jo urn 102133
seg ment</w> 102125
En abled</w> 102105
rol l</w> 102101
A T</w> 102099
projec ts</w> 102093
is dir</w> 102060
predi ctions</w> 102049
0. 000 102008
op y</w> 102004
S ta 101935
5. 0</w> 101911
0 ,▯ 101900
arra y 101894
Chil d</w> 101885
vo l</w> 101879
Un it</w> 101848
Se ts</w> 101845
fini shed</w> 101774
The se</w> 101745
side_ effect</w> 101704
? ) 101697
spec s</w> 101687
( )▯ 101678
Inter n 101648
S n 101634
\n \n 101616
ad v 101606
inte g 101605
ow n</w> 101544
lig ht</w> 101539
s▯ are▯ 101529
Stre am</w> 101509
\x7 0 101500
m iddle 101481
config ure</w> 101447
HTTP _ 101447
alread y▯ 101445
current ly</w> 101413
M IN 101364
On e</w> 101350
ge ne 101344
TR AC 101344
R G 101340
contain ing_type</w> 101337
CO MM 101298
Tran sp 101227
e qui 101225
d 1</w> 101224
s 3</w> 101175
b lob 101164
pa nel</w> 101144
pool _ 101128
0. 7 101114
direct ories</w> 101113
ke yp 101112
int 64</w> 101058
cel l 101044
st din</w> 101027
Li b 100983
a 1</w> 100976
ph ase</w> 100891
ac cur 100863
fi ed</w> 100803
Re f</w> 100740
ss l_ 100702
sp an 100701
tu de</w> 100694
Cre denti 100691
sha re_ 100639
prox y_ 100630
n ing▯ 100613
all close</w> 100585
g d 100578
m 1</w> 100575
placehol der</w> 100571
- % 100566
aro und</w> 100479
a e 100474
f an 100452
D um 100450
p tr</w> 100445
\x6 4 100443
I R 100417
Control ler</w> 100338
read line</w> 100312
con tr 100282
_ config</w> 100281
Dic t 100275
XX XX 100258
Sec ur 100221
UN I 100174
8 _ 100172
P ort</w> 100152
U SE 100140
re l</w> 100139
v l 100134
PIP E</w> 100104
comm it 99993
c id 99965
0 )</w> 99917
M icro 99880
nex pec 99862
interfac es</w> 99776
TO _ 99736
statu s 99735
C AS 99674
respon ses</w> 99671
z oo 99665
20 15 99638
mar k_ 99628
m ight</w> 99616
inspec t</w> 99593
2 )</w> 99584
cal end 99569
AC H 99568
aver age</w> 99553
Y ▯ 99547
Vi de 99541
STATU S_ 99531
men u 99526
th e_ 99511
ful ly</w> 99511
simp le 99466
a k</w> 99465
Stru ct 99433
f b 99418
i de 99376
pro b</w> 99369
\x fe 99338
he al 99325
XM L 99309
analy sis</w> 99268
d d</w> 99266
1. 5</w> 99258
KE Y_ 99211
4 1</w> 99197
termin e</w> 99179
parse d_ 99163
Buil d</w> 99142
flav or</w> 99122
s parse_ 99113
inter pre 99094
Lab el 99094
ato m</w> 99084
IT _ 99083
sub jec 99040
iter able</w> 99038
check er</w> 99009
type =" 99002
s_ per_ 98982
Distri bu 98959
dur ing</w> 98953
0. 8 98936
absol ute</w> 98913
ge d_ 98907
contin u 98887
flas k</w> 98875
ar t</w> 98862
ensu re_ 98813
w ere</w> 98793
err no</w> 98792
l st</w> 98758
b lob</w> 98743
se l</w> 98677
ce ▯ 98623
Fi les</w> 98607
cpu _ 98596
n t 98569
imp l</w> 98538
CO M 98518
x path</w> 98509
curr ency</w> 98508
refer ences</w> 98467
ing . 98462
Ro w</w> 98459
-0 1 98457
F ree 98428
( " 98422
ent er</w> 98422
/ ▯ 98391
debu g 98376
group _id</w> 98367
order_ by</w> 98346
so cke 98330
header_ parameters</w> 98318
po inter</w> 98302
be st</w> 98257
phy si 98233
50 1</w> 98228
index es</w> 98198
M er 98162
actu al_ 98137
c 5 98134
epo ch 98125
ic al 98106
US ER_ 98105
} 〖lf〗 98099
enco ded</w> 98091
\t \t 98077
ne ed 98075
ve d▯ 98071
RE AD 98026
pre _ 98011
display_ name</w> 97959
> 〖lf〗▯▯▯▯▯▯▯▯ 97954
acti ve 97952
re al_ 97938
Test ▯ 97936
TE D</w> 97934
attr _ 97880
OP TI 97869
m m 97864
sh ort_ 97848
IN ST 97836
Cop y 97807
can not▯ 97785
rel ation</w> 97763
t in 97746
9 6</w> 97736
lig h 97719
Dele te</w> 97707
ex t_ 97631
Con ta 97599
me an 97593
A pi 97587
d / 97577
d st_ 97499
sentry. db.models.fields. 97464
per s 97437
nu mp 97381
st it 97377
end ing</w> 97342
reque sted</w> 97291
Conver t</w> 97277
r y 97263
manu al</w> 97252
mo d_ 97160
S li 97147
V AR 97082
mi me 97069
S a 97064
n dim</w> 97028
call back 97011
__ call_ 96953
cal _ 96945
uti li 96938
SI GN 96937
inter net</w> 96915
str ategy</w> 96913
ti c</w> 96879
s_ for_ 96878
Provi der</w> 96848
seri al</w> 96845
Virtu al 96816
; 〖lf〗 96808
Or der</w> 96805
B i 96804
Object Name</w> 96803
f h</w> 96800
Docum ent</w> 96784
utf 8</w> 96773
\u 9 96752
mat h 96733
\x 11 96713
Mo ck 96689
t b</w> 96651
real m</w> 96621
\x6 c 96619
__ version_ 96606
RP C</w> 96597
M AR 96560
attribu te 96551
F R 96549
p g 96545
20 12</w> 96508
b ri 96501
ob serv 96458
WOR D</w> 96455
Au di 96446
AM P 96384
_ add_ 96354
si l 96345
Ge o 96340
r op 96311
wa re 96309
J u 96307
or m</w> 96292
\u 4e 96282
1 d 96270
e + 96247
P ort 96238
gri d_ 96231
ho ur</w> 96178
compar e</w> 96155
Or g 96147
R ow 96135
b g 96122
pos sib 96119
\x0 c 96071
argum ent 96062
ac qui 96057
P C 96034
B ar 96023
url parse</w> 95984
S cre 95982
d ue</w> 95945
Ordered Dict</w> 95937
7 2 95925
um ▯ 95887
Syste m</w> 95880
compar is 95874
syn tax</w> 95856
in ner</w> 95835
le ft 95831
test - 95829
__call_ _</w> 95802
extern al_ 95800
Sp li 95797
po wer_ 95771
represent ing</w> 95705
Gener ator</w> 95697
vi g 95690
N on 95679
G en 95661
sh uff 95559
publi sh</w> 95557
\ w 95484
de scrib 95482
ze d_ 95466
Se arch</w> 95461
clo ne</w> 95449
Clas si 95438
scri be</w> 95425
No w</w> 95420
B I 95401
de v_ 95399
ar y▯ 95398
wh en▯ 95277
exc_ info</w> 95267
an im 95265
5 2 95239
co gn 95237
Ms g</w> 95199
:▯ {}</w> 95071
C G 94977
O S</w> 94954
TEMP LAT 94945
to gg 94924
se ctions</w> 94915
ipv 4</w> 94915
ag ent_ 94886
miss ing_ 94856
dec imal</w> 94847
doc _ 94843
in v</w> 94839
ic ally</w> 94795
WWWWWWWW WWWWWWWW 94732
rai sed</w> 94715
esc ap 94714
ran ges</w> 94694
c p_ 94684
know n_ 94668
C ache 94620
sol ver</w> 94607
minim um</w> 94594
use d_ 94576
initi alize</w> 94569
stu dent</w> 94569
t x_ 94541
mp _ 94508
django _ 94497
cri teri 94480
N O</w> 94479
D o</w> 94473
wi ki 94436
OS Error</w> 94433
B E</w> 94432
Config ur 94430
` ▯ 94424
a- z 94419
se q_ 94408
Arra y 94401
exp _ 94400
Chil d 94372
al tern 94343
X - 94335
priv ate_ 94292
ben ch 94263
co re. 94253
Argum ents</w> 94230
RE N 94220
\xc 3 94180
do t 94166
is▯ not▯ 94164
\xd 7 94162
\xe 0 94127
R out 94081
\xc 0 94079
Fai led▯to▯ 93996
win dow_ 93994
com p</w> 93985
Auth or</w> 93964
m / 93959
rai se_ 93951
api_ version</w> 93927
P os</w> 93926
rele ase 93918
set ObjectName</w> 93912
SERV IC 93905
do ▯ 93883
+ + 93865
le ast</w> 93846
line ▯ 93830
has_ key</w> 93796
O ther 93747
U P</w> 93745
E num 93734
20 16 93733
lo ok</w> 93729
in side</w> 93652
Edi t</w> 93606
en v_ 93597
impor t▯ 93510
mit ted</w> 93507
c v 93504
c s_ 93493
name space 93475
R F 93472
. org/ 93456
w b</w> 93391
S ph 93387
s wi 93384
validat or</w> 93357
see k</w> 93353
down load 93339
ES T</w> 93336
numb er▯of▯ 93333
Lo ad</w> 93324
clea ned_ 93301
\u0 4 93290
HTM L 93285
con sum 93280
s ses</w> 93270
trig ger</w> 93264
1 20 93244
empty ,▯ns3:: 93241
Plug in 93238
{ 2 93237
fun ction_ 93202
we ight 93130
P H 93121
V M 93111
tmp dir</w> 93097
bl ue 93089
pol ling</w> 93079
__version_ _</w> 93072
star ted</w> 93059
ho urs</w> 93056
Met ri 93054
O K 93030
F ont</w> 93000
DE D</w> 92982
addi tion 92933
No ne 92890
as su 92885
ca st 92884
4 3</w> 92877
vel y</w> 92853
predi c 92852
* . 92817
m s_ 92795
con f_ 92792
fi t_ 92786
multi _ 92746
n x</w> 92740
posi tive</w> 92730
P open</w> 92720
Qt Widgets</w> 92719
i st</w> 92714
si m</w> 92714
Contro l</w> 92690
en sure</w> 92678
__ all_ 92656
bin ding</w> 92656
s. ▯ 92640
x x</w> 92632
mer ge_ 92589
re st_ 92560
tensor s</w> 92534
laz y</w> 92460
de g 92456
IN T 92455
th ir 92453
stub s</w> 92413
compi ler</w> 92411
r x 92345
fin d▯ 92342
do ma 92306
process or</w> 92301
Se g 92289
embe d 92270
close _ 92268
butt on_ 92266
contai ner_ 92235
urllib 2</w> 92234
▯ ' 92233
S IT 92227
r n 92199
lar ge</w> 92197
in strum 92172
run s</w> 92145
play er 92125
c ut</w> 92108
exp and</w> 92098
( ( 92097
3 f 92077
meta var</w> 92068
ch r</w> 92059
S K 92048
prepa re_ 92048
cach ed</w> 92043
ye t</w> 92026
inser t_ 92020
middle wa 92008
AG ES</w> 91994
pag in 91988
Ru le</w> 91981
vari ance</w> 91977
Stor age 91967
\x20 \x20 91952
vari able 91931
mapp er</w> 91914
iter tools</w> 91879
list dir</w> 91854
beg in 91848
A ss 91821
B ig 91809
H as 91779
x 0</w> 91718
read y</w> 91714
as sign</w> 91705
deli mi 91690
pl aces</w> 91655
1▯ 2▯ 91635
co re 91543
sav ed</w> 91535
exist ing_ 91533
' , 91512
float 64</w> 91508
. 0 91500
C LI 91457
o v 91451
b ut▯ 91419
late x</w> 91413
20 13 91404
3 / 91389
Uti ls</w> 91376
tite m__</w> 91365
UP DAT 91340
implement ed</w> 91327
__all_ _</w> 91280
Fro m</w> 91223
Can not▯ 91218
dep s</w> 91189
se en</w> 91184
produ ct 91134
Me mb 91126
U plo 91108
ver y</w> 91103
vo cab 91096
z ed</w> 91066
B L 91033
3 d 90974
Pr int</w> 90954
ip e 90942
mo vi 90930
SE T</w> 90927
y es</w> 90896
in form 90888
\x6 7 90868
scal e_ 90858
B R 90855
{0 }▯ 90849
c 7 90829
t ro 90822
p x</w> 90772
M ach 90765
I s</w> 90723
G L</w> 90711
ref s</w> 90633
cre di 90629
ac ity</w> 90590
No t▯ 90580
t p</w> 90570
alig n</w> 90564
\x4 4 90547
error_ map</w> 90512
2. 0 90509
f 1</w> 90490
d at</w> 90462
back up</w> 90447
Op tion</w> 90446
N um</w> 90431
se c 90405
Proper ties</w> 90403
R aw 90397
S ur 90392
behavi or</w> 90385
war ds</w> 90338
di stan 90336
Chan ged</w> 90301
th er▯ 90293
dum my</w> 90247
decor ator</w> 90222
oc cur 90219
In t</w> 90200
gradi ent</w> 90200
E N</w> 90181
look up_ 90152
Program m 90148
clean up</w> 90146
sy m</w> 90077
p en 90069
scen e</w> 90059
Sche du 90058
\x6 6 90038
D en 90025
b e_ 89992
ar t 89962
PU T</w> 89904
datase t_ 89897
Re ader</w> 89892
f s_ 89877
5 2</w> 89870
LE T 89777
math_ ops</w> 89750
p 2 89716
w alle 89670
local s</w> 89658
g f</w> 89627
run time</w> 89604
l b 89598
comp at</w> 89598
GE R</w> 89579
ci o</w> 89539
P i 89515
Do c 89513
assertIs Instance</w> 89512
UR I</w> 89473
MO DE 89461
ipv 6</w> 89457
energ y</w> 89453
Proper ty 89447
\x0 e 89444
cum ul 89440
chun ks</w> 89438
base 64</w> 89433
th ▯ 89430
r 1</w> 89424
loc ation_ 89415
indi cat 89382
0. 2 89374
late st</w> 89357
actu ally</w> 89317
Mag ic 89307
%s - 89280
5 3</w> 89271
__ doc 89266
ow ner 89255
UT F 89235
F ind</w> 89233
aga in</w> 89220
2 d 89205
\ 3 89198
deep copy</w> 89190
CH EC 89179
top olog 89131
Pro xy</w> 89130
fi d</w> 89111
ing▯ the▯ 89094
56 7 89086
del ta 89057
) . 89032
J av 89027
refres h</w> 89004
\x3 3 89000
y 2</w> 88975
parame tri 88972
AS S 88967
bo ol 88966
f s 88960
comm unic 88951
f r</w> 88939
c f</w> 88909
4 , 88904
z en 88893
AC E</w> 88893
ation al</w> 88863
5 , 88857
man ag 88853
af ter_ 88853
fla g 88846
generi c</w> 88813
s mar 88798
should▯ be▯ 88780
intern al_ 88723
pre dict</w> 88695
mas k_ 88694
dat at 88672
b ad</w> 88654
li es</w> 88654
▯ [ 88653
execut able</w> 88650
Spec ifi 88647
sto re 88635
E l 88632
p r</w> 88557
BAS E_ 88545
P u 88543
\x0 f 88519
ato ms</w> 88499
P ub 88496
activ ity</w> 88464
CON N 88438
tenan t_id</w> 88408
\x1 a 88394
Dri ver</w> 88375
p x 88363
Re le 88351
Packe t</w> 88340
L T 88334
\x3 4 88322
contrib ut 88318
spec ify</w> 88316
R N 88259
zil la 88246
gre en</w> 88202
django.db.models.fields. BooleanField</w> 88191
S - 88152
G re 88133
\x1 f 88131
md 5</w> 88123
> 〖lf〗▯▯▯▯▯▯▯▯▯▯▯▯ 88119
Constra int</w> 88103
_ r 88074
li er</w> 88065
p p</w> 88055
US E_ 88040
Ad min 88021
ent er 88012
C A 87987
sc an</w> 87983
par e</w> 87976
sche ma 87952
mem ory_ 87945
r y</w> 87930
s_ from_ 87918
8 6</w> 87846
ac cor 87799
glob als</w> 87794
lin g▯ 87792
or din 87787
meas ure 87778
manage ment</w> 87772
20 17 87766
cer t_ 87748
er arch 87745
Re served</w> 87735
% . 87719
redu ce</w> 87674
Key s</w> 87670
ex e</w> 87664
pass word_ 87656
fu n</w> 87650
d 2</w> 87642
fla t</w> 87623
4. 0</w> 87621
migr ation</w> 87607
P res 87604
sen sor 87603
pk g_ 87589
Ma ke 87566
i on_ 87565
0.0 1</w> 87520
query_ parameters</w> 87498
noti fy</w> 87497
S ave 87483
Al so</w> 87467
k - 87457
ti le</w> 87431
>〖lf〗 < 87415
an ce_ 87374
\x8 2 87363
pl ace_ 87292
en v 87242
pl us</w> 87229
dro p</w> 87217
fiel d▯ 87214
deserializ ed</w> 87212
\x 14 87208
appropri ate</w> 87203
Th ere</w> 87198
I f 87168
Con di 87155
schedu ler</w> 87155
p ad 87140
e s. 87134
5 3 87104
medi a_ 87098
▯ or▯ 87080
sp aw 87067
quanti ty</w> 87061
sh el 87056
la n</w> 87056
\x3 8 87051
\u 00 87047
S E_ 87002
primar y</w> 86937
destro y</w> 86907
NUL L</w> 86906
l i</w> 86848
fail s</w> 86816
. py 86811
_PAT H</w> 86809
te le 86794
/ api 86756
p ush</w> 86730
Butt on 86711
D AM 86709
bl ue</w> 86694
notific ation</w> 86666
f c</w> 86662
f ur 86659
s d</w> 86636
P lay 86600
format ter</w> 86594
\xe 7 86591
el _ 86560
sh ar 86556
\x9 2 86551
] ) 86546
g ame 86534
E E 86529
exec ution</w> 86495
previou s_ 86484
ex ec</w> 86478
as array</w> 86411
e as 86409
s i</w> 86390
monit or</w> 86388
and ro 86339
Op en</w> 86330
sm all</w> 86307
Http Response</w> 86306
mg mt</w> 86304
F u 86282
uni form</w> 86237
as k</w> 86236
ce r</w> 86227
no thing</w> 86213
_ file</w> 86168
j pg</w> 86164
A- Z 86147
Net work</w> 86143
interfac e_ 86122
provi der 86107
Men u 86100
ne sted</w> 86089
Refer ence</w> 86010
k b 85981
ran ge_ 85919
DAT A_ 85908
s▯ the▯ 85901
M E_ 85898
Data set</w> 85887
or ts</w> 85869
af f</w> 85869
M A</w> 85863
selec t▯ 85859
20 16</w> 85826
API _ 85815
▯ file 85813
%s : 85790
p l</w> 85787
F O 85785
ke ep_ 85779
IMP LI 85767
s /</w> 85760
me an_ 85698
Num b 85697
lo t 85674
Loo k 85659
quer ies</w> 85634
be en▯ 85628
ver s</w> 85626
pipeline_ response</w> 85622
e st</w> 85616
\x8 1 85613
6 6</w> 85604
ad ju 85587
\xe 3 85587
Man age 85578
ref le 85545
proper ti 85530
Oper ation</w> 85484
Direct ory</w> 85469
pass word 85465
automati cally</w> 85453
rp c_ 85437
Cre ates</w> 85415
s▯ and▯ 85401
i ze</w> 85385
Tar get 85369
api . 85335
z one 85316
IP v 85300
d ag 85295
seri es_ 85247
gi t_ 85235
St ack</w> 85223
x / 85221
scre en 85217
\x6 d 85209
distribu tions</w> 85202
dimen sion 85199
ou s 85180
Index Error</w> 85171
sign atu 85159
Par ti 85157
3 00 85136
\xc d 85130
ch ap 85110
tt e</w> 85100
U sed</w> 85072
▯ B 85068
qu ality</w> 85061
p an 85018
POIN TER</w> 85005
C T</w> 84962
Initi alize</w> 84946
3 .</w> 84927
NotFo und 84915
Time stamp</w> 84895
min utes</w> 84871
se s_ 84839
0x 8 84815
\xd 1 84786
Abstr act 84748
dow n_ 84736
goo d</w> 84735
OU TP 84726
an t_ 84719
stu b</w> 84713
ing▯ to▯ 84709
No t</w> 84691
int 64 84691
lib _ 84690
r b 84686
ma de</w> 84683
IC _ 84638
d c</w> 84608
4 9</w> 84573
5 4</w> 84533
Clo ud 84509
e ach 84492
m 2</w> 84470
In ser 84458
Colle ction</w> 84429
ep s</w> 84412
i ri 84387
wait_ for_ 84371
\xf c 84354
Magic Mock</w> 84332
{1 } 84297
l t 84289
Ad di 84285
virtu al_ 84274
decl ar 84220
certific ate</w> 84211
mon th 84209
M S</w> 84193
4 - 84178
Goog le</w> 84171
4 7</w> 84145
bod y 84143
i a</w> 84137
\xf d 84134
error ▯ 84126
ali ases</w> 84083
s = 84067
": " 84018
ERR OR 84015
tear Down</w> 83987
inter face 83983
Do es 83971
schedu le</w> 83970
Mat ch</w> 83964
in dent 83956
F low 83943
\x 13 83915
\x4 9 83912
▯ < 83904
exp ort 83901
\xf b 83900
G T 83892
ke y▯ 83890
example. com</w> 83825
\xe f 83824
deprec ated</w> 83820
Res ults</w> 83787
em it</w> 83778
pix els</w> 83766
. 5</w> 83760
tic k 83757
1 d</w> 83733
〖lf〗 〖tab〗〖tab〗 83698
organiz ation</w> 83671
st age</w> 83665
comm on 83626
\x7 f 83572
-- - 83562
\xf 7 83547
Pr op 83537
sh or 83535
comp ut 83526
re q 83518
Co uld▯not▯ 83505
si tes</w> 83498
gp u</w> 83433
\x3 a 83431
g au 83406
an o</w> 83371
CH _ 83367
SE D</w> 83366
li n</w> 83309
: 0 83301
neut ron</w> 83287
cleaned_ data</w> 83282
Stor age</w> 83279
TI ON_ 83245
\x3 6 83218
Gener ate</w> 83213
IMPLI ED</w> 83190
def ▯ 83187
OR T_ 83177
Sche ma</w> 83149
requi red_ 83102
A W 83073
Buil der</w> 83034
4 6</w> 83025
re t_ 83009
pk g 82986
manife st</w> 82953
int en 82903
Posi tive 82898
6 3</w> 82890
\xf 8 82882
b il 82866
Lo ader</w> 82852
make dirs</w> 82849
cu s</w> 82834
\x0 d 82816
Refer ence 82792
ser ve</w> 82771
Langu age▯ 82763
E + 82762
ret val</w> 82756
\xc f 82753
stu ff</w> 82723
Off set</w> 82716
CONFI G</w> 82700
c sr 82695
5 7</w> 82690
sur face</w> 82660
X R 82607
S ig 82604
Su cce 82601
t▯ to▯ 82599
de c</w> 82592
Al most 82591
i var</w> 82575
co re_ 82538
200 0</w> 82533
H ist 82525
Fla g</w> 82522
Re tri 82500
\xb f 82475
u su 82464
C lean 82461
get text</w> 82461
Sett ing 82426
HO ST</w> 82425
cance l</w> 82418
_ parse_ 82384
r strip</w> 82383
secur ity</w> 82378
activ ation</w> 82376
Beg in</w> 82313
N UM 82311
de co 82311
g on</w> 82307
) : 82294
I f▯ 82282
CONN EC 82262
Disp lay 82228
P D 82221
Ste p</w> 82215
f d 82202
\xf 0 82200
Coun t 82199
test_ create_ 82185
Tar get</w> 82183
8 2 82171
$ { 82152
clic ked</w> 82139
A M</w> 82123
Format ter</w> 82116
vari ant</w> 82099
C y 82057
\x4 1 82025
Sty le</w> 82017
exp ir 81995
\xb 8 81965
\x3 5 81954
correct ly</w> 81953
Fla gs</w> 81952
V ar</w> 81942
auth or 81936
n l 81919
r 2</w> 81915
trun c 81914
to u 81906
add_ class</w> 81883
M ESS 81880
n 1</w> 81869
Par se</w> 81853
promp t</w> 81837
5 00 81809
pre v</w> 81795
\x8 9 81785
Un able▯to▯ 81779
bi b 81765
\x3 d 81757
s po 81753
C tr 81736
resol ution</w> 81716
\x6 8 81694
par ents</w> 81653
proper ty_ 81631
course_ key</w> 81630
func tools</w> 81618
boo k_ 81613
optimiz er</w> 81611
b in_ 81600
S in 81562
S S</w> 81552
10 1</w> 81539
al ar 81537
local host</w> 81532
me m</w> 81528
Requi red</w> 81526
do r</w> 81516
ne ver</w> 81495
fil l 81491
buil tin</w> 81489
ME TH 81485
confi gs</w> 81468
</ a 81463
DI S 81399
lo _ 81398
\xf 3 81388
metho d 81358
ever y 81358
in vent 81346
Categ ory</w> 81336
comple x 81319
sph inx</w> 81314
AN D▯ 81295
dr op_ 81288
sign als</w> 81286
_ update_ 81283
proces ses</w> 81268
Chan nel</w> 81242
s g 81229
cm ds</w> 81226
weigh t_ 81210
__doc __</w> 81195
asyn cio</w> 81170
auth ors</w> 81146
\xd f 81104
type _</w> 81103
l ati 81101
allowe d_ 81101
validat ors</w> 81085
filen ame 81031
disp atch</w> 81018
resource_ group_name</w> 81017
Ite ms</w> 81016
AUTH _ 81008
db_ index</w> 80981
Oper ation 80948
re size</w> 80928
cro ss</w> 80897
LIMIT ED</w> 80894
de gre 80882
O P_ 80871
Un it 80866
! ! 80864
overri de_ 80843
\xc 7 80780
bin / 80740
In formation</w> 80733
box es</w> 80733
amp a 80730
De fini 80687
get_ by_ 80682
'%s '▯ 80677
iter ations</w> 80655
categ ory_ 80637
cop ies</w> 80633
mg r</w> 80596
BU T</w> 80582
stor age 80576
Ver ify</w> 80571
\x9 e 80534
middlewa re. 80509
3 d</w> 80476
\x be 80466
\x 16 80424
co effici 80415
D im 80409
F LO 80406
syste m 80401
stric t</w> 80376
metri c_ 80341
r c 80336
\x3 7 80331
mo bi 80323
G M 80321
Fir st</w> 80318
'%s '</w> 80315
S ave</w> 80304
No ti 80292
pk t</w> 80289
L ev 80285
de termi 80275
G a 80272
E S_ 80255
op t_ 80236
〖lf〗 〖lf〗▯▯▯▯ 80227
\x8 8 80220
volume s</w> 80187
\x3 9 80183
lon git 80181
100 00</w> 80179
O W 80170
normali ze</w> 80162
regul ari 80161
\x bd 80149
Que ue 80125
pu sh 80075
over write</w> 80041
O ut</w> 80012
se ver 80001
do t_ 79997
enc y 79990
o / 79957
▯ with▯ 79929
\xe 9 79913
Ho st</w> 79904
cre ation</w> 79899
provi de</w> 79869
window s</w> 79857
ex it 79856
ex act</w> 79828
> \n</w> 79798
G IN 79779
men u_ 79742
k / 79732
No des</w> 79723
ac c</w> 79710
i 18 79680
wr ap_ 79679
Simple Ref 79673
S L 79667
UU ID</w> 79632
S ome 79631
Language▯ ::▯ 79629
r d</w> 79583
\x 17 79577
& ▯ 79559
ul ar 79551
\x ed 79525
s b 79518
s and 79496
par t_ 79483
\x00\x00 \x00 79481
( .* 79477
5 8</w> 79473
UN C 79462
ING S</w> 79437
〖stropenf :"〗</w> 79431
Bo un 79428
h ard 79404
\x1 c 79363
tu re 79344
5 - 79298
h 2 79237
\x7 5 79228
requi re</w> 79224
O n</w> 79219
0000 00</w> 79203
Ge ts</w> 79156
iter ation</w> 79136
concat en 79129
repe at</w> 79116
re l_ 79097
su g 79074
A F 79053
dra w_ 79032
T AG 79006
AC C 78998
Fiel ds</w> 78998
o m</w> 78970
a 2</w> 78966
allow s</w> 78961
So cket 78959
\x ce 78951
chec ked</w> 78922
assertIs None</w> 78897
Almost Equal</w> 78883
se d▯ 78861
\x db 78856
Many To 78853
ran k 78827
task_ id</w> 78809
E ns 78802
Conta ins</w> 78800
Stru ct</w> 78795
20 12 78785
buil t</w> 78764
DEFAUL T</w> 78748
[ 0-9 78746
ON ▯ 78740
\xf 9 78738
hi sto 78694
calcul ate</w> 78684
whe re▯ 78666
P ay 78659
wik i</w> 78594
'%s ' 78585
seg ments</w> 78583
th ree</w> 78545
\x4 2 78540
f type</w> 78533
Transp ort</w> 78511
at ely</w> 78496
B ACK 78476
ar c 78473
z e_ 78466
str ip 78443
vec tors</w> 78430
enum _type</w> 78409
\xa e 78386
mode s</w> 78383
Sym bol</w> 78374
bas ic_ 78339
D D 78334
app end_ 78324
at ur 78298
brea k 78295
\xb 5 78289
Identifi er</w> 78287
\xf 1 78278
tic ks</w> 78277
\x2 f 78273
sc i 78240
Field Descriptor</w> 78223
\x7 7 78169
id = 78157
\xa 0 78153
\x2 c 78144
get_ all_ 78140
diff _ 78133
sol ve</w> 78109
LE F 78108
mach i 78087
sum _ 78064
\xa 9 78012
C ar 77982
a red</w> 77979
work flow</w> 77976
6 - 77973
V M</w> 77950
ai r</w> 77936
C ▯ 77932
constant_ op</w> 77931
ex ce 77930
\x7 8 77927
Max im 77916
Metho d 77915
prop ag 77912
issu es</w> 77894
sequ ences</w> 77892
goog le. 77882
NO T_ 77879
defaul t▯ 77858
I con</w> 77855
ke t 77848
ID s</w> 77840
J son 77825
vir t 77825
6 7</w> 77816
P ho 77806
C AP 77798
\x 99 77792
a d_ 77787
id ent</w> 77780
p print</w> 77777
requi re_ 77770
is_ valid</w> 77754
P RI 77717
Rai ses 77715
artic le</w> 77656
sqli te 77632
name d 77622
\xe b 77612
\x8 3 77596
mu l</w> 77595
examp le_ 77594
bund le</w> 77591
ab c 77572
al t</w> 77543
gra d_ 77531
\x ad 77528
e ro 77519
LIAB ILITY</w> 77519
number_ of_ 77485
En ti 77456
I g 77446
produ cts</w> 77426
uti l 77419
Chan nel 77409
ph i</w> 77392
\x9 f 77390
activ ate</w> 77390
Sh ape</w> 77381
prote cted</w> 77366
Uni code 77356
ti l 77348
O rig 77347
dire c 77331
sk learn</w> 77331
trig g 77322
p ts</w> 77321
\xf 6 77273
Fe ature</w> 77271
Featu re 77270
Ru le 77264
datase ts</w> 77258
% H 77254
Av ail 77235
redire ct_ 77225
Tr ue 77203
verti ces</w> 77203
aga inst</w> 77190
2 1 77189
sel f 77187
P A 77175
impor ts</w> 77168
BU IL 77160
\xb b 77144
base_ url</w> 77096
Ro le</w> 77092
conne c 77084
show n</w> 77079
R ights</w> 77039
star ting</w> 77033
\xb 0 77023
play er_ 77019
\x 19 77014
Jo b</w> 77010
pl ur 76993
c_ int</w> 76990
tion Error</w> 76975
3 D</w> 76965
for mul 76956
Ex ist</w> 76943
href =" 76934
US ER 76930
Lay er 76925
differ ence</w> 76914
C P</w> 76881
con v</w> 76868
ex _ 76860
channe l 76836
django - 76834
cur sor 76816
em on</w> 76804
Sche ma 76746
app lied</w> 76712
Comp ute</w> 76699
b o</w> 76681
__ author_ 76672
Cer tific 76651
st aff</w> 76614
ste d 76607
T ab 76594
No tes</w> 76565
m c</w> 76562
EN AB 76554
cub e</w> 76548
\xe 1 76544
Th read 76540
\x 15 76527
:▯ " 76508
COPY RIGHT</w> 76477
gener al</w> 76462
S cop 76453
\x0 9 76451
0. 3</w> 76437
\x4 5 76400
tit les</w> 76389
memb er_ 76383
\x fa 76379
z ation</w> 76346
bl ack 76302
8 3 76291
g h</w> 76273
\x9 0 76268
ub e 76255
Sk ip 76239
serializ ers</w> 76232
v 3</w> 76231
Y Y 76206
▯ from▯ 76190
pro file 76177
ne sted_ 76173
ren der 76118
e u 76115
V al</w> 76105
6 1</w> 76097
resul ts_ 76049
\xb 6 76047
vi su 76031
Boo lean</w> 76023
inclu des</w> 76018
\x2 d 75997
config . 75996
\x1 e 75978
9 5</w> 75974
Argument Parser</w> 75972
D y 75966
f act</w> 75961
ly ing</w> 75951
Docum ent 75943
Hea der 75940
\xb 9 75939
P R 75933
r d 75928
ta kes</w> 75920
/ $</w> 75914
use d▯ 75906
he re 75881
ty p</w> 75880
il y</w> 75876
on o 75856
c ity</w> 75854
ti p</w> 75840
Ens ure</w> 75836
ME T 75829
e b 75811
accoun t 75800
trans pose</w> 75789
\x8 f 75789
re a</w> 75785
it y▯ 75781
\xa 5 75780
6 ▯ 75774
f 2</w> 75762
SP EC 75762
TH IS</w> 75753
\x8 4 75721
Does Not 75706
8 4</w> 75703
id =" 75686
let ter</w> 75683
ex pr 75643
sequ ence_ 75610
to_ dict</w> 75606
ato m 75563
DE V 75553
repo _ 75539
__author_ _</w> 75531
7 2</w> 75519
T EN 75512
dis k 75505
LI ST</w> 75505
\xd 3 75505
f all 75502
cent er 75499
c ip 75491
l 2</w> 75475
Par am</w> 75474
thumbn ail</w> 75457
IN DE 75451
F low</w> 75429
Defa ults</w> 75413
OR Y</w> 75406
align ment</w> 75398
compati ble</w> 75396
\xc c 75385
li sh</w> 75374
experi ment 75355
python 3</w> 75353
\xe 4 75347
k now</w> 75341
liste ner</w> 75337
\x6 2 75331
acce s 75331
k in 75290
18 0</w> 75265
start_ date</w> 75244
Secur ity 75240
gate way</w> 75226
\x9 3 75214
s_ with_ 75213
Produ ct 75192
SH A 75152
p o</w> 75133
ManyTo Many 75133
registe red</w> 75114
table_ name</w> 75108
gro und</w> 75105
provi des</w> 75094
Programm ing▯ 75082
\xf 5 75072
V o 75071
\x af 75070
all en 75065
pip e</w> 75063
H I 75025
E 501</w> 75020
ul l</w> 75015
ag rap 74992
Ma x</w> 74975
TYP ES</w> 74933
back up 74929
R ect</w> 74918
visi bility</w> 74902
XX X</w> 74893
c - 74890
\x8 b 74862
assert_array_ equal</w> 74837
Sub Element</w> 74836
z u 74823
METH O 74814
da g</w> 74776
00000000 00000000 74773
A ffer 74770
\x8 7 74770
expec ted 74763
perc ent</w> 74727
get ter</w> 74678
x i</w> 74677
Dic tion 74654
LIN E</w> 74639
G r 74630
Affer o</w> 74629
p lay</w> 74594
Sele ction</w> 74574
hoo ks</w> 74573
\xc 5 74565
p n 74556
\xb 7 74551
brow se</w> 74549
log its</w> 74548
V E_ 74542
Do ub 74535
epoch s</w> 74475
go t</w> 74470
8 8</w> 74463
_ list</w> 74451
\x9 7 74437
s sh_ 74423
rot ation</w> 74423
clu sters</w> 74422
\x4 3 74410
6 8</w> 74407
\xe 2 74405
temper ature</w> 74386
Or der 74366
\x de 74321
cat alog</w> 74320
h ▯ 74295
wa y_ 74290
STAT E_ 74277
\xe 5 74273
pri or</w> 74264
C isco 74261
\xc 6 74258
Wri ter</w> 74252
a j 74220
\x8 5 74219
respon se 74202
sc ali 74194
P op 74186
custo m 74180
ag ent 74173
leg end</w> 74145
Pro g 74143
Cop y</w> 74134
\xd d 74116
ct u 74115
tab s</w> 74106
IC Ag 74101
Stati c 74090
squ are</w> 74079
\xe e 74038
ws gi 74018
\xc 1 74014
Programming▯ Language▯::▯ 74013
a b</w> 74007
Polic y 74007
te am 74003
cpp_ type</w> 73996
buil t 73984
\xa 7 73984
U I</w> 73965
P N 73961
CH AR 73922
sche ma_ 73920
assert Raises 73888
/ us 73871
NO _ 73866
n b_ 73861
\xc b 73841
t t</w> 73832
estimat or</w> 73823
-% m- 73810
sc an_ 73800
EV ENT</w> 73780
\xc 4 73767
v 1 73766
level _ 73739
sp ati 73732
Flo at</w> 73726
L ast 73702
ac ed</w> 73686
de f_ 73679
\x5 2 73667
\x9 c 73664
R UN 73661
\x8 c 73649
T E_ 73635
\x8 e 73607
parametri ze</w> 73603
e ar</w> 73592
curr _ 73580
Remo ve 73567
for ce 73564
l v 73550
sp _ 73526
it self</w> 73513
Oper ator</w> 73513
\xa a 73499
avail able_ 73499
G ue 73483
\xb c 73477
Scri pt</w> 73472
\x9 b 73462
dis able 73451
) 〖lf〗▯▯▯▯ 73445
:▯ { 73444
FI XM 73418
\xd 6 73416
P ool</w> 73411
E MP 73409
COD E</w> 73397
res s_ 73394
Q Application</w> 73384
hi de</w> 73382
l r</w> 73375
ed ul 73354
glob al 73290
sub s</w> 73274
h an 73270
trans form 73261
FIXM E</w> 73254
\x8 6 73246
ve loc 73242
No tific 73238
Mat ch 73226
ct or 73221
snapsho t_ 73189
uni code 73188
S 3 73180
regi ster 73149
8 5</w> 73133
amo un 73117
equi val 73113
cl ause</w> 73110
con ti 73078
en roll 73071
2 ,▯ 73062
cal ling</w> 73062
TEX T</w> 73034
lo op 73029
obj s</w> 73022
github .com/ 72997
\xb 1 72987
OU N 72967
u n</w> 72940
est im 72939
b / 72938
b ra 72923
Content- Type</w> 72923
Ac count 72921
boo t</w> 72918
Fil ename</w> 72909
B atch 72905
</ td 72903
Ag ent</w> 72880
C AT 72873
Lin u 72865
\xe 6 72862
is_ static</w> 72847
Pa nel</w> 72840
> 〖lf〗▯▯▯▯▯▯▯▯▯▯▯▯▯▯▯▯ 72808
back up_ 72796
\x3 c 72789
H oo 72784
\xb 3 72734
\x9 5 72733
\x9 a 72700
pat ch_ 72671
shap e_ 72666
RE F 72647
assert AlmostEqual</w> 72642
S hel 72638
n p_ 72625
us ing▯ 72608
sub ne 72595
Mem ber</w> 72589
Al g 72578
-0 1</w> 72576
separ ator</w> 72560
t wit 72559
se ction_ 72551
\xd 8 72519
asyn c_ 72516
F las 72508
\x 40 72493
\x9 1 72478
\x8 d 72477
{ %▯ 72475
default dict</w> 72453
Compone nt</w> 72440
\x da 72433
\xf 4 72431
Per mission 72426
Validat or</w> 72418
1 b 72413
e ig 72408
is_ extension</w> 72390
mk dir</w> 72387
shap e 72381
Con so 72376
\x9 4 72373
d .</w> 72369
s_ file</w> 72351
6 2 72345
▯ value 72342
1 ▯▯ 72336
cre ating</w> 72329
fixtu res</w> 72324
lo w_ 72319
bo b</w> 72312
initializ ed</w> 72284
w k 72282
S end</w> 72273
Sum mar 72273
\x6 b 72270
\x9 6 72265
orde red</w> 72259
\x ec 72248
86 13 72240
seg ment 72239
P in</w> 72238
cli ents</w> 72237
12 0</w> 72237
Ar tic 72223
\x ab 72208
K E_ 72185
\x1 d 72179
Con stru 72164
aggreg ate</w> 72164
\x9 d 72144
mo unt</w> 72118
/ dev 72105
lin alg</w> 72105
:▯ ' 72105
ad ing</w> 72100
wal k</w> 72080
Per mission</w> 72072
\xa 4 72042
y label</w> 72030
d ence</w> 72009
Ge ometry</w> 71998
Chan ge</w> 71994
c entr 71993
run ning_ 71991
attemp t</w> 71984
\xe 8 71980
G ra 71975
Colum n 71951
\x4 8 71946
M AN 71945
Sph inx</w> 71916
% r 71910
pend ing</w> 71908
11 . 71856
base s</w> 71850
pre p 71837
Fai led</w> 71808
fin ish</w> 71785
extension_ scope</w> 71776
T RAN 71774
0 〖lf〗 71763
T Type</w> 71757
\x9 8 71757
\xc 2 71737
m time</w> 71736
has_ default_value</w> 71734
exp lo 71730
st ic 71727
que ue 71719
work space</w> 71714
DI R 71708
mo ves</w> 71701
Bin ary 71695
p w 71684
Sett ing</w> 71677
is n</w> 71656
{1 }</w> 71652
h um 71631
s m</w> 71629
hel p 71628
FI LE 71617
St at 71615
th an▯ 71608
r ng</w> 71603
st on</w> 71596
40 1</w> 71596
char _ 71589
ut c 71587
de velo 71586
ob s</w> 71579
E ach</w> 71568
will▯ be▯ 71538
\x2 8 71535
flat ten</w> 71522
re view 71504
Per io 71490
s▯ =▯ 71470
Po s 71461
Applic ation 71456
3 D 71455
B ro 71423
\xb a 71421
thres hol 71404
__ get 71391
0. 0.1</w> 71389
pla in</w> 71389
embe dd 71375
hel lo</w> 71369
} , 71333
\x8 a 71324
Remo te 71323
python - 71323
* =</w> 71306
\x7 9 71301
He ight</w> 71290
ManyToMany Field</w> 71263
\x4 e 71258
RE D</w> 71247
de t 71242
retri ev 71236
\x5 4 71234
an y▯ 71203
Comp o 71198
so up</w> 71196
p in</w> 71195
k lass</w> 71161
pe op 71147
U S</w> 71127
tr ack_ 71091
ERR OR_ 71080
stri de</w> 71077
n s. 71072
\xd 9 71068
var ▯ 71051
c ase_ 71048
network_ id</w> 71025
fail _ 71022
BO O 71010
Name d 71005
re ach 70997
sub set</w> 70985
sub mit</w> 70947
s enti 70942
\xd 5 70939
us age_ 70928
di al 70927
= ▯</w> 70916
work ers</w> 70907
Fi re 70903
annot ations</w> 70890
hash lib</w> 70885
s r</w> 70884
statist ics</w> 70883
p in 70854
sof t 70846
\xc 9 70838
gu i 70818
SE T_ 70809
inf er 70801
lo o 70795
fi ts</w> 70792
7 8</w> 70773
%Y -%m- 70768
ti ves</w> 70753
N ONE</w> 70742
p it 70721
i x</w> 70720
B row 70712
callback s</w> 70681
s_by_ name</w> 70671
\xb 4 70668
dat ap 70639
comp il 70638
WIT H</w> 70632
12 . 70628
w av 70624
Regi ster 70616
Mas k</w> 70582
clo ck</w> 70554
quo te_ 70532
\xb 2 70510
\xa 1 70510
wor k_ 70506
V ar 70501
S wit 70497
6 3 70481
in com 70474
\d +) 70468
fol der 70458
ame ▯ 70442
t we 70418
F et 70415
\xf 2 70401
ap e 70393
d p</w> 70359
a c</w> 70326
:▯ %s▯ 70304
if y▯ 70303
s las 70295
\xa 3 70292
sn ip 70283
expec t_ 70278
B LOC 70263
hand ling</w> 70243
retri es</w> 70231
roo m</w> 70229
den sity</w> 70218
B IN 70193
g t</w> 70176
t l 70175
r and</w> 70165
ation s_ 70165
com ment_ 70157
in p</w> 70146
in o 70144
g ate</w> 70136
ep si 70136
no w_ 70108
7 7</w> 70086
Par am 70079
\ U 70070
M UL 70065
/ py 70053
en d▯ 70053
top ics</w> 70053
Emp ty 70032
cook ies</w> 70020
C lic 70018
A mer 70016
base string</w> 69977
chun k_ 69975
log ic</w> 69971
RE P 69960
TI ME</w> 69958
r hs</w> 69953
deci m 69942
n c</w> 69908
produ ce</w> 69876
ma li 69852
0000 000 69807
Ad ap 69781
\xa 2 69779
Com ment</w> 69745
fac es</w> 69733
driver _ 69719
di st_ 69713
\xd c 69706
L es 69703
refres h_ 69686
ori g</w> 69659
x i 69655
LO G_ 69652
en code 69650
S end 69639
no - 69624
Com mon 69622
Mon it 69621
In di 69619
z ip_ 69617
swit ch 69613
8 1</w> 69607
ation _id</w> 69584
as c 69580
g t 69568
8 ▯ 69561
/us r/ 69560
\xa 6 69554
mar ks</w> 69547
excep tion_ 69518
7 3 69509
Amer ic 69500
Po ol 69402
Cre ated</w> 69392
sco re_ 69389
mo re▯ 69370
as sum 69368
OTH ER</w> 69358
sensi tive</w> 69310
rende rer</w> 69309
Par tic 69293
name spaces</w> 69269
inclu de 69249
foun d_ 69247
se ss 69245
shut down</w> 69182
USE R</w> 69155
\xd 2 69135
de l_ 69121
cal ler</w> 69119
S parse 69117
d ense</w> 69105
d m 69091
compati bility</w> 69076
bi li 69056
\x3 e 69055
Default Dele 69038
Pre fix</w> 69033
re cogn 69015
st mt</w> 68990
Over ri 68989
in valid▯ 68961
volume _id</w> 68959
conso le_ 68936
DoesNot Exist</w> 68936
P ipe 68933
refer ence_ 68933
- > 68921
abstr act 68921
0 7</w> 68891
AL L 68874
assert_ raises</w> 68867
Sele ct</w> 68867
rele ase_ 68865
p c_ 68857
35 7 68851
6 2</w> 68846
G ate 68836
m b</w> 68827
langu ages</w> 68821
", " 68817
\xc 8 68815
file s_ 68805
typ ing</w> 68802
S CH 68774
ter n</w> 68748
af fi 68727
OF P 68717
lear ning_ 68692
Memb er 68689
\x7 6 68687
hand le 68680
provi der_ 68677
8 9</w> 68675
\x6 0 68669
q ty</w> 68657
d t 68633
require ments</w> 68620
WARN ING</w> 68600
Sim ul 68599
alread y_ 68593
plo ts</w> 68578
Gi ven</w> 68573
c ause</w> 68564
9 2 68562
\x ac 68550
comple ted</w> 68547
Wid get 68547
train ing_ 68541
par sing</w> 68538
j un 68537
cap tu 68519
know n 68515
mas s</w> 68482
Inte gr 68459
delimi ter</w> 68443
h r 68438
cs v 68423
re p</w> 68419
VI E 68409
\xe a 68392
import_ from_ 68391
JEC T_ 68389
Per son</w> 68371
r ename</w> 68368
char ge</w> 68368
DE P 68349
recor d 68349
Credenti als</w> 68344
pyp lot</w> 68322
RES UL 68319
syn chron 68314
cl f</w> 68308
MEN T_ 68303
instan ti 68278
tt le</w> 68274
G E</w> 68266
redu ce_ 68205
b la 68204
in v 68174
fai led 68161
Ran ge 68160
pu b</w> 68159
__ ge 68154
\x4 7 68149
retri eve</w> 68144
brow ser 68123
- id</w> 68088
Time r</w> 68088
colle ct</w> 68088
authentic ation</w> 68072
G rid 68063
wor d▯ 68056
P lat 68054
mat che 68050
classi fi 68021
AR Y</w> 68020
noi se</w> 68019
verbo sity</w> 68015
do s</w> 68008
\x5 3 67997
exp or 67991
A to 67978
\xd 4 67943
b order 67935
arg s_ 67932
\xa 8 67928
stream s</w> 67906
Other wise</w> 67896
\x5 0 67877
comp any_ 67874
R i 67863
GE T_ 67846
EN _ 67830
Whe ther</w> 67809
e mb 67805
de p</w> 67796
exten sion 67796
name _</w> 67782
Datab ase</w> 67773
cy cle</w> 67756
AC K</w> 67745
sor ted_ 67735
dump _ 67733
Sign al</w> 67732
4 f 67727
tex t▯ 67711
sig ned</w> 67708
pix el</w> 67679
Me di 67661
. + 67655
e k 67649
doma ins</w> 67624
sur ve 67619
BS D</w> 67614
ca p</w> 67594
Byte s 67588
b a</w> 67565
20 11 67557
c 2 67525
in ner_ 67523
Clu ster 67521
pat ch 67517
db se</w> 67515
Vari able 67505
Trans form</w> 67496
regi ons</w> 67486
b 1</w> 67469
Detail s</w> 67462
g ame_ 67457
star t▯ 67447
== ▯ 67440
back end_ 67440
pol l</w> 67438
p m</w> 67433
ten ant</w> 67419
Pass word 67404
uuid 4</w> 67382
any thing</w> 67370
〖lf〗▯▯▯▯▯▯▯▯▯▯▯▯ ▯▯ 67340
= %s 67323
c ss 67322
< a▯ 67317
in st_ 67301
marg in</w> 67288
up load 67271
. json</w> 67255
template_ name</w> 67250
cle ar 67236
butt ons</w> 67236
reg ular</w> 67234
Asser tionError</w> 67209
visi t_ 67208
in jec 67198
Set up</w> 67197
boo t_ 67187
m id 67155
OUTP U 67146
K er 67140
S imp 67121
conver ted</w> 67094
mac _ 67084
RE SP 67075
por t▯ 67064
Ne w</w> 67064
da y_ 67050
( %s)</w> 67025
comple te 67023
audi o</w> 67019
hi erarch 67004
mini str 67004
pai r 66979
IN SER 66969
bal ance</w> 66967
Rou te 66936
so ft</w> 66912
assert_ almost_equal</w> 66907
sph in 66898
version_ info</w> 66885
:% M 66884
datab ase 66882
Su ite</w> 66872
d. ▯ 66861
ing - 66860
ro le 66859
get value</w> 66854
th ri 66851
g a</w> 66847
De prec 66846
g y 66841
tab _ 66837
deg ree</w> 66836
IN T</w> 66815
rp c 66805
cs v_ 66792
r at 66771
res ▯ 66765
pri mi 66747
GP IO</w> 66747
x label</w> 66746
D R 66719
gi c</w> 66705
" ,▯ 66677
Inter val</w> 66677
8 2</w> 66669
0 3</w> 66665
A z 66659
Op ti 66652
FRO M</w> 66631
\x2 9 66621
U se 66617
read lines</w> 66587
accoun ts</w> 66587
co v</w> 66569
2. 16 66538
)▯ { 66520
a o 66510
DO MA 66510
random_ state</w> 66510
9 8</w> 66456
AP _ 66453
indivi dual</w> 66446
I E</w> 66432
Un ion</w> 66426
perfor man 66418
Eng ine</w> 66393
Les ser</w> 66329
Ex it</w> 66316
repl ace_ 66311
ca st_ 66310
tab le▯ 66308
local host 66307
b f 66296
n b</w> 66268
U tf 66265
US A</w> 66265
resource Group 66247
b c 66241
St ub 66235
AS ▯ 66182
Ch ro 66172
15 0</w> 66169
\x5 8 66163
\x4 f 66160
buff er_ 66142
check sum</w> 66129
back end 66128
bat ch 66126
In clu 66125
assig ned</w> 66118
\x5 c 66113
dum my_ 66108
\x3 f 66093
W HE 66085
Lay out_ 66082
tor r 66069
rou ter_ 66016
m 2 66015
th ings</w> 66003
pap er</w> 65970
per m</w> 65965
St ack 65963
maj or</w> 65962
an c 65941
d v 65940
ur lop 65937
en ou 65924
An g 65908
t l</w> 65905
37 . 65905
b and 65893
setup tools</w> 65889
And Return</w> 65870
Con text 65868
File Name</w> 65851
\xc a 65845
spec ies</w> 65839
selec t 65831
dele tion</w> 65815
20 11</w> 65792
〖lf〗1▯ 1▯2▯ 65777
! ▯ 65767
Lo ck</w> 65757
le cu 65753
as cri 65729
ME DI 65726
C B 65690
9 3 65688
20 1</w> 65676
_ c 65639
read s</w> 65636
g on 65627
7 1</w> 65626
No te 65625
AM E</w> 65623
del ta_ 65606
or g_ 65598
fal se 65587
Contai ner 65585
tho ug 65571
lo ss_ 65548
ph one</w> 65525
sel f_ 65513
6 9</w> 65512
d ns</w> 65500
w x 65495
b id 65493
CE P 65484
4 00 65462
C ER 65452
\U 000 65446
Sho uld</w> 65440
I Z 65416
h int</w> 65402
Sn ap 65389
to ler 65383
st one</w> 65366
trans for 65364
track er</w> 65364
desi red</w> 65318
20 10</w> 65314
ch dir</w> 65310
k it</w> 65299
atch er</w> 65271
fon t_ 65250
import_from_ module</w> 65249
MA P</w> 65231
ra m</w> 65228
annot ation</w> 65225
E st 65216
post g 65213
exclu de_ 65205
0 ▯▯ 65203
sc at 65200
virtu al 65200
[ %s 65193
re g_ 65182
Auth oriz 65174
Exten sion</w> 65158
relation ship</w> 65153
Org aniz 65115
gi v 65084
con version</w> 65063
remain ing</w> 65018
mu si 65010
out ▯ 65000
ma ster 64992
X ▯ 64959
star ts</w> 64952
Mini m 64946
N u 64926
DELE TE</w> 64913
h or 64908
conne ctor</w> 64905
per form</w> 64903
SE TT 64868
8 3</w> 64864
stat s_ 64863
\x2 a 64852
Co l</w> 64837
cur ve</w> 64812
validat ion_ 64798
p ar</w> 64794
as set</w> 64780
geo m</w> 64772
z i 64763
Re posi 64754
s_ in_ 64749
de termine</w> 64746
F N 64738
\x4 d 64730
in to▯ 64719
St ri 64698
ing er 64692
vi m</w> 64684
Generi c 64683
b b</w> 64662
mi c</w> 64642
q l 64629
b s 64621
〖lf〗1▯1▯2▯ 0▯ 64613
shuff le</w> 64610
user_ profile</w> 64585
noti fy_ 64582
by_ name</w> 64575
float ing_ 64561
wee k 64553
first_ name</w> 64552
Edi t 64538
lati tude</w> 64526
b box</w> 64518
Ad d▯ 64514
na vig 64514
Utf 8</w> 64514
C at 64501
l and 64490
ro un 64488
p tr 64475
W IN 64468
work ing</w> 64468
Sing le 64447
Key word</w> 64427
C AD 64394
mode _ 64386
longit ude</w> 64342
Ali gn 64331
Glob al 64329
pu s</w> 64322
django.db.models.fields. IntegerField</w> 64314
\x4 6 64301
cal c_ 64300
jo i 64292
Alg orith 64291
MA V 64277
djang opro 64264
coordin ate</w> 64264
1111111111111111 1111111111111111 64255
l 1</w> 64222
New ▯ 64211
m id</w> 64190
C ell 64190
django.db.models.fields. TextField</w> 64179
G OO 64166
fe ed 64134
al b 64127
Sequ ence 64121
k . 64118
befo re_ 64111
Mapp ing</w> 64108
g c</w> 64085
cover age</w> 64085
d k</w> 64068
depend ency</w> 64056
ro ute_ 64055
( %s 64052
assign ment</w> 64051
8 - 64046
di cts</w> 64046
Sho w</w> 64046
N ext 64033
I S_ 64031
le x</w> 64028
7 6</w> 64019
abstr act</w> 64019
2. 5</w> 64012
Py Qt 64010
D S 64009
e ded</w> 63991
\u5 d 63986
hand les</w> 63984
Re direct</w> 63975
NO W 63969
ses sions</w> 63966
([ ^ 63961
accur acy</w> 63958
% % 63955
c ard 63952
summar y_ 63945
m n 63931
match ed</w> 63921
V 1 63911
T AR 63910
h i</w> 63894
mis c</w> 63862
c i</w> 63855
objec t▯ 63846
et c/ 63817
de sk 63806
g uid</w> 63787
explic it 63781
loc ator</w> 63778
av g</w> 63772
D E</w> 63760
value ▯ 63757
urlop en</w> 63748
Bas ic 63742
b py</w> 63734
/v 1/ 63716
Back end</w> 63714
l ename</w> 63698
g b</w> 63697
Wa it 63697
tur n</w> 63693
Run ner</w> 63687
\x3 b 63676
dis able_ 63672
Pro file 63667
user ▯ 63666
sequ ence 63665
6 00</w> 63656
7 - 63627
glyp hs</w> 63613
String Field</w> 63610
\x2 4 63586
pu re_ 63573
ST E 63569
Di r 63568
episo de</w> 63542
hidden _ 63526
b ur 63523
Co ok 63512
accor ding</w> 63487
0 / 63474
av at 63471
r st</w> 63441
raw_ input</w> 63441
Emp ty</w> 63438
low er 63396
B r 63391
sub mit 63391
33 33 63380
to do</w> 63374
ba z</w> 63369
LA Y 63363
twi sted</w> 63358
brid ge</w> 63358
IN TE 63356
C ir 63351
OR D 63350
save d_ 63340
St u 63331
_ assert_ 63328
ac l</w> 63322
ed ge_ 63290
uint 16</w> 63236
i o_ 63210
Pub lic 63210
log in 63208
in line</w> 63199
\x7 d 63172
DIREC T</w> 63166
DAT AB 63158
rm tree</w> 63158
hel lo 63154
w ers</w> 63142
att ach</w> 63139
su ite 63126
re store</w> 63110
ab ly</w> 63107
as set_ 63105
wh ite</w> 63069
rout ine</w> 63058
) * 63047
y th 63032
read ing</w> 63006
〖docopenr :"""〗</w> 62982
ax is_ 62981
p . 62974
per i 62970
H ash</w> 62963
UT C</w> 62961
PRO VI 62960
ip_ address</w> 62952
\x7 b 62944
deri v 62931
1▯ 1▯ 62930
posi tion_ 62929
ar ity</w> 62923
ge ome 62919
colle ction 62919
_ from 62881
djangopro ject</w> 62857
0 4</w> 62852
if ace</w> 62830
assert_ allclose</w> 62814
qu it</w> 62809
- 1 62804
F oo 62796
get_ value</w> 62789
can on 62788
\x7 1 62787
n 2</w> 62785
sub stit 62780
bound ary</w> 62778
Us age</w> 62755
enco der</w> 62742
n args</w> 62734
\x7 a 62731
sor t 62725
ec ho 62724
of▯ the▯ 62709
pla n</w> 62689
\x5 1 62673
Ph y 62661
25 0</w> 62647
SS L</w> 62641
DATAB AS 62640
Datab ase 62638
b li 62634
S ite 62630
Samp le 62630
bo ard_ 62589
dir ty</w> 62589
\x2 1 62579
comple te_ 62558
_ un 62554
3 e 62542
tex ts</w> 62539
docum ent_ 62537
scop es</w> 62533
libvir t</w> 62524
H t 62512
P lot</w> 62509
8 7</w> 62500
Ipv4 Address</w> 62494
Se con 62478
Mo d 62469
Mar k 62462
:%M :% 62451
empty,▯ns3:: empty,▯ns3:: 62426
T S 62422
loc k_ 62417
go ing</w> 62403
instance _id</w> 62390
Auth ors</w> 62380
b g</w> 62365
prob ability</w> 62362
Pri v 62341
Tr y</w> 62336
decor ators</w> 62334
rel ative_ 62332
rele v 62305
stri des</w> 62302
\x5 5 62300
ss h</w> 62285
D u 62284
output_ dir</w> 62281
R S 62278
f ab 62262
P ▯ 62258
mac ro 62255
D rop 62239
arg types</w> 62233
Initi aliz 62176
Positive IntegerField</w> 62176
vari ous</w> 62168
rou tes</w> 62166
\ "</w> 62162
C am 62146
sum m 62144
en - 62143
secon d_ 62143
tr ue_ 62140
witho ut_ 62131
v or 62124
cro ss 62120
config ured</w> 62102
defini tions</w> 62101
\x4 c 62092
pre pare</w> 62091
app end 62081
7 9</w> 62069
oth er▯ 62042
DE FIN 62012
std:: string</w> 62005
inc ip 61981
con vol 61956
Lev el 61956
Al low 61933
VAL ID_ 61932
\x5 f 61917
check ing</w> 61907
0 b 61902
NotFound Error</w> 61894
comp ute 61893
iz er</w> 61892
prett y</w> 61856
v r 61837
En try 61835
9 7</w> 61831
\x7 c 61768
tz info</w> 61762
repres ents</w> 61758
Fail ure</w> 61734
m x 61729
op er</w> 61723
% 2 61720
b j</w> 61718
E U 61707
\x5 9 61707
g mail</w> 61698
ho w 61690
Libr ary</w> 61679
LET TER</w> 61674
P ick 61624
Disp lay</w> 61615
\x4 a 61614
n an 61610
T UR 61607
I SO 61575
b and</w> 61574
da emon</w> 61573
SE CRE 61563
N orm 61544
Temp or 61533
M C 61529
image _id</w> 61522
Sp ace</w> 61515
ws gi</w> 61506
pro mo 61481
Expres sion</w> 61473
late st_ 61471
sho t</w> 61463
cm p</w> 61460
doc string</w> 61440
selec ted 61425
MA T</w> 61417
\x5 7 61416
De te 61408
length s</w> 61398
at ol</w> 61396
bl ack</w> 61383
e red</w> 61378
on▯ the▯ 61368
Pu sh 61364
y out 61350
type_ id</w> 61345
_ build_ 61342
ta r</w> 61341
clou d 61341
Ar g</w> 61325
Coun ter</w> 61324
re serv 61315
p b</w> 61314
numer ic</w> 61306
constru ct</w> 61304
N OR 61282
libr aries</w> 61280
classi fier</w> 61254
Qu o 61253
re comm 61226
bu m</w> 61208
e v</w> 61197
O w 61192
\x7 e 61163
Ac tive 61153
py g 61127
▯to▯ the▯ 61126
REQU E 61118
unique_ together</w> 61117
float _ 61114
bl an 61112
Fo o</w> 61107
/ s 61104
instance_ uuid</w> 61085
EN TI 61081
she e 61080
\x5 a 61078
non - 61074
repres ent</w> 61073
Message Box</w> 61060
So cket</w> 61034
TI ME_ 61004
D V 60953
cook i 60952
p add 60944
/ tmp 60929
ac ro 60914
paralle l</w> 60914
comm it_ 60906
str ing▯ 60903
1 0.0</w> 60901
en i 60895
rou ter 60886
M IN_ 60873
render_ template</w> 60861
verti cal 60856
assertAll Equal</w> 60762
AT TRIBU 60760
sen sor</w> 60759
ale tte</w> 60759
clas s▯ 60755
Enti ty</w> 60754
make s</w> 60737
_ logger</w> 60734
Ipv6 Address</w> 60726
0x 1 60720
l t</w> 60710
G ame 60705
Un known▯ 60705
__ __ 60702
min ute</w> 60677
im medi 60671
7 3</w> 60667
I C</w> 60645
M B 60622
Loo p</w> 60619
\ ub 60594
al - 60580
( s 60569
fee db 60561
__ eq 60548
exec _ 60540
regi on_ 60538
wrapp ed</w> 60538
sent ence</w> 60537
T rig 60530
< br 60526
sli ce_ 60517
Imp ort</w> 60515
〖lf〗▯▯▯▯ ▯▯▯▯</w> 60498
visi t</w> 60495
partic ular</w> 60488
ation Error</w> 60480
AN G 60471
AC K_ 60465
---------------- ---------------- 60458
er . 60443
F ini 60422
RESP ON 60422
rest ype</w> 60402
Li ter 60380
AL L_ 60375
ob o 60355
Sh are 60355
Bo ston</w> 60337
on_ delete</w> 60335
Num er 60330
NAM E_ 60323
O p</w> 60285
bran ch 60285
3 17 60279
20 17</w> 60277
be d 60276
__ge titem__</w> 60275
c ra 60266
tr y▯ 60262
A s</w> 60255
Time out</w> 60229
resol ve</w> 60225
id ▯=▯ 60218
ne ss 60198
camer a</w> 60183
lin space</w> 60176
\x5 6 60176
An d</w> 60166
overri des</w> 60162
NUM B 60155
load ing</w> 60152
fre e_ 60152
w at 60148
py x 60132
b ar_ 60048
S m 60042
T x 60042
cit ation</w> 60030
9 2</w> 60027
dig it</w> 60026
N N 60025
sion ▯ 60018
h am 60010
▯ ▯</w> 60006
re try_ 59997
:▯ %s 59991
C he 59989
sp y</w> 59988
NUL L 59966
〖stropenf :'〗</w> 59964
en code_ 59958
bas ic 59936
1. 2. 59930
adap ter</w> 59923
filte red</w> 59920
F ind 59919
\u7701 \u 59919
comp are_ 59918
0. 25</w> 59910
is_ active</w> 59904
G RE 59892
normaliz e_ 59891
st ation</w> 59878
mark up</w> 59846
y y 59832
En tit 59807
in file</w> 59802
AM E 59802
k er_ 59792
so ▯ 59771
block_ device_ 59762
\x2 6 59758
IT Y_ 59738
Re port</w> 59734
NO T▯ 59727
end or 59724
gener ation</w> 59718
file Name</w> 59688
C 0 59682
Lib virt 59674
login_ required</w> 59661
spec _ 59647
g 2</w> 59638
10 _ 59626
__eq __</w> 59623
ST OR 59564
consu mer</w> 59527
bi r 59521
back ends</w> 59519
ori entation</w> 59513
pres ent 59503
m r 59478
Environ ment</w> 59472
_ L 59454
bet ter</w> 59454
mi al</w> 59449
ST RE 59447
tr ac 59446
lo op_ 59442
Programming▯Language▯::▯ Python▯ 59442
ICAg ICAg 59437
lea f</w> 59430
Recor d 59428
gi ve</w> 59424
Trans l 59403
7 4</w> 59399
de d. 59383
piec es</w> 59370
R D 59361
Programming▯Language▯::▯Python▯ ::▯ 59350
\x6 a 59335
co in 59334
con v_ 59331
categ or 59328
equ als</w> 59308
li mit_ 59307
re load</w> 59297
subscrip tion</w> 59296
as_ view</w> 59293
tab lename</w> 59281
lex i 59270
86 18 59260
= \" 59234
〖lf〗▯▯▯▯▯▯▯▯▯▯▯▯▯▯▯▯ ▯▯▯▯▯▯▯▯▯▯▯▯▯▯▯▯ 59232
Pack age 59231
0 5</w> 59230
Ex t 59222
Roo t</w> 59220
analy si 59211
last_ name</w> 59208
frag ment</w> 59207
b order</w> 59191
comm and▯ 59181
o o</w> 59178
_from Utf8</w> 59177
mer ge 59176
Oper ations</w> 59170
Ag greg 59166
B Y 59157
9 1</w> 59155
remo te 59152
Par ent</w> 59142
\x2 3 59136
C K_ 59122
_P RE 59113
_ g 59109
sub scrib 59108
render_ to_ 59097
s ce 59096
st ic</w> 59086
▯ * 59075
LEN G 59039
gro und 59030
part ner</w> 59014
Dum my 59001
k it 58994
\x5 d 58981
I I 58979
FOR MAT</w> 58978
doc test</w> 58976
\x5 b 58965
t_ type</w> 58945
comp any</w> 58941
% r</w> 58937
ath er_ 58927
F al 58920
dis cover 58918
fire w 58909
Diction ary</w> 58898
eng th 58894
bin d_ 58894
kw ds</w> 58875
un link</w> 58851
Pro xy 58848
\x0 0</w> 58847
4 18 58836
// ▯ 58830
Sec tion</w> 58824
compu ted</w> 58819
tic s</w> 58818
pl u 58814
path_ format_ 58806
ta ke 58804
trans form_ 58801
per sist 58785
arti st</w> 58785
imp lic 58779
s▯ from▯ 58768
ag ing</w> 58759
direct ory▯ 58737
I ss 58726
P ubli 58722
code cs</w> 58711
path_format_ arguments</w> 58707
un used</w> 58706
LE ▯ 58684
T F 58665
produ ction</w> 58661
cli p</w> 58658
per ▯ 58657
0. 8</w> 58644
s 2 58639
CO P 58627
con n_ 58621
Cur sor</w> 58601
font size</w> 58592
rende red</w> 58569
ali ve</w> 58568
choi ce 58568
be am</w> 58563
c c_ 58560
condi tion 58542
y a 58533
si _ 58517
ser ve_ 58510
De bug 58503
St ats</w> 58503
sug ge 58502
parser s</w> 58486
CONFI G_ 58479
de code_ 58468
Ac count</w> 58451
SU CC 58448
V C 58440
12 34</w> 58430
HE AD 58427
re actor</w> 58395
colle ction_ 58394
met ac 58386
me d_ 58378
win 32 58368
bind ings</w> 58367
go t▯ 58324
ch ai 58320
SI G 58320
out s</w> 58303
hea d_ 58290
H D 58289
conver ter</w> 58287
At tr 58267
supp lied</w> 58263
epsi lon</w> 58243
ab ort</w> 58230
de st 58222
sub plot</w> 58192
\x4 b 58190
OTH ER 58190
A E 58182
ify ing</w> 58177
ac i 58162
p le</w> 58160
con to 58157
tic ket</w> 58145
test / 58111
De velop 58107
j a</w> 58098
Fol der</w> 58075
m ic 58058
get cwd</w> 58057
k il 58046
exp and_ 58044
r ate_ 58026
access_ token</w> 58026
Boun ded 58016
m_ id</w> 58014
rec v</w> 58000
quo ta_ 57994
wag tail</w> 57989
wr ong</w> 57963
I L_ 57959
C an</w> 57954
time ▯ 57941
\x2 b 57934
we b_ 57932
control l 57919
Line ar 57919
AR IS 57903
AT E</w> 57895
DEV IC 57893
Date Time</w> 57889
u k_ 57888
url patterns</w> 57888
REQU EST</w> 57887
mas ked</w> 57881
D raw 57866
D b 57864
simp li 57855
] , 57843
Man ager 57836
input_ shape</w> 57821
c g 57811
Op t</w> 57803
\d + 57801
calcul ate_ 57790
c map</w> 57785
end_ date</w> 57782
EN TR 57780
a 2 57770
TRAC T</w> 57756
yi el 57747
Down load 57747
st er▯ 57746
Not None</w> 57743
spli text</w> 57738
Numb er▯of▯ 57725
H AS 57721
q l</w> 57719
pe er</w> 57718
ma g</w> 57715
S ite</w> 57714
p a</w> 57710
pr op_ 57694
s l</w> 57683
ver se</w> 57677
off set_ 57677
s 3_ 57670
Vol ume</w> 57670
c ampa 57668
experi ment</w> 57655
1. 2</w> 57641
oper ation_ 57637
ar m 57619
rup t</w> 57613
d i</w> 57610
86 _ 57609
64 _ 57595
e f</w> 57578
link ( 57569
fol low</w> 57551
Attribute Value</w> 57544
snip pe 57533
anch or</w> 57499
u d</w> 57486
r tol</w> 57484
/ etc/ 57474
ex act 57463
play ers</w> 57458
cre ates</w> 57450
confi rm 57447
ctr l</w> 57442
ig n</w> 57432
C ACH 57418
er ci 57394
b ut 57392
is_ pure_ 57382
h it</w> 57369
le av 57356
sy s_ 57354
whi ch▯ 57353
. ▯▯ 57339
s ke 57332
n ick</w> 57332
sym metri 57329
En able 57326
40 3</w> 57323
au g 57295
Ta gs</w> 57295
al t 57286
ye ar 57278
G au 57276
b or 57272
9999 9999 57267
defi nes</w> 57265
view s. 57258
0.0 5</w> 57255
int ro 57242
0. 3 57232
de ad 57219
up gra 57217
\x2 7 57208
Cho ice 57201
f q 57184
\ "▯ 57182
sib le 57174
fail ures</w> 57172
Do main</w> 57168
d m</w> 57154
y 2 57142
uni on</w> 57138
S top</w> 57136
m t_ 57136
linu x</w> 57122
dn s_ 57117
up s</w> 57116
G radi 57107
is_pure_ virtual</w> 57106
el ap 57096
la p</w> 57085
\x5 e 57080
parti tions</w> 57078
j e 57076
pur ch 57061
char set</w> 57059
Par ser 57038
if f</w> 57035
it h</w> 57020
re v 57019
created_ at</w> 57001
e tag</w> 56997
reposi tor 56992
Add res 56985
Hel lo 56984
DAM AGES</w> 56976
SU PP 56966
cont act_ 56956
swig _ 56954
cre ator</w> 56946
num s</w> 56937
N S 56933
off sets</w> 56929
An not 56928
R ate</w> 56927
con cat</w> 56924
compi le_ 56924
ut c</w> 56918
D on</w> 56917
jo in_ 56916
s at 56903
ang les</w> 56889
Dri ver 56879
▯ file▯ 56871
6 , 56862
re jec 56834
topolog y</w> 56827
pho to 56818
V e 56808
This▯ is▯ 56807
Ren de 56804
avail able 56794
1234 567 56792
mo l</w> 56789
Spec i 56788
module_ name</w> 56783
par agrap 56775
\x 25 56767
De fi 56767
20 10 56766
regi on 56763
libr ary_ 56724
m idd 56718
utc now</w> 56713
PROVI DED</w> 56712
Argum ent</w> 56704
di stin 56696
assertIs NotNone</w> 56684
******** ******** 56682
convert_ to_ 56675
g o_ 56669
0 6</w> 56646
CF G_ 56641
0. 9</w> 56631
11 1</w> 56628
matri x_ 56625
9 4</w> 56622
f n_ 56608
V O 56602
Ex tern 56596
Sc en 56590
de vi 56578
>〖lf〗▯▯▯▯ < 56573
rever se_ 56556
AL LO 56543
l ug 56539
scal e 56534
\u7701 \u5 56531
Jav a 56529
k a</w> 56515
n av 56514
attr __</w> 56507
success ful</w> 56490
pro j</w> 56461
MOD UL 56453
),▯ link( 56443
Pat tern</w> 56438
attemp ts</w> 56431
pu sh_ 56427
s ( 56421
00: 00: 56412
duplic ate</w> 56399
F AC 56386
aler t</w> 56384
Http Request</w> 56357
I m 56345
hist ory_ 56330
S ch 56328
split lines</w> 56326
r ating</w> 56323
y el 56323
Main Window</w> 56313
R E</w> 56297
wi max</w> 56296
fri end 56291
deri ved</w> 56284
Sto re 56283
di d</w> 56230
se n</w> 56229
xy z</w> 56223
C ase 56183
c ted 56175
ta s</w> 56175
dep ends</w> 56171
tr ace_ 56166
co ve 56145
di git 56122
cent er_ 56121
setting s_ 56101
part ner 56096
config_ file</w> 56085
) .</w> 56081
text_ type</w> 56077
parame ter_ 56074
T ORS</w> 56071
under lying</w> 56061
ex tra 56059
int64 x 56031
S he 56020
TIME OUT</w> 56013
degre es</w> 55997
127. 0.0.1</w> 55996
cap abilities</w> 55992
\u7701 \u6 55974
Config Parser</w> 55936
notific ations</w> 55936
multip le_ 55933
tic k</w> 55892
monit or 55890
se u 55885
subscription _id</w> 55883
as si 55877
lon g▯ 55856
we ver</w> 55849
Vide o 55842
v a</w> 55836
ch allen 55825
car ds</w> 55825
G A 55802
Americ a/ 55800
def er 55798
n ick 55796
F S 55796
WR IT 55784
auth ori 55782
cid r</w> 55781
the ano</w> 55773
Po ints</w> 55757
leng th_ 55750
K NOW 55749
every thing</w> 55744
:▯ %( 55726
sr c/ 55714
calend ar</w> 55710
unsigned▯ long</w> 55693
Ma in</w> 55685
class_ name</w> 55682
S o</w> 55674
g ing</w> 55673
t on 55669
Bo dy</w> 55662
C AN 55622
work er_ 55589
data . 55585
a h 55564
in i</w> 55557
r . 55553
attach ment</w> 55549
hi st</w> 55526
00 1</w> 55519
u nexpec 55495
vali date 55494
contai ners</w> 55480
lo we 55473
c5 f 55460
log file</w> 55427
prett y_ 55419
SPEC I 55410
1 ]</w> 55388
The y</w> 55365
assert_array_ almost_equal</w> 55351
TH ER</w> 55332
predi ction</w> 55332
gate way_ 55331
T S_ 55326
white space</w> 55322
vec tor 55299
wa p</w> 55294
org anis 55290
_ state</w> 55277
a str 55275
permis sion 55275
19 2.16 55274
Com man 55270
3 )</w> 55263
G l 55256
tor ch</w> 55256
,▯ H 55249
Sty le 55241
T ur 55223
s k</w> 55216
A ctions</w> 55160
s un 55152
os v</w> 55149
) ? 55147
j in 55144
data_ dir</w> 55131
nor m_ 55099
- IO 55069
h ic 55068
n ado</w> 55063
av g_ 55062
{{ ▯ 55032
clou d_ 55025
Po st</w> 55018
abili ty_ 55017
-- ▯ 55012
n s_ 54972
display ed</w> 54962
cy c 54961
w el 54960
C N 54940
foo ter</w> 54914
Nor mali 54914
VALU E</w> 54912
LIAB LE</w> 54894
def s</w> 54892
admin / 54889
Uni ver 54879
Li st▯ 54877
0. 4</w> 54871
SH ALL</w> 54871
k o</w> 54868
M U 54862
Me dia 54860
syste ms</w> 54855
CON TRACT</w> 54851
bo t_ 54807
atu m</w> 54805
P S 54804
u l</w> 54797
CON TRIBU 54789
simul ation</w> 54783
FA KE_ 54774
seas on</w> 54767
incre ment</w> 54766
Ro t 54759
Re port 54742
REQU I 54738
au ti 54733
W ID 54720
9 3</w> 54715
En gi 54695
p id 54692
mapp ings</w> 54689
Scal e</w> 54667
} ,▯ 54661
k ill</w> 54648
ac y_ 54647
z ▯ 54636
end points</w> 54636
recur sive</w> 54627
ARIS ING</w> 54626
Me as 54623
cha in 54622
Cisco -IO 54618
L Y</w> 54610
Cisco-IO S- 54610
an onymo 54609
RE S</w> 54607
suppor ted_ 54605
b 2 54593
call back_ 54592
WI SE</w> 54586
check point</w> 54580
order s</w> 54575
: 10 54563
spar k</w> 54563
S Con 54562
h and</w> 54557
WHE THER</w> 54549
i ce_ 54536
edi t 54514
db_ table</w> 54512
Syn tax 54496
n y 54482
can cel 54467
Chec ks</w> 54464
r ase</w> 54460
expec ted▯ 54441
pa d_ 54436
named tuple</w> 54431
sib le_ 54420
bu ffer 54418
addition al_ 54403
e y 54402
De f</w> 54388
ho u 54385
rx n</w> 54382
192.16 8. 54377
cap acity</w> 54367
ho ur 54360
En able</w> 54349
proble ms</w> 54325
t c</w> 54317
t an 54314
MA X</w> 54312
gen e</w> 54305
sal t</w> 54303
/ home 54296
A rea</w> 54293
resol ve_ 54293
i . 54289
stand ard_ 54283
create ▯ 54282
re start</w> 54271
D H 54265
expo nen 54264
EXP RESS</w> 54255
E m 54254
Dim en 54248
is ol 54241
def er</w> 54230
execu ted</w> 54217
rg b</w> 54217
As sign 54200
Fix ed 54178
{} / 54171
de ca 54151
Li ste 54147
p m 54145
te am_ 54145
v y</w> 54144
\s + 54140
ne ls</w> 54136
fr action</w> 54136
Pro ble 54128
XR - 54121
s_ and_ 54120
Sh ort 54117
lib s</w> 54111
process or 54100
de g</w> 54094
pro files</w> 54094
recei ve</w> 54082
E G 54080
lo ye 54072
Bu ffer 54068
Cisco-IOS- XR- 54060
Matri x 54050
bit r 54036
Exten sion 54029
v r</w> 54024
man dat 54017
_ value</w> 54015
▯▯ < 54009
Po wer 54002
Al ter 54002
comp ress</w> 53990
b 8 53985
r s 53974
den se_ 53973
fac e_ 53968
url_ for</w> 53964
who se</w> 53961
Calcul ate</w> 53938
Att r</w> 53929
suppor ts</w> 53924
proper ly</w> 53920
Dy nam 53914
execu tion_ 53905
88 59 53889
id x_ 53850
uni que 53841
dia g</w> 53841
pro d</w> 53818
replace ment</w> 53784
/ g 53783
mas k 53781
>〖lf〗▯▯▯▯▯▯▯▯ < 53771
st ar</w> 53740
list_ of_ 53737
qui et</w> 53735
R ate 53725
\u4e 1c 53718
Rege x</w> 53714
_ read_ 53710
u tions</w> 53702
D U 53701
Error s</w> 53682
ta x_ 53681
abstract method</w> 53659
ST RI 53653
perio d_ 53651
Sh a 53647
extr act 53640
AB LE</w> 53638
f p 53623
re ally</w> 53623
\0 \0 53619
P y</w> 53612
ech o</w> 53608
) ( 53601
candi dates</w> 53585
TR U 53565
expres sions</w> 53564
u ' 53555
G it 53549
K ▯ 53540
COL OR 53522
cop ied</w> 53516
div ▯ 53494
n ative_ 53480
generi c_ 53479
Ac cept</w> 53462
datab ase_ 53454
g id</w> 53443
C ro 53436
concaten ate</w> 53428
l . 53418
um p</w> 53401
projec tion</w> 53392
M ON 53388
if ▯( 53382
ver tical</w> 53363
medi an</w> 53350
SIT E_ 53350
dis clai 53349
co up 53342
trans actions</w> 53340
p un 53326
ci _ 53320
migr ate_ 53315
k s 53310
Re action 53306
L en</w> 53305
Ag ent 53295
wr on 53289
_ size</w> 53286
fo cus</w> 53284
sc r 53274
5. 0 53253
uti lity</w> 53250
ma y▯ 53247
dash board</w> 53246
r ather</w> 53244
specifi ed▯ 53238
N ull 53237
de al</w> 53219
marker_ set</w> 53211
dist utils</w> 53197
corre ct_ 53178
Ar chi 53157
A t</w> 53140
repl y_ 53140
assertNot Equal</w> 53133
y ou 53119
1 a 53115
RE MO 53112
_ validate_ 53104
gue st</w> 53104
app ear 53102
Scri pt 53092
Us age 53061
forwar d_ 53053
E valu 53046
new_ marker_set</w> 53046
orm[' auth. 53034
ad d▯ 53028
partic ip 53025
Ac cep 53019
Sup por 53016
De p 53001
jav ascri 52977
e 1</w> 52973
loc ked</w> 52970
google ap 52948
filen ame_ 52942
sp ri 52936
candi date</w> 52936
% 20 52930
wa ve 52927
0x 0</w> 52915
Par t</w> 52900
data store</w> 52895
: / 52882
Z ero 52878
col li 52877
acke d</w> 52873
sign al_ 52867
si ck 52861
Pr int 52860
all y▯ 52847
Net Device</w> 52832
authentic ated</w> 52831
po ly</w> 52825
ASS WORD</w> 52821
senti nel</w> 52808
OTHER WISE</w> 52791
) ;</w> 52790
de coder</w> 52786
l n 52785
format ted</w> 52766
ra d</w> 52762
ES S_ 52761
Expec ted▯ 52753
gradi ents</w> 52746
up grade</w> 52734
scen ario</w> 52723
AT U 52720
LEF T</w> 52705
Call able</w> 52695
Langu age</w> 52687
packe d</w> 52683
Mac 48 52678
cro ss_ 52651
Le ft</w> 52644
HO LD 52624
de velop 52623
me m_ 52617
horizont al 52617
spac ing</w> 52616
\x18 \x0 52604
I T</w> 52599
sub mission</w> 52590
o b</w> 52583
ation . 52560
TE D_ 52557
file system</w> 52547
SERV ER_ 52546
/ B 52542
byte s_ 52514
app_ label</w> 52512
G rid</w> 52508
T ORT</w> 52493
P layer</w> 52491
ta ken</w> 52481
AC TION</w> 52475
return code</w> 52468
handl er_ 52463
un less</w> 52462
new line</w> 52455
ub e</w> 52434
4 11 52420
Excep tion 52392
TE ST</w> 52379
N ON 52375
fla g_ 52362
▯ const▯&</w> 52361
lib / 52344
AM _ 52333
Ex peri 52324
utili ties</w> 52300
transf er</w> 52283
F UNC 52273
as p 52271
d x 52265
fun cs</w> 52265
requi red 52259
LE D_ 52253
G I</w> 52246
/dev / 52244
redi s</w> 52237
ag ents</w> 52233
data_ type</w> 52223
id > 52208
7 ▯ 52207
neighb ors</w> 52207
read able</w> 52204
Uni code</w> 52156
up ▯ 52133
archi ve_ 52130
' ] 52113
22 22 52107
l h 52097
i18 n</w> 52097
li ve</w> 52079
integ ers</w> 52077
\u6 c5f 52070
e . 52069
assert_called_ with</w> 52061
el li 52060
~ ~ 52049
r m</w> 52046
c 0 52024
dynam ic</w> 52021
time out_ 52012
previou s 52007
fa kes</w> 52001
name d_ 51988
Vi si 51974
p db</w> 51948
_ test 51939
spectr um</w> 51939
h its</w> 51923
be st 51914
z h 51903
Aut h</w> 51897
- 8 51896
swit ch_ 51893
provi sion 51889
a di 51881
mock_ get_ 51876
let on</w> 51871
registr ation</w> 51858
fo ob 51849
- -</w> 51847
cali br 51847
list ed</w> 51844
boun ded. 51839
n r</w> 51830
fini sh 51819
2 D 51816
client _id</w> 51811
sentry.db.models.fields. bounded. 51810
sentry.db.models.fields.bounded. Bounded 51810
rel u</w> 51805
Pass word</w> 51796
bi g</w> 51793
et ▯ 51784
rever sed</w> 51784
iri s</w> 51772
Ev ents</w> 51771
C S</w> 51766
char t</w> 51764
le - 51752
ou ter</w> 51738
place_ marker</w> 51736
CONTRIBU TORS</w> 51725
le s 51717
ES P 51706
Size Policy</w> 51695
extr ac 51692
e k</w> 51687
pol ling_ 51680
conver t 51668
M ut 51664
DOW N</w> 51652
s g</w> 51651
en o 51638
hand led</w> 51638
ge ▯ 51636
7 , 51627
prop os 51627
separ ate</w> 51624
Z ip 51621
si m_ 51617
am o</w> 51611
d p 51597
f ec 51594
I F</w> 51586
n c 51585
set Value</w> 51582
MUL TI 51577
- 1. 51568
Con v 51565
e g</w> 51550
str ip_ 51548
B C 51538
\xff \xff 51533
get_ user_ 51521
output ▯ 51515
succe ss_ 51515
Fun c</w> 51502
dra ft</w> 51498
af ter▯ 51493
Re al 51479
parser _ 51478
adv ance 51476
j ac 51475
\u 2 51437
Co re 51420
T or 51417
Name space</w> 51411
serializ ation</w> 51408
termin al</w> 51402
: 〖lf〗▯▯▯▯ 51386
top ic 51383
ne ss_ 51381
CAS CAD 51375
normaliz ed</w> 51373
ta ge</w> 51372
ne are 51370
b 2</w> 51368
ct or_ 51368
equival ent</w> 51366
_P AR 51365
fac ts</w> 51354
ff t</w> 51339
disclai mer</w> 51332
s ame_ 51326
destin ation_ 51313
AR G 51307
pre view</w> 51286
/ (?P< 51268
gr pc_ 51260
Ch un 51258
LOG GER</w> 51249
invo ice</w> 51247
( x 51232
In form 51230
te ll</w> 51216
by_ id</w> 51212
app e</w> 51209
\2 \2 51208
▯▯▯▯▯▯▯▯ ▯▯▯▯ 51202
Char ac 51202
cap ture</w> 51196
vali d 51193
Comp ute 51180
l un 51178
Pre fix 51173
b ▯ 51172
flas h</w> 51169
li mi 51153
enum _ 51152
co eff 51141
8 , 51129
Vali d</w> 51126
\x1b [ 51113
Li nes</w> 51107
de lay 51102
get text_ 51084
secre t_ 51084
De pend 51080
date time_ 51076
o g 51074
_ messages</w> 51065
Mem ory 51065
change d_ 51063
sty le_ 51050
t 0</w> 51045
param s_ 51041
line ar_ 51040
Comp i 51038
NE T 51035
A DER</w> 51026
Scre en</w> 51000
coe ff</w> 50990
Per son 50975
d 2 50970
modifi ed_ 50965
FI C 50955
AA A 50954
T ool</w> 50939
CASCAD E</w> 50921
: \n 50913
thoug h</w> 50903
tempor ary</w> 50900
ho ok 50894
log o</w> 50894
fro zen 50886
flo or</w> 50882
g a_ 50872
%H :%M:% 50862
a f</w> 50857
po wer 50849
gr ad 50842
h er</w> 50836
w as 50834
filter_ by</w> 50824
s_ dir</w> 50816
addres s 50812
Le g 50807
Ap i</w> 50801
re view</w> 50786
U P_ 50785
U ns 50749
thri ft_ 50748
off set 50738
SOUR CE_ 50729
L u 50706
te ch 50694
/tmp / 50689
p ing 50688
G O 50685
; 〖lf〗▯▯▯▯ 50676
FA I 50666
pri ce_ 50663
me t</w> 50649
tor nado</w> 50648
sqlite 3</w> 50646
polic ies</w> 50641
" ] 50635
no un 50632
pas s_ 50628
get_ object</w> 50625
R ight</w> 50624
aaaa aaaa 50622
IM AGE_ 50616
assum e</w> 50610
who le</w> 50603
p ing▯ 50599
C ell</w> 50597
ent ly</w> 50587
RE GI 50575
inver se</w> 50572
De sc</w> 50566
_ Get 50553
- 13 50552
STR UC 50549
test_ util</w> 50541
dri ve</w> 50531
activ ity_ 50528
ax is 50517
output_ file</w> 50513
com posi 50485
hoo d</w> 50484
c a_ 50483
accep ted</w> 50480
on al</w> 50479
recei ver</w> 50452
m iddleware</w> 50447
BAS E</w> 50424
medi a 50422
dele ted_ 50418
ver tex</w> 50411
D C 50384
perio ds</w> 50384
rou te 50379
provi ders</w> 50351
w on</w> 50339
AB C 50335
th at 50328
| =</w> 50309
AT E_ 50309
gener ate 50306
al bum</w> 50305
O f</w> 50304
Posi tion 50301
F B 50294
so ck 50282
as semb 50276
S can 50275
D a 50272
initializ e_ 50261
LAN GU 50259
En coder</w> 50257
IN C 50252
pre diction 50249
wee k</w> 50246
〖lf〗 # 50244
Stand ard 50238
ar d▯ 50234
mo v 50229
in - 50225
zero _ 50219
Produ ct</w> 50188
99 9</w> 50184
M L 50180
toler ance</w> 50175
hash es</w> 50147
con n 50144
E mail</w> 50142
er y</w> 50141
data - 50140
sig n_ 50132
f inger 50114
Ter min 50111
u ne 50088
al . 50085
Clean up</w> 50067
oper ators</w> 50065
: //</w> 50045
U _ 50043
Error :▯ 50032
Af ter</w> 50022
) )</w> 50019
200 9</w> 50018
my sql</w> 50017
student _ 50017
vi le 50014
produ ces</w> 50013
debu gg 50009
f ast</w> 50008
comp ression</w> 50006
FOR MAT 50005
f g</w> 50001
open stack</w> 49996
wr aps</w> 49995
n ative</w> 49991
TO ▯ 49977
JEC T</w> 49973
pe a 49955
in c</w> 49949
add on 49943
O c 49938
https:// github.com/ 49931
sch edul 49922
gue ss</w> 49917
whi le▯ 49908
pre fix_ 49897
J i 49896
In vo 49894
bal ance 49890
%s </ 49880
some ▯ 49879
d ing_ 49872
xbm c</w> 49868
ing▯ for▯ 49853
h df 49843
[ @ 49840
beg in_ 49839
com es</w> 49820
n n 49815
F re 49791
cat alog 49786
_ do_ 49783
engi ne 49781
ms gs</w> 49778
co _ 49777
state ments</w> 49772
al _id</w> 49760
pre c</w> 49735
fir st▯ 49717
confir m</w> 49715
C md</w> 49706
me ter</w> 49698
4 10 49687
ma r</w> 49687
t al 49682
__ get_ 49674
Tran si 49666
2 14 49664
an o 49653
ac cumul 49650
ig n_ 49637
cre ds</w> 49636
li ve_ 49634
inf os</w> 49627
cour ses</w> 49627
cpu s</w> 49621
F C 49619
P lan 49618
ge d 49613
u re▯ 49604
ma gic</w> 49598
20 18 49588
pl y 49586
success ful 49571
Colo ur 49562
res . 49550
f at 49544
cin der</w> 49519
im al 49498
Regi ster</w> 49496
prog ress_ 49494
stan ti 49488
######## ######## 49486
s sh 49481
prefix es</w> 49473
modu le▯ 49468
par ty</w> 49462
current ▯ 49446
_ run_ 49440
re pos</w> 49427
ation s 49417
Stub Out 49409
{2 } 49407
L ex 49398
assig n_ 49391
edi table</w> 49390
expec t 49389
run ▯ 49389
================ ================ 49387
di t</w> 49379
sub net_ 49349
OPTI ONS</w> 49347
P K 49346
〖lf〗▯▯▯▯▯▯▯▯▯▯▯▯▯▯▯▯▯▯▯▯▯▯▯▯ ▯▯▯▯ 49341
ati ve▯ 49339
6 55 49326
me sh 49310
. xml</w> 49302
50 9 49298
Ig no 49296
bi t_ 49290
mod ul 49288
In valid</w> 49278
g l</w> 49268
rando m 49264
fr appe</w> 49260
zilla / 49253
disc us 49248
vocab ul 49244
▯ %( 49243
1 D</w> 49227
v c 49227
Exist s</w> 49227
assertAll Close</w> 49225
n 't▯ 49221
error_ message</w> 49221
- 12 49204
mail _ 49200
T V 49193
execut or</w> 49179
X Y 49158
liter al</w> 49158
node _id</w> 49156
a-z A-Z 49150
fetch all</w> 49149
fe e</w> 49148
content - 49148
o auth_ 49147
explicit ly</w> 49144
E i 49133
- 10 49128
i 1</w> 49123
o auth 49111
L U 49098
\x01 ( 49075
Gener ated</w> 49072
add r_ 49071
D atum</w> 49046
quo ta</w> 49043
FI L 49041
name = 49030
full name</w> 49020
sub scribe</w> 49019
\u 7 49010
/ 000 49008
ent er_ 48999
TR A 48991
de mo 48983
dial ect</w> 48979
D J 48978
security_ group_ 48972
web site</w> 48964
li k 48962
CLAS S</w> 48962
flat te 48953
po w</w> 48935
assertNot In</w> 48909
_ s 48896
min or</w> 48887
plur al</w> 48873
12 5</w> 48866
_ log</w> 48853
C ri 48845
l ng</w> 48838
p rag 48838
Engi ne 48838
id ,▯ 48825
"▯ name=" 48825
With Mock</w> 48824
At temp 48811
ip edi 48810
te l 48808
EV T_ 48808
retur ning</w> 48782
get_ object_ 48782
M in</w> 48777
Ch a 48777
3 b 48769
36 00</w> 48768
iz ed</w> 48760
FF FF 48752
out side</w> 48751
T im 48743
SimpleRef Count</w> 48735
StubOut WithMock</w> 48722
r f</w> 48709
repor ts</w> 48699
reque sted_ 48695
S W 48692
ver s 48672
befo re▯ 48672
ph p 48669
j ar</w> 48666
/api / 48661
acqui re</w> 48659
\u5d de 48659
mir ror 48656
log out</w> 48644
U se▯ 48642
back ward</w> 48640
TO K 48640
play list</w> 48586
HOLD ERS</w> 48584
s▯ with▯ 48581
ri c</w> 48547
cut s</w> 48543
mo lecu 48528
enum s</w> 48527
imple ment</w> 48527
DB _ 48503
U til</w> 48496
4 b 48485
Log in 48477
test dir</w> 48475
Mo ve</w> 48464
HO ST 48455
MOD E</w> 48450
Key board 48442
yp o 48436
[ " 48434
Ar ti 48430
UN KNOW 48418
fol ders</w> 48409
transp ort_ 48405
Child ren</w> 48404
s Error</w> 48399
d ll</w> 48396
y 0</w> 48385
type s_ 48385
datetime. datetime. 48385
de code 48384
h w 48375
N D 48373
decim al_ 48372
F S</w> 48364
ab b 48357
g ap 48350
Addi tional</w> 48343
Exec ut 48339
v o</w> 48336
f a</w> 48334
libvir t_ 48333
CH O 48329
rh o</w> 48326
featu re 48323
$ ( 48318
3 A 48317
Q _ 48314
api_ key</w> 48290
pe er 48281
langu age_ 48273
sco re 48266
%s▯ %s</w> 48265
o - 48250
st age 48247
Exp r</w> 48247
org . 48240
3 1 48239
d w 48238
@ example.com</w> 48236
vo id_ 48231
V 2</w> 48228
iter_ _</w> 48212
Pl ace 48206
Co ordin 48197
L at 48196
Defini tion</w> 48193
gre ater</w> 48190
So me</w> 48190
acro ss</w> 48185
v t 48184
d am 48178
roo ts</w> 48164
custo mer</w> 48160
0. 00000000 48158
An onymo 48156
p h</w> 48151
Bytes IO</w> 48148
Si zer</w> 48143
enou gh</w> 48140
b 64 48129
argum ent_ 48121
ev t</w> 48119
Fir st 48118
xbm c 48113
P ORT</w> 48100
chun k 48089
un ti 48070
Multi ple 48065
tx t 48058
aff ec 48044
Classi fier</w> 48040
b log</w> 48035
deprec ated_ 48029
AT TR 48026
\u0 43 48019
end_ time</w> 48018
Look up 48018
Att ach 48009
group by</w> 48006
matri ces</w> 48003
E ff 47998
ti le 47991
colo ur</w> 47976
nump y_ 47973
list▯ of▯ 47947
log ical_ 47945
ti es 47941
man age</w> 47935
questi on 47932
b z 47912
Orig in 47901
end point_ 47899
v lan</w> 47898
datetime.datetime. now</w> 47898
__ iter__</w> 47892
formul a</w> 47889
entr opy</w> 47882
id x 47881
di m_ 47878
Spec tr 47871
_ Meta 47866
b p</w> 47858
le m 47849
symmetri cal</w> 47845
frame_ equal</w> 47838
e th 47829
C ase</w> 47827
pr _ 47818
d l</w> 47816
0x 2 47813
home _ 47801
image s/ 47786
se cs</w> 47771
STAR T</w> 47770
C hoo 47753
Le ar 47752
I ds</w> 47748
н и 47746
hd r</w> 47736
8 f 47717
server ▯ 47712
PU B 47710
pass wd</w> 47708
s ame▯ 47702
se g</w> 47692
с т 47674
entr y 47669
ac c 47659
nov a. 47646
l hs</w> 47639
B ran 47632
B A 47628
foo t 47610
s :</w> 47593
fin ite</w> 47593
_ n 47592
moun t 47589
Re distributions</w> 47579
EX T</w> 47570
d r</w> 47561
25 6 47554
qu ick 47537
Di re 47530
tiv ity</w> 47525
v 1_ 47523
on ly 47522
z one_ 47518
c ss_ 47514
* / 47511
el ast 47511
resi du 47505
st ick 47498
aliz ation</w> 47496
den o 47493
version ▯ 47491
a ,▯ 47485
trig ge 47476
> = 47472
1234567 89 47468
li ve 47456
100 .0</w> 47456
stru ct_ 47434
[0 m 47416
su it 47383
C le 47379
bat ches</w> 47369
veloc ity</w> 47362
"▯ / 47350
prob ably</w> 47346
ssi an</w> 47345
_ x</w> 47344
ence ▯ 47336
sli ces</w> 47327
contro ls</w> 47326
p time</w> 47323
co er 47319
Pack age</w> 47305
4 d 47299
ag ree 47299
e+ 00</w> 47296
var type</w> 47268
' ), 47265
ou ter_ 47263
Al ph 47263
LENG TH</w> 47255
WWWWWWWWWWWWWWWW WWWWWWWWWWWWWWWW 47254
goog le_ 47251
By tes</w> 47241
s To 47232
pr incip 47226
cp p</w> 47217
T X 47203
metho ds_ 47190
25 5 47150
type_ name</w> 47139
fol der_ 47133
</ p 47120
righ t▯ 47107
200 8</w> 47096
ex change</w> 47094
ne ur 47088
L AB 47084
slo ts</w> 47079
comparis on</w> 47079
accep t_ 47070
ATI ONS</w> 47068
20 4</w> 47067
we bob</w> 47065
.g z</w> 47060
assert_ frame_equal</w> 47055
r df 47054
pul l</w> 47051
con fli 47047
rol l_ 47042
buil ding</w> 47021
impor ted</w> 47017
l en_ 47006
" /> 46992
inste ad 46990
mor ph 46989
_de serialize</w> 46977
B al 46973
lear ning</w> 46969
ope ner 46962
moun t_ 46958
job _id</w> 46915
attach _ 46904
sty les</w> 46894
tre es</w> 46862
c id</w> 46814
ma v 46801
he ight 46794
mil li 46786
par a</w> 46783
mis sion_ 46783
N ext</w> 46780
product_ id</w> 46778
O FF 46765
12 8 46761
S um</w> 46747
- 11 46746
Stru cture</w> 46736
Dat ase 46735
proto buf</w> 46727
1. 1. 46724
M ob 46720
bt n</w> 46706
dis connect</w> 46702
bucke t_ 46688
arch ite 46678
cha in_ 46673
e m</w> 46658
Mon go 46651
P la 46648
ts_ _</w> 46645
Roo t 46642
materi al</w> 46623
multi processing</w> 46617
j k 46607
%s .</w> 46605
ac ing</w> 46602
Qgs W 46598
h ints</w> 46592
credenti al 46590
a i</w> 46586
as set 46581
Bo und 46575
ti le_ 46555
histo gram</w> 46554
] ,▯ 46552
l / 46550
v ent</w> 46538
STATU S</w> 46532
invent ory</w> 46520
GU I</w> 46510
por t_id</w> 46508
peop le</w> 46497
de cryp 46494
indicat ing</w> 46489
mu ch</w> 46445
consi de 46443
reque st▯ 46439
https:// www. 46439
sto ck_ 46433
al / 46407
deploy ment</w> 46406
c 9 46396
Mo ve 46387
un ity</w> 46374
log y</w> 46373
lon ger</w> 46361
ID ▯ 46361
email s</w> 46361
C PU 46347
Do main 46337
Li b</w> 46330
sha 256</w> 46324
k m</w> 46320
_ write_ 46318
Constan t</w> 46307
criteri a</w> 46297
bran ch_ 46293
e 2</w> 46291
st ics</w> 46286
E p 46285
fr ont 46282
IN ▯ 46275
poly no 46273
< < 46258
mon go</w> 46246
pr inter</w> 46245
la ▯ 46236
Tool s</w> 46233
b . 46221
S G 46216
▯▯▯▯▯▯▯▯ ▯▯ 46199
4 / 46189
tic ke 46185
backgro und 46181
id . 46175
30 2</w> 46160
Uplo ad 46148
call_ count</w> 46146
must▯be▯ a▯ 46143
B D 46133
2. 1</w> 46133
CONT RO 46132
add r 46125
l st 46120
_Meta Info 46118
l p</w> 46114
temp dir</w> 46113
d an 46092
net / 46092
s f</w> 46088
De fine</w> 46087
Id x</w> 46077
meas ure</w> 46073
ou ch 46055
fake - 46055
bucke ts</w> 46052
s w</w> 46048
excep tion 46048
f e</w> 46045
M P</w> 46042
jav a</w> 46041
W C</w> 46040
quo tes</w> 46038
numer ic_ 46030
po inter 46019
percent age</w> 46019
Vari ables</w> 46003
transi tion</w> 46000
s By 45995
mock_ calls</w> 45990
di s</w> 45989
vi sor 45984
co res</w> 45983
e a 45980
QU ER 45971
d ,▯ 45949
check point_ 45947
neut r 45944
cli _ 45926
charac ter 45926
@ @ 45911
LI ST_ 45911
parti tion_ 45909
z y 45905
Ob j 45892
R C 45876
auto_ now_ 45868
dl g</w> 45864
inher it 45842
u i_ 45835
c n</w> 45835
Objec ts</w> 45832
Entit y 45831
z m 45829
li c</w> 45823
fu zz 45805
} }</w> 45803
Hel p 45803
wh o</w> 45793
san iti 45793
\0 33 45790
byte array</w> 45788
thumbn ail 45787
datat ype</w> 45782
MA X 45774
fact ors</w> 45773
qu ad 45772
E nerg 45769
test_ session</w> 45757
ident ity_ 45752
Th res 45750
gr pc</w> 45750
// // 45750
pro g</w> 45736
proble m_ 45729
ext ent</w> 45727
db instance</w> 45726
ati ves</w> 45702
Compone n 45670
pro to_ 45659
F ull 45655
p t_ 45654
ar bitr 45653
be ard</w> 45646
R T 45638
Retur n 45634
st d_ 45618
Jo h 45607
_ on_ 45601
Docum entation</w> 45600
M AS 45595
SE QU 45591
n y</w> 45585
inter section</w> 45583
auto_now_ add</w> 45575
1 F 45566
back wards</w> 45558
simil ar</w> 45556
ac _ 45550
scali ng</w> 45549
note book</w> 45543
ele v 45538
po sts</w> 45536
emp ty▯ 45503
k u 45499
ans wers</w> 45490
jo in 45486
scen ari 45482
> \n 45481
E stimat 45479
T ic 45477
Wa it</w> 45474
flav or 45470
thrift_ spec</w> 45469
resp ec 45462
parti al_ 45461
ROO T_ 45456
Par t 45446
UT E</w> 45438
communic ate</w> 45434
abili ty 45426
suppor ted▯ 45418
〖lf〗▯▯▯▯▯▯ < 45411
Bad Request</w> 45398
_ translate</w> 45397
z ones</w> 45395
Q Label</w> 45394
com m</w> 45385
mapp ed</w> 45372
ad ds</w> 45368
o ci 45361
django.db.models.fields.related. ManyToManyField</w> 45359
IP _ 45343
12 3 45341
loa ded_ 45335
0, 0, 45333
d t_ 45324
str ptime</w> 45322
cir cu 45322
track s</w> 45318
boun d_ 45314
jav a_ 45284
TH E 45282
d ns 45278
lo st</w> 45277
1 〖lf〗 45269
er / 45258
laun ch 45256
ran dn</w> 45252
ven i 45247
F OL 45240
work ing_ 45239
9 ▯ 45232
test_ data</w> 45232
ar row</w> 45221
classi fication</w> 45205
AS E</w> 45204
in vi 45192
dynam ic_ 45184
unsig ned</w> 45183
util s. 45175
0. 6</w> 45172
sto res</w> 45170
modi fication</w> 45166
COD E_ 45156
set Level</w> 45151
pend ing_ 45150
Th at</w> 45149
p ause</w> 45144
[ - 45142
rec ent</w> 45142
issu e_ 45140
T R</w> 45138
pyx b</w> 45118
tw are 45116
s wap</w> 45113
g zip</w> 45101
Curr ent</w> 45094
The n</w> 45090
d g</w> 45064
Ax is</w> 45058
Rele ase 45045
Reaction Datum</w> 45042
ver tex 45038
i er</w> 45020
st aff 45020
find_ element_ 45014
dum my 45014
ver b</w> 45009
b old</w> 44972
trans action 44970
h 5 44962
R U 44959
Dis k 44959
V OL 44957
resol ver</w> 44957
li d</w> 44942
bu ff</w> 44938
n l</w> 44932
sc _ 44929
LE VE 44928
add_ ReactionDatum</w> 44924
fo reign 44923
SE S</w> 44900
c y</w> 44895
seg ment_ 44886
su do</w> 44871
0x 7 44864
le f 44862
tw o_ 44860
b c</w> 44858
scrip t▯ 44851
p df 44849
secur e</w> 44829
poly gon</w> 44815
Mo zilla/ 44813
Ver ifi 44808
value s_ 44808
id _</w> 44802
Li mit</w> 44796
fil led</w> 44788
12 7</w> 44786
wid get_ 44778
Boo k 44775
Ta b</w> 44772
get_ shape</w> 44757
con t</w> 44745
a e</w> 44726
pay ment_ 44714
1 j</w> 44712
Random Variable</w> 44708
Trans form 44698
over lap</w> 44691
Fo und</w> 44689
〖tab〗〖tab〗 〖tab〗 44682
/ =</w> 44679
low er_ 44674
20 19 44668
v / 44666
! =▯ 44661
T k 44660
Fun ctions</w> 44660
in h 44648
file obj</w> 44647
</ div 44638
indic ator</w> 44634
materi als</w> 44634
real path</w> 44612
M iss 44603
ST R</w> 44597
/ < 44596
bt n 44586
c raw 44573
Ren der 44572
b all</w> 44566
S F 44563
smo oth 44559
per mut 44557
AR _ 44541
/home / 44538
write Field 44532
r ate 44513
FI X 44511
flow s</w> 44505
u int</w> 44492
trigg er_ 44492
Configur ation 44485
test s/ 44484
cap it 44480
oper ation 44466
with ▯the▯ 44466
k a 44465
Iter ation</w> 44462
plan e</w> 44441
10 2</w> 44429
plat form_ 44410
ance st 44405
con s 44386
no se</w> 44383
filte red_ 44382
ang le 44379
ca b</w> 44378
se cu 44372
6 f 44366
Se par 44363
F ont 44348
Setting s 44348
CONFI G 44341
Up dat 44328
tool bar</w> 44321
r i</w> 44311
co h 44309
e du 44283
S B 44283
_ url</w> 44275
T w 44271
th ing 44270
extr as</w> 44267
D L 44258
__ new_ 44258
out_ file</w> 44249
loc ks</w> 44240
googleap is 44240
La Te 44231
exp and 44227
in v_ 44226
cal c</w> 44224
s y</w> 44223
wi z 44222
; \n</w> 44220
l b</w> 44214
C Y 44201
index er</w> 44198
popul ation</w> 44198
proper ty 44195
f er</w> 44194
evalu ation</w> 44191
15 . 44189
AN D_ 44174
HE AD</w> 44173
T IT 44167
INSER T▯ 44165
User ']</w> 44159
al e</w> 44149
0 : 44136
predic ate</w> 44125
sub type</w> 44114
to list</w> 44110
shif t 44105
Re play 44103
Hoo k</w> 44096
Compone nt 44084
send ing</w> 44079
cri tical</w> 44076
prag ma</w> 44065
serializ ed</w> 44062
fall back</w> 44061
P I 44056
Imp l</w> 44048
Tempor ary 44046
c_ void_ 44045
questi ons</w> 44042
recipi ent</w> 44042
sh i 44021
Float Field</w> 44018
[ 1 44016
config ure_ 44013
ch at 44006
Sin ce</w> 44006
Com ment 44004
distan ces</w> 44002
ch an</w> 43996
tex tu 43995
sv n</w> 43995
Chec ked</w> 43987
Ch ar</w> 43986
SCon s</w> 43981
super user</w> 43979
AU TO 43969
s▯ a▯ 43964
sick beard</w> 43963
C LO 43962
di m 43959
ple ase</w> 43957
\u a 43947
ro bot</w> 43938
Par ent 43938
] { 43936
er o</w> 43930
K ind</w> 43928
Trans action</w> 43926
Meta data 43926
Mach ine 43924
in k</w> 43922
2 34 43903
performan ce</w> 43899
NU M_ 43896
ne st</w> 43890
explic it</w> 43890
Mu st</w> 43887
4 .</w> 43878
fa c</w> 43877
mp ath</w> 43858
ma gn 43857
x 2 43855
hal f</w> 43837
f w 43822
b re 43815
; 〖lf〗▯▯▯▯▯▯▯▯ 43813
sha 1</w> 43805
zip file</w> 43805
comple tion</w> 43801
); 〖lf〗 43793
st a 43783
Lab els</w> 43783
66 66 43779
spli ts</w> 43766
( (' 43761
Re p 43759
ar m</w> 43757
mo ment 43757
gen o 43756
walle t</w> 43737
mime type</w> 43724
fai led_ 43718
dat as 43715
load ▯ 43711
field s_ 43704
GEN ER 43696
in ner 43694
pr in 43683
ligh t_ 43679
AT _ 43677
B IT 43676
H S 43676
mo vie 43675
cf g_ 43674
0 8</w> 43667
data_ format</w> 43666
car d_ 43660
permis sion_ 43650
U nexpec 43645
DAT A 43643
{0 : 43641
el lip 43639
Ctr l</w> 43638
< p 43622
Opti miz 43621
key . 43617
cont ribu 43616
contribut ors</w> 43604
inter active</w> 43599
Ple ase</w> 43597
direct ory 43588
%s %s</w> 43572
col lap 43560
In stru 43557
fra c</w> 43557
ste d▯ 43543
pool s</w> 43533
T ech 43532
tt l</w> 43525
Can v 43524
meta_ info</w> 43522
se m 43519
ap prox 43509
c_void_ p</w> 43501
sy m_ 43484
Ap pro 43473
Featu res</w> 43473
norm al_ 43471
S AMP 43462
py lab</w> 43458
con s</w> 43452
_ h 43451
g ar 43448
w atch</w> 43447
in line 43421
langu age 43416
schedu le_ 43408
'), )</w> 43402
audi o_ 43399
go al</w> 43398
shif t_ 43390
g b 43376
l p 43376
in place</w> 43373
restric tion</w> 43360
Publi sh 43355
zoo m</w> 43353
roll back</w> 43347
▯ on▯ 43342
H H 43338
ga in</w> 43327
FE ATU 43316
device_ name</w> 43315
pri ce 43302
C la 43297
Sh if 43295
cir cle</w> 43289
app ear</w> 43286
has▯ been▯ 43284
S or 43281
, - 43281
F ig 43276
Flas k</w> 43267
al ler</w> 43259
LO AD_ 43259
ro _ 43256
network_ info</w> 43250
spec ify▯ 43249
manag er_ 43239
movi e</w> 43232
Fal se 43226
Dec imal 43218
requi res_ 43217
r v 43215
de cre 43212
ro und 43210
some _ 43208
_ handle_ 43205
variable_ scope</w> 43205
__new_ _</w> 43202
g t_ 43197
tran s_ 43194
AAAAAAAA AAAAAAAA 43188
bu f_ 43184
sto ck 43182
HttpResponse Redirect</w> 43182
n m</w> 43175
as sets</w> 43171
name } 43170
AT ED</w> 43164
SH O 43148
sub mit_ 43147
hav ing</w> 43144
c mp 43143
vi sion 43141
ad a</w> 43132
D uplic 43130
MS G_ 43128
ti o 43126
exec ute 43122
Colour ( 43115
ph p</w> 43111
* aa</w> 43107
get_ default_ 43106
add on_ 43106
eig en 43098
g pu 43097
Sy mbol 43091
P lot 43088
set Enabled</w> 43085
inter vals</w> 43078
sen Colour( 43068
V is 43065
AS T</w> 43061
el ▯ 43056
authentic ate</w> 43052
MOD E_ 43029
miss ing▯ 43012
. 1</w> 43004
mo use 43002
4 c 43001
seri al_ 42998
cannot▯ be▯ 42975
_ find_ 42968
line num</w> 42968
De fer 42968
vol _ 42967
ex c 42959
migr ation_ 42958
code c</w> 42956
stat _ 42945
z / 42933
i di 42931
fur ther</w> 42931
e s/ 42923
cer tain</w> 42923
fa r</w> 42921
Sele ction 42913
B Y</w> 42909
r r 42908
__ module_ 42903
sh all</w> 42900
boot str 42900
Categ ory 42878
function ▯ 42869
ep he 42861
POIN T</w> 42836
lo sses</w> 42831
WS GI</w> 42827
le ave</w> 42826
pri or 42818
hex digest</w> 42817
jo int</w> 42813
SS L 42808
en semb 42806
CHEC K 42802
au x</w> 42797
ab s_ 42794
w t</w> 42778
x m 42775
opt parse</w> 42770
next_ link</w> 42768
qu ar 42760
by te_ 42759
atu re 42758
du ser</w> 42746
200 9 42744
r ub 42743
gr _ 42733
5 b 42729
N i 42724
ma s</w> 42719
Acce ss</w> 42702
reg ression</w> 42691
\u5dde \u5e02</w> 42686
u o 42676
opti mize</w> 42674
▯▯▯▯▯▯▯▯ ▯ 42666
x l 42655
le af 42652
sc roll 42647
log ged</w> 42636
y lim</w> 42635
frozen set</w> 42635
hierarch y</w> 42634
' ) 42627
. csv</w> 42624
interpol ation</w> 42618
h a</w> 42610
,▯ Gu 42607
CO LO 42606
url encode</w> 42590
Regi on</w> 42572
_ lib</w> 42566
aggreg ate_ 42566
assert Contains</w> 42558
size Policy</w> 42550
sm all 42542
p ip</w> 42529
Samp le</w> 42506
authoriz ation</w> 42500
quo te 42496
De plo 42480
ta in 42476
pre ce 42473
list ing</w> 42450
EX I 42448
Mat eri 42442
test er</w> 42440
16 0</w> 42439
E T 42437
incre ment 42433
no ne 42431
Anonymo us 42431
D T 42429
cli p 42420
m c 42400
H igh 42400
ti c_ 42378
o . 42373
%s :▯ 42358
success fully</w> 42349
! r 42348
depend ent</w> 42347
dd t</w> 42343
p ing_ 42339
orm[' sentry. 42336
n ic 42334
ju st 42325
alph ab 42320
wh en_ 42319
trans forms</w> 42318
err_ msg</w> 42317
mandat ory</w> 42317
alb um 42303
t on</w> 42300
mapp ing_ 42295
save fig</w> 42287
Li mit 42276
j s_ 42272
TAB LE</w> 42271
Pas s</w> 42269
: 00</w> 42260
Scop e</w> 42256
S an 42253
C KE 42250
AUTH ORS</w> 42250
indic ates</w> 42246
s que 42242
plat form 42235
broad cast</w> 42235
\x1b [0m 42231
mo use</w> 42221
type :▯ 42220
Di alog 42200
sto ck</w> 42198
Loc al</w> 42185
bro ker</w> 42185
cut off</w> 42181
Uns up 42178
RG B</w> 42168
se ct</w> 42162
NO TI 42158
AS CI 42152
function ality</w> 42151
〖lf〗▯▯▯▯▯▯▯▯▯▯▯▯ ▯▯▯▯</w> 42150
Com bo 42143
require d▯ 42141
instru ction</w> 42138
Sup er 42112
W il 42111
act or 42110
= { 42100
li ent</w> 42093
at ing 42085
me d 42085
EX TEN 42074
re view_ 42071
de serialize</w> 42063
〖lf〗 ▯ 42060
N V 42058
) ▯( 42054
s v</w> 42047
to k</w> 42039
Sk ip</w> 42038
u ▯ 42035
ter m_ 42003
orde red_ 42003
get_ data</w> 41999
desc r</w> 41999
co d 41995
ta u</w> 41990
EN D_ 41988
op code</w> 41977
t wee 41975
Glob al</w> 41971
packe ts</w> 41970
__module_ _</w> 41949
S pi 41941
query_ params</w> 41941
line width</w> 41935
20 20 41930
r ad 41921
Simp le</w> 41906
g RPC</w> 41905
METHO D</w> 41905
di _ 41902
D RO 41898
processor s. 41896
instrum ent</w> 41895
N I 41878
sub scri 41841
B en 41839
B ind</w> 41838
UR E</w> 41838
Asser t</w> 41837
q t</w> 41832
an a</w> 41831
clic k 41812
expi res</w> 41810
numb er▯ 41804
ul t▯ 41803
B ri 41798
ER EN 41793
accoun t. 41783
Re pres 41781
Cal led</w> 41778
[ ▯ 41767
inclu de▯ 41766
accoun t_id</w> 41761
wait ing</w> 41759
imple ments</w> 41756
patter n 41754
CUR REN 41754
Loc ation 41751
2 : 41744
ol der</w> 41743
}▯ { 41728
( \ 41724
coeffici ents</w> 41711
f x</w> 41704
G ui 41704
6 00 41704
Na N</w> 41704
P ur 41674
F rag 41671
an a 41671
fai led▯ 41670
repl aced</w> 41658
e mo 41655
0. 99 41654
con du 41652
o cc 41646
ra vel</w> 41645
h it 41643
t n</w> 41641
M AC 41636
like li 41630
Rec t 41625
af ter 41618
F lexi 41611
Get TypeId</w> 41604
m ech 41603
user name 41592
combin ations</w> 41589
a res</w> 41585
boo ks</w> 41585
< ! 41579
compres sed</w> 41569
n_ samples</w> 41564
IT E 41558
re ser 41557
valu es 41555
ar ds</w> 41539
coor d_ 41534
Sub scrip 41533
p ati 41532
module store</w> 41531
REQUE ST_ 41529
s , 41524
A F_ 41519
bul k_ 41514
,▯ and▯ 41511
h at</w> 41504
option s_ 41502
sv g</w> 41492
2 35 41486
d st 41479
oth ers</w> 41470
or_ 404</w> 41468
PY TH 41444
_ has_ 41443
dis ks</w> 41441
. js</w> 41436
t cp</w> 41435
socke t_ 41431
F rank 41405
vo id 41404
р а 41391
re cover 41375
ati s 41374
conside red</w> 41372
a▯ valid▯ 41367
po o 41365
begin ning</w> 41364
ge ne_ 41362
is co</w> 41360
goo d_ 41356
giv en▯ 41334
t c 41329
st able</w> 41328
3 000 41327
pot enti 41318
sa y</w> 41314
Option Parser</w> 41311
struct ures</w> 41300
em it 41297
status_ int</w> 41286
Net Device 41284
auti ful 41280
De stin 41278
head ing</w> 41275
H L 41271
z hou 41267
sub dir</w> 41247
un known_ 41238
ac t▯ 41229
Re du 41225
e ds</w> 41224
prop er</w> 41198
C md 41197
11 0</w> 41195
hav e_ 41195
19 2</w> 41187
o graph 41174
e val 41171
from_ string</w> 41154
N ▯ 41148
IG NO 41132
bu f 41126
VAR I 41125
En coding</w> 41120
t v</w> 41119
b > 41119
doc type</w> 41119
ent ion</w> 41118
Q SizePolicy</w> 41112
Iter able</w> 41102
spaw n</w> 41100
w p 41099
objec t_id</w> 41097
verifi ed</w> 41093
T AS 41087
CHO IC 41074
App end</w> 41070
use d 41059
R R 41044
a 0</w> 41026
wid get 41022
pat ches</w> 41005
br acke 41003
gran ted</w> 41000
so l</w> 40997
PRE FIX</w> 40994
v box</w> 40981
uint 64</w> 40981
Boo l</w> 40973
8 00 40967
Spli t 40967
as so 40954
p alette</w> 40943
Flo or</w> 40941
specifi cation</w> 40935
identifi ers</w> 40933
can▯ be▯ 40918
w ▯ 40916
curr ency_ 40906
proto col 40906
COUN T</w> 40900
dete ct</w> 40896
de m 40885
| | 40877
k g 40856
classifi ers</w> 40850
so uth</w> 40847
mon go 40846
{ ▯ 40841
_ process_ 40837
t s▯ 40829
spec ifying</w> 40818
Inst all 40816
Ste p 40811
che d_ 40803
is o</w> 40800
re set 40799
bi as_ 40797
ra y</w> 40783
AR E</w> 40769
to w 40764
os - 40764
s_ count</w> 40749
pers on_ 40747
si ve 40746
Unsup por 40740
> 〖lf〗▯▯▯▯▯▯▯▯▯▯▯▯▯▯▯▯▯▯▯▯ 40737
Rout e</w> 40736
\u5e 7f 40730
ATI ON 40722
secur ity 40722
cor pus</w> 40721
An ▯ 40719
L P 40712
sa fe 40707
G LO 40706
driver s</w> 40704
transl ations</w> 40702
So up</w> 40696
2. 7</w> 40687
s ation</w> 40686
embedd ing_ 40684
co uld▯not▯ 40678
skip ped</w> 40677
context_ processors. 40665
resul ting</w> 40646
L ength 40645
C EL 40640
the re 40640
c7 1 40640
ch ang 40637
mis sions</w> 40620
sh ips</w> 40618
La un 40617
CP U</w> 40616
un t 40612
moc k 40611
track ing</w> 40610
e asy 40609
MO DI 40609
\x00\x00\x00\x00 \x00\x00\x00\x00 40609
me mo 40607
Custo m</w> 40595
? ▯ 40582
sett ing_ 40579
DAT E</w> 40575
mer ged</w> 40572
get env</w> 40571
l - 40550
Clo se 40547
Ass oci 40541
5 e 40532
fir m 40525
xml ns 40521
0. 0000 40520
resp _ 40520
cont act 40516
NotImplement ed</w> 40512
Add Field</w> 40500
simp ly</w> 40486
\u 89 40481
%s :▯%s</w> 40480
TA G</w> 40478
Spli t</w> 40473
G RA 40464
3 ,▯ 40464
\u5 357 40450
sel l</w> 40435
Sol ution</w> 40431
data frame</w> 40429
has s</w> 40420
Sp ace 40413
do g</w> 40388
ope ner</w> 40380
source ▯ 40379
f th</w> 40378
ci dent 40375
( ▯ 40372
y o 40364
1 E 40360
possib le_ 40357
di str 40356
CON F_ 40354
ge o</w> 40352
Certific ate 40347
ven io</w> 40342
__ set 40327
inser t 40326
manu ally</w> 40324
s )</w> 40321
author_ email</w> 40318
g al 40300
cl a 40299
> 〖lf〗▯▯ 40295
W ith</w> 40295
ti cal 40295
Summar y</w> 40291
Pol y</w> 40288
5 .</w> 40280
A K 40279
x 86_ 40277
G S 40264
gr p</w> 40263
p g_ 40261
\u5 c71 40255
dele te▯ 40237
Syntax Error</w> 40236
do ing</w> 40235
Registr y</w> 40235
let ters</w> 40223
fr on 40222
From String</w> 40219
v 0</w> 40206
O M 40199
coun try_ 40199
d up 40192
stra p</w> 40162
car t</w> 40159
\x1b[ 37 40136
separ ated</w> 40134
at or▯ 40127
xx xx 40113
File ▯ 40109
Vali d 40109
3 c 40108
< div▯ 40107
s. txt</w> 40100
Flexi ble 40095
igno re 40093
sla ve</w> 40093
per ms</w> 40092
ch at</w> 40083
mi le 40078
A ver 40076
buil ds</w> 40075
lon e</w> 40075
Conne ct 40073
distan ce_ 40052
7 _ 40050
G ame</w> 40046
in tr 40044
Lay out 40027
primi tive</w> 40021
0 ]</w> 40012
C ance 40002
OU T_ 39994
200 7</w> 39994
mar ker 39993
ut ori 39990
dire ct_ 39989
e_ id</w> 39988
Te am 39983
TH RE 39978
. ▯</w> 39974
0x 4 39959
learning_ rate</w> 39957
uint 8 39956
i 2</w> 39953
vec tor_ 39949
duplic ates</w> 39943
HE ADER</w> 39940
Date Field</w> 39933
ne ed_ 39927
en c</w> 39927
Request Context</w> 39926
P layer 39923
Al l▯ 39921
Ad ds</w> 39916
current_ user</w> 39910
siz er</w> 39905
Alter Field</w> 39900
pass ing</w> 39893
Nor mal</w> 39891
rege x 39890
do ne 39879
assert Is</w> 39879
ff i</w> 39876
regulari zer</w> 39876
VALU ES 39870
Tra in 39865
pre d_ 39864
〖lf〗▯▯▯▯▯▯▯▯ a▯ 39864
SUCC ESS</w> 39857
Pl ace</w> 39852
check_ output</w> 39847
initializ ation</w> 39842
fr ont</w> 39840
N F 39837
parent _id</w> 39834
tar get▯ 39831
k ar 39826
_ default_ 39821
g 1</w> 39819
c us 39808
Conne ct</w> 39807
calcul ated</w> 39806
overri d 39800
j ▯ 39798
Pri mar 39792
ad just</w> 39773
reg res 39772
Rec ur 39772
Box Layout</w> 39770
coun ter 39763
Maxim um</w> 39761
si ve_ 39760
Model Admin</w> 39759
Re set</w> 39758
pla in 39755
Element Tree</w> 39755
Tot al 39746
../ ../ 39745
x lim</w> 39737
am ble</w> 39735
3 a 39733
componen t_ 39733
ho use</w> 39728
_ 01</w> 39726
CLI ENT_ 39725
i m_ 39719
in correct</w> 39717
CREAT E▯ 39714
H yp 39713
re li 39712
us age 39710
0 a 39707
p / 39707
pix el 39706
0.00 1</w> 39706
P ic 39698
o s. 39695
5 / 39691
Algorith m</w> 39681
D ra 39680
TEMPLAT E_ 39674
clo sing</w> 39669
as sess 39669
O ther</w> 39667
C C</w> 39663
resource _id</w> 39662
▯ / 39657
mach ine 39651
__ unicode 39649
Ex pr 39648
Te le 39647
win 32</w> 39638
Qu anti 39635
v in 39633
6 e 39632
20 2</w> 39629
mon o 39629
me try</w> 39624
r ho 39620
ed u</w> 39618
Se q 39617
lex er</w> 39616
c ation 39615
Hel p</w> 39614
To String</w> 39610
as k 39608
ro spy</w> 39606
whe re 39605
Ur l 39603
l m 39600
P B 39593
G B 39593
backend s. 39580
she et 39577
SELEC T</w> 39576
relev ant</w> 39574
top ic_ 39572
g is</w> 39568
override_ settings</w> 39560
An im 39558
emp loye 39553
K o 39547
joi ned</w> 39547
recip e</w> 39543
D raw</w> 39542
ag o</w> 39535
v_ uint32</w> 39529
Back end 39526
la r</w> 39518
__unicode __</w> 39512
pri vile 39509
da p</w> 39507
ext . 39504
exten ded</w> 39497
3 f</w> 39495
constru ction</w> 39488
F UL 39482
Succe ss 39481
ang le_ 39466
are n</w> 39459
_ load_ 39451
uu ids</w> 39446
KE N</w> 39442
expan duser</w> 39441
wik ipedi 39437
Uni que 39436
i / 39416
Linu x</w> 39416
10 ▯ 39401
Hist ory</w> 39391
vo cab</w> 39387
A ns 39375
=" %s 39367
' )</w> 39366
LI B 39360
LaTe X</w> 39350
32 _ 39347
Stand ard</w> 39335
D ig 39330
pri me</w> 39330
yam l_ 39319
Sh ape 39311
DI SC 39301
api - 39299
▯% d▯ 39296
django.contrib. auth. 39288
u s▯ 39287
drop out</w> 39285
lo ss 39282
or t▯ 39282
image_ meta</w> 39280
s z</w> 39273
midd le</w> 39271
HO ME</w> 39267
n . 39264
flu x</w> 39238
de p_ 39236
SE SSI 39220
Colle ction 39220
S SH 39217
\u d 39215
B a 39213
Frank lin</w> 39211
enti re</w> 39208
ce il</w> 39205
_P ORT</w> 39204
com bo 39195
glyp h 39191
alph a_ 39186
Bas ic</w> 39186
partner _id</w> 39186
PO S 39183
▯- >▯ 39171
fix es</w> 39170
string_ types</w> 39166
Ne ighb 39164
Te am</w> 39160
ST D 39158
der . 39156
INSERT▯ IN 39156
Time out 39142
exact ly</w> 39134
Trans action 39129
invo ice_ 39113
Direct ory 39110
Test ing</w> 39109
class _</w> 39109
suppor ts_ 39092
samp ling</w> 39090
man ager 39081
already_ processed</w> 39075
version added</w> 39071
02 110 39068
pe d_ 39067
emb ed</w> 39065
i v 39064
snapsho ts</w> 39057
Create Model</w> 39053
En ter▯ 39051
p wd</w> 39049
sym bo 39049
p e</w> 39046
4 32 39045
amp li 39039
p d 39029
selec tion_ 39011
In it 38997
ACTI VE</w> 38996
p sy 38995
request_ id</w> 38990
sli ce 38989
Di stance</w> 38988
prev ent</w> 38985
im p</w> 38981
service_ name</w> 38976
Edi tor</w> 38965
MODUL E</w> 38963
float ing</w> 38956
i b 38953
〖docopen u 38952
HTTP Error</w> 38945
Seg ment 38941
happ en</w> 38939
son g</w> 38932
02110 -13 38932
transi tions</w> 38931
new_ name</w> 38927
R ▯ 38925
c name</w> 38920
ta n</w> 38917
c x 38907
C K 38904
sub classes</w> 38901
witho ut▯ 38899
w all 38888
domain _id</w> 38886
pr int▯ 38883
0 9</w> 38880
s n</w> 38876
run ning▯ 38874
<a▯ href=" 38851
pa st 38838
s_ name</w> 38836
u 1</w> 38830
] | 38830
flav or_ 38830
sp am</w> 38819
Ms g 38817
TER ▯ 38805
zil la</w> 38800
C ryp 38798
child ren 38796
mem ory 38795
arg s 38791
attach ed</w> 38788
ro id</w> 38787
add Callback</w> 38773
pers ons</w> 38771
L H 38766
dep th 38765
liste n</w> 38762
MA L</w> 38758
sti me</w> 38756
th row</w> 38752
bli t</w> 38750
D ist 38738
Condi tion</w> 38731
long_ description</w> 38726
Attribute Checker</w> 38722
indi ce 38714
os lo_ 38710
u red 38708
pro c_ 38705
Re pe 38690
aliz ed</w> 38689
rege xp</w> 38688
stat uses</w> 38684
categ ory 38671
h ub 38657
prob s</w> 38653
buil d▯ 38647
Boo k</w> 38647
view er</w> 38645
termin ate</w> 38627
NAM E 38622
M IN</w> 38621
s low</w> 38619
13 . 38615
as s</w> 38609
i r_ 38603
amoun t_ 38603
si m 38599
cat a 38593
ob ta 38590
an ces</w> 38589
H oriz 38585
MESS AGE</w> 38585
I B 38582
The re▯ 38582
PO ST 38579
z a</w> 38576
Un known</w> 38574
In it</w> 38570
filen o</w> 38566
or ph 38560
_ args</w> 38556
r x</w> 38550
inter medi 38549
- c</w> 38548
coun t▯ 38546
ge st 38545
notific ation_ 38545
Ver tex 38540
tx id</w> 38539
) \n</w> 38538
5 f 38537
EMA IL</w> 38519
Inter rupt</w> 38511
\ b 38509
A bo 38503
po int▯ 38501
dia log 38499
com / 38497
64 _t</w> 38493
re r 38491
RE TUR 38489
context lib</w> 38488
RUN N 38484
rot ate</w> 38474
s_ id</w> 38469
( n 38465
rec v_ 38463
EMA IL_ 38463
Flexible ForeignKey</w> 38461
like ▯ 38452
i 2 38443
STAT E</w> 38432
si s 38430
n ai 38422
al way 38408
T ER_ 38407
transf er_ 38395
_ init_ 38393
m y▯ 38392
v h 38389
Be autiful 38387
c ru 38380
for▯ the▯ 38359
3. 5</w> 38356
process ors</w> 38356
〖lf〗▯▯▯▯▯▯▯▯ ▯▯▯ 38354
per mitted</w> 38351
V P 38348
com pat 38343
py tz</w> 38339
_ session</w> 38332
Process or</w> 38330
authoriz ed</w> 38319
AR M 38310
ne g</w> 38307
properti es. 38305
att rib 38293
Ne g 38281
D one</w> 38280
render_to_ response</w> 38280
instru ctions</w> 38279
EV ENT_ 38275
Overri de</w> 38271
Retri eve</w> 38270
{} ,▯ 38263
6 .0</w> 38253
pho ne 38244
perfor med</w> 38240
co u 38229
O Auth 38227
de tai 38220
g mail 38219
publi sh_ 38216
j id</w> 38214
a v</w> 38205
COMP LE 38197
De cor 38195
ge tting</w> 38186
H ar 38181
tenan t_ 38179
X ml 38176
_ cache</w> 38175
O T 38175
ic s 38170
R ed</w> 38164
slo t_ 38158
H y 38147
l c</w> 38146
S lot</w> 38138
WID TH</w> 38133
8 00</w> 38132
hig he 38120
off _ 38118
fill_ value</w> 38115
HttpResponse Error</w> 38107
F N</w> 38103
doub le 38103
2 e 38101
SERVIC E_ 38093
Un less 38083
SE C 38081
% 02 38078
B und 38070
si g_ 38051
: 00: 38050
5 d 38042
Reposi tory</w> 38038
02110-13 01</w> 38031
cf g 38030
cer t 38030
we ▯ 38010
L am 38007
metho d▯ 38005
D E_ 38001
N A</w> 38001
Dat a▯ 38000
ext end 37994
co in</w> 37981
yp y</w> 37977
ip ul 37967
A H 37960
%s/ %s</w> 37956
integr ation</w> 37953
Tr ack</w> 37950
plat forms</w> 37945
base_ dir</w> 37933
doc ker</w> 37929
fetch one</w> 37928
XXXX XXXX 37927
ve hic 37925
_ RE 37920
\3 77 37918
s_ data</w> 37914
er t</w> 37908
test_ update_ 37907
initi al 37906
H ere</w> 37903
0 10 37899
Request Handler</w> 37893
Mac48 Address</w> 37893
F ace 37871
Attribute Value 37862
n r 37852
D eri 37850
gue st_ 37847
OR IZ 37843
Replay All</w> 37839
la s</w> 37834
methods_ _</w> 37822
n or</w> 37802
9 - 37796
p et 37787
ran d_ 37779
ho st▯ 37775
app endi 37770
5 000</w> 37767
distin ct</w> 37762
depend ing</w> 37759
U I 37758
In dic 37753
TE S</w> 37752
CHAN NE 37752
q r 37751
C OR 37749
s lop 37748
E ur 37740
Lex er</w> 37740
combin e</w> 37734
/ django- 37728
〖lf〗 :10 37727
_PRE FIX</w> 37727
n u</w> 37723
Cam er 37720
ER R_ 37714
k i</w> 37708
app li 37696
sel eni 37693
ex plan 37692
% } 37690
Adap ter</w> 37688
TEX T_ 37677
〖lf〗 #▯ 37672
G ec 37671
Message Type</w> 37668
0. 11 37665
ven dor</w> 37660
9 , 37656
Vali date</w> 37655
base dir</w> 37652
ACTI ON_ 37648
disp atcher</w> 37641
adju st 37638
correct ▯ 37634
un e</w> 37632
ephe mer 37632
c pp 37630
block ing</w> 37627
form - 37623
b ed</w> 37618
aver age_ 37613
are d_ 37611
sc ape</w> 37602
moc ked_ 37599
Option s 37587
Extern al 37574
Name }/ 37571
to o▯ 37564
trigge red</w> 37556
Miss ing▯ 37551
ns3:: TypeId</w> 37547
opener p</w> 37544
Bo t 37540
feed_ dict</w> 37538
usu ally</w> 37529
ds r</w> 37525
Djang o 37519
m on</w> 37507
get_ or_ 37506
il _ 37502
may be_ 37497
video _id</w> 37492
127. 0.0. 37491
> =▯ 37489
k t</w> 37484
2 f</w> 37477
predi ct_ 37471
cap tion</w> 37465
9 1 37457
Wor d</w> 37455
In strum 37444
L S 37443
variable s_ 37443
c x</w> 37425
Window s▯ 37423
_ B 37419
wsgi _ 37414
i q 37411
10 7 37403
s3 db</w> 37398
Fi fth</w> 37393
COL UM 37388
wri tes</w> 37384
statu s▯ 37384
name )s 37383
F ri 37373
LAT IN</w> 37367
whi ch 37367
2 30 37358
indivi du 37358
cu da</w> 37352
s▯ that▯ 37345
Group s</w> 37345
need s_ 37345
b ab 37337
un known▯ 37332
h 1</w> 37330
look ing</w> 37324
deca y</w> 37324
00 ▯ 37322
journ al</w> 37321
sign al 37312
se c_ 37304
T G 37300
S mar 37292
stop ped</w> 37288
p v 37284
EN GIN 37281
oc curr 37280
STAT IC_ 37275
St ree 37270
let ter 37270
nor mpath</w> 37261
set Up 37250
" ></w> 37247
Mis sing 37242
d j 37231
c w 37230
import ant</w> 37229
k ub 37228
an ge</w> 37225
B P 37224
e mul 37222
subne ts</w> 37218
ro t</w> 37211
s b</w> 37198
fe at</w> 37191
SE AR 37185
>〖lf〗 </ 37175
Environ ment 37164
th ro 37161
consum er_ 37160
each ▯ 37160
} ) 37129
x 3</w> 37128
MODE L</w> 37125
_ pre 37118
compi led</w> 37116
td > 37114
En cryp 37113
Comm it 37103
man _ 37096
F 0 37088
Doub le 37086
ch err 37084
igh t_ 37081
h g 37080
Process ing 37068
pro j 37062
diag no 37054
ho use 37049
h ad 37045
Gate way 37043
▯to▯ be▯ 37035
Pro te 37034
S ci 37032
attach ments</w> 37030
clean up_ 37029
foo . 37014
f our 37008
embed ding</w> 36996
gra y</w> 36994
diction aries</w> 36993
option al_ 36990
Intern al 36989
T OR 36988
v b 36986
tra jec 36983
modi fy_ 36978
code ▯ 36966
defi ne▯ 36966
_ v</w> 36965
so und</w> 36964
Tensor Flow</w> 36960
el se 36950
find_ packages</w> 36950
sti on 36942
scat ter</w> 36941
R IN 36937
A lex 36927
name space_ 36927
p ed 36924
.... .... 36924
dn 't▯ 36916
- name</w> 36911
out dir</w> 36908
\x1b[0m \x1b[37 36905
x min</w> 36904
fin der</w> 36902
e e</w> 36900
att en 36896
Tot al</w> 36895
signatu re_ 36895
In ten 36884
MEDI A_ 36869
Z Z 36863
invo ke</w> 36861
choo se</w> 36861
lin k▯ 36857
attribu te▯ 36857
aw s_ 36847
pot ential</w> 36840
mas ks</w> 36831
14 . 36825
O V 36823
l 3_ 36820
auto_ created</w> 36818
H AND 36816
cal c 36814
</ option 36814
pho to</w> 36795
fire fo 36794
1 0000 36789
Di ag 36785
short cuts</w> 36781
colle ct_ 36759
c ks</w> 36758
sh ard_ 36754
b l_ 36753
Rege xp</w> 36753
ON LY</w> 36750
H id 36743
TEMPLAT E</w> 36740
P W 36737
0x 000 36737
C lear 36729
multip lier</w> 36726
ver si 36721
ا ل 36717
cooki e_ 36716
Stree t</w> 36714
inh eri 36710
device _id</w> 36704
pyth on▯ 36702
us - 36694
se man 36684
In cre 36683
incom ing</w> 36682
dete ction</w> 36680
GP L</w> 36679
task_ state</w> 36676
inser ted</w> 36664
part ner_ 36661
GLO B 36656
machi ne_ 36638
t p_ 36635
bar s</w> 36632
rel ations</w> 36631
wor ld 36628
work er 36625
cont acts</w> 36622
wid th_ 36620
pay ment</w> 36620
bran ches</w> 36614
res amp 36613
sup pres 36603
AP P_ 36600
high er</w> 36599
Ex clu 36594
< input▯ 36591
over flow</w> 36590
sque e 36585
r oper 36582
h h 36579
Foun d▯ 36578
al t_ 36563
db _id</w> 36563
vi l 36559
war d_ 36559
resul ts 36558
▯▯ ▯- 36557
Micro soft</w> 36555
built ins</w> 36553
wa re_ 36546
ye ars</w> 36545
unti l_ 36526
py qt 36525
bi o 36525
p seu 36515
re use</w> 36514
thir d</w> 36507
hoo k_ 36506
json ify</w> 36504
art be 36490
l strip</w> 36480
th ing▯ 36476
shoul dn</w> 36476
in k 36475
ac a 36472
uint8 _t</w> 36472
CS V</w> 36467
Pol ler</w> 36466
User s</w> 36462
F amil 36457
4 29 36455
A Q 36450
option s 36450
ke d▯ 36447
\u c 36446
H 2 36439
DefaultDele ter 36428
man y2 36427
S par 36425
admin_ context</w> 36424
pic k</w> 36418
C el 36403
h 2</w> 36401
betwe en▯ 36397
L on 36394
di o</w> 36392
En ter 36391
AS F</w> 36388
not▯ be▯ 36384
ad ministr 36382
min ator</w> 36377
Syn c 36376
1. 3. 36375
group ▯ 36373
type s. 36373
ma nen 36365
modifi ers</w> 36361
non ce</w> 36358
Le ft 36354
Hea ders</w> 36352
ded ent</w> 36338
t ch 36334
dire ction 36334
is nan</w> 36322
Comm on</w> 36319
x 4 36316
2 10 36308
mu _ 36308
Cont roll 36307
scop e_ 36304
Ex port 36299
} \n</w> 36290
get_ response</w> 36289
ker nel 36289
\ 1 36288
pi d_ 36279
colle ct 36277
\〖lf〗 \x00 36267
inte ger 36267
test_ delete_ 36263
x r</w> 36261
me ▯ 36261
cl _ 36260
QgsW kb 36254
\ [ 36249
componen t 36242
ato m_ 36238
k 1</w> 36236
A ir 36223
Get Value</w> 36223
ye ar_ 36222
stub _ 36221
t d▯ 36220
non zero</w> 36204
neut ron 36200
pit ch</w> 36197
per si 36194
dat ac 36193
De velo 36192
update ▯ 36192
Cle ar</w> 36192
,▯Gu ang 36189
f l</w> 36175
▯for▯ the▯ 36175
M T_ 36171
tra its</w> 36170
DOMA IN</w> 36170
S core</w> 36161
Ho wever</w> 36157
mi um</w> 36156
consist ent</w> 36143
QgsWkb Types</w> 36143
test 2</w> 36138
n / 36135
E B 36134
flat _ 36132
Ro le 36121
A X 36120
s atis 36115
ans wer 36115
H ome 36113
th row 36110
up per 36107
Ap ply</w> 36100
dr vr</w> 36098
S COP 36096
pub _ 36093
L ast</w> 36082
& & 36082
c are</w> 36080
wav el 36068
Cont in 36067
vo te</w> 36065
\u89 7f 36064
sto ne 36057
Typ e_ 36041
NO TIC 36039
the mes</w> 36030
Ac tive</w> 36026
specifi es</w> 36022
multi ply</w> 36022
User Profile</w> 36020
[...]
