. 331342069
〖newline〗 315222414
( 286698997
) 286666676
, 245506223
= 174558317
〖strclose〗 156398542
: 150663898
self 118470033
〖stropen:'〗 97473386
〖dedent〗 94318844
〖indent〗 94318844
] 77153131
[ 76964384
〖stropen:"〗 54092373
〖comclose〗 38402665
〖comopen〗 38378536
if 36658447
def 32972928
〖lf〗 31334205
1 26347074
the 25890529
_ 25852490
in 24988331
0 24388064
return 23623595
- 21515778
for 19228037
+ 18583668
None 17442400
' 15984535
a 14223589
== 13445078
name 13048755
to 12573292
is 12417262
* 12328458
2 12036534
} 11781710
not 11623235
_@@ 11527078
{ 11432857
〖docclose〗 11258478
data 10879777
` 10738814
and 10387014
of 10274430
/ 10070717
else 9076214
True 8912378
" 8772642
i 8719867
% 8590518
> 8565195
x 8487904
path 8332709
〖docopen:"""〗 8188954
str 7638813
False 7578386
value 7493965
type 7138201
get 6677848
len 6564012
list 6541331
id 6532831
print 6433262
s 6353551
3 5746721
args 5735213
get_@@ 5711203
append 5683430
with 5510480
or 5441428
key 5212498
np 5165220
os 5151394
file 5102506
request 5094251
as 5067489
test_@@ 4867947
assert 4839462
result 4511041
assertEqual 4491522
format 4440819
t 4365360
f 4364329
url 4294556
elif 4225709
** 4154775
y 4142768
raise 4074308
c 3995680
e 3983210
response 3953501
be 3937079
user 3903811
int 3886040
+= 3860221
# 3829872
from 3788264
kwargs 3772344
▯@@ 3769600
try 3749804
p 3742535
except 3702187
config 3699390
info 3655432
4 3646240
-@@ 3612282
set 3565749
text 3560900
time 3548383
r 3520567
dict 3464141
line 3441611
param 3413502
d 3410824
n 3334811
__init__ 3323972
that 3315299
< 3313602
index 3269701
b 3187798
join 3123912
/@@ 3120349
this 3090886
.@@ 3072210
size 3031163
range 3009200
s@@ 2982333
node 2899225
string 2817359
m 2812227
get@@ 2792857
The 2779851
all 2766943
context 2752509
5 2746137
values 2726710
k 2703933
it 2638808
item 2630695
params 2630294
__@@ 2610644
v 2606612
s_@@ 2602645
error 2597941
obj 2568861
on 2562101
model 2527169
!= 2521834
message 2498505
write 2496723
n@@ 2487236
state 2420485
count 2389915
A 2370784
client 2355138
status 2354841
object 2346435
output 2339924
filename 2332159
log 2322732
▯ 2309275
an 2293030
\n 2273243
array 2257211
default 2244934
msg 2237130
d@@ 2227822
start 2217679
test 2204415
we 2195382
are 2188250
is_@@ 2170229
options 2159404
method 2119286
cls 2117247
; 2101362
x@@ 2086905
class 2079249
group 2062523
db 2043125
out 2029386
p@@ 2009027
10 2005061
set_@@ 1984580
c@@ 1971238
isinstance 1954418
by 1953515
code 1952453
split 1943119
shape 1942139
l 1920376
row 1917916
objects 1915709
add 1903252
new_@@ 1878230
t@@ 1877480
f@@ 1876130
title 1861441
res 1859595
w 1857334
g 1854149
query 1848894
json 1843535
function 1826132
update 1823912
version 1819259
open 1795921
items 1793513
event 1778422
instance 1777171
:@@ 1774085
to_@@ 1770118
number 1758535
b@@ 1754669
set@@ 1746820
will 1742373
label 1739967
float 1736158
field 1717372
_id 1716339
logger 1710930
j 1696645
m@@ 1694088
r@@ 1693137
h 1682677
| 1678176
files 1664939
image 1662788
dir 1661856
val 1656871
Name 1655729
〖stropenu:'〗 1642555
session 1639629
v@@ 1639007
6 1636607
pass 1635991
If 1635246
add_@@ 1632652
Exception 1625697
--@@ 1622566
,▯@@ 1619194
i@@ 1613516
keys 1612021
mode 1609523
@ 1607042
debug 1606575
end 1603677
un@@ 1590739
import 1590722
parser 1586851
table 1583604
input 1562544
action 1562095
content 1560009
re@@ 1552763
a@@ 1545274
re 1544284
g@@ 1535862
filter 1529501
new 1524108
o 1519921
e@@ 1506997
8 1503886
date 1495589
sys 1494947
command 1484743
map 1481573
(@@ 1478027
form 1468299
parent 1456225
create 1455499
List 1451044
port 1443693
module 1439972
match 1438519
results 1438410
2@@ 1435840
settings 1434446
read 1430758
X 1420948
l@@ 1419683
run 1419522
s▯@@ 1388448
y@@ 1384153
T 1378295
max 1376760
target 1367772
This 1359081
names 1346066
:▯@@ 1344694
ID 1340761
h@@ 1336593
create_@@ 1334314
ValueError 1331774
test@@ 1329548
z 1329292
host 1322071
cmd 1317253
k@@ 1314761
source 1311265
fields 1310397
Type 1298668
no 1294354
Returns 1293345
headers 1290505
datetime 1283574
super 1280686
one 1280470
length 1276940
o@@ 1274724
tf 1269070
pos 1265840
server 1260284
dtype 1259639
S 1259611
app 1258302
check 1257808
C@@ 1254372
u 1252568
at 1248620
width 1247807
can 1242047
7 1241195
should 1237222
lambda 1233393
S@@ 1228466
in@@ 1225478
sub@@ 1225103
tag 1222637
body 1219956
0.0 1219551
ids 1214553
is@@ 1212773
root 1208222
close 1182937
P@@ 1180719
only 1179484
token 1175966
data_@@ 1168717
page 1166415
lines 1160925
n_@@ 1150954
use 1149799
replace 1142016
header 1141538
func 1138031
Error 1132807
color 1131079
B@@ 1119069
first 1113663
description 1112092
nodes 1111799
num_@@ 1111475
num 1108815
C 1106964
level 1104360
continue 1101130
while 1097956
username 1092434
u@@ 1089993
=@@ 1086711
w@@ 1085995
call 1079152
metadata 1077700
logging 1077275
parameters 1073028
password 1070397
ing 1069634
idx 1069473
which 1068017
q 1067083
other 1064415
help 1063307
E@@ 1059625
env 1056588
! 1054159
〖docopen:"〗 1049478
Get@@ 1046548
have 1038803
used 1036350
N@@ 1034867
entry 1034644
order 1033761
T@@ 1031191
_get_@@ 1028162
t_@@ 1025998
exists 1023673
max_@@ 1023004
on_@@ 1021048
d_@@ 1020325
new@@ 1018392
save 1016656
<@@ 1010608
{@@ 1003642
D@@ 997708
? 992995
timeout 992845
min 984399
resource 981234
from_@@ 979647
check_@@ 976718
address 972263
R@@ 971273
z@@ 962628
copy 958793
Id 957620
assertTrue 952296
%s 951074
mock 951002
q@@ 949532
expected 948426
in_@@ 946110
user_@@ 945897
9 944014
A@@ 943569
B 942999
axis 941968
_name 941656
F@@ 940504
current 940476
[@@ 939817
api 939296
file@@ 938082
1.0 937610
project 936721
Data 936396
random 933947
a_@@ 931885
H@@ 931095
strip 925986
search 925801
view 925679
types 924066
df 924030
G@@ 922689
base 922457
N 922395
offset 920958
M@@ 920523
〖docopen:'''〗 920084
to@@ 917755
100 917025
add@@ 915410
bool 906598
de@@ 904474
so 904098
location 902768
V@@ 902213
service 901088
height 896071
,@@ 894343
y_@@ 894330
pop 892294
prefix 891615
update_@@ 885591
mock_@@ 885200
when 878574
now 877380
j@@ 876436
1@@ 875002
given 873718
sum 873070
ref 871677
m_@@ 871151
find 870433
each 870394
ret 869833
utils 869291
template 868542
all_@@ 866153
op 865115
x_@@ 863783
wx 857911
tuple 850794
numpy 849669
L@@ 848469
& 844520
connect 843450
task 843090
ing▯@@ 842071
File 840770
any 839301
file_@@ 838974
email 838822
element 838757
link 837630
▯(@@ 836733
ts 834886
up 834084
current_@@ 831467
frame 830634
directory 829028
cache 828877
break 828857
list_@@ 828033
Test 827884
remove 827598
arg 826526
c_@@ 822057
position 821358
block 819800
'@@ 819386
column 815215
tags 813946
〖docopen:'〗 812949
id@@ 808942
record 808898
lower 808016
exception 807777
tree 802167
M 798992
I@@ 796721
yield 795764
labels 795288
has 794710
I 793427
Q@@ 786330
errors 786298
connection 785794
stream 784264
D 782841
X@@ 781022
delete 780773
req 780692
channel 777597
L 775980
models 774313
\@@ 774289
resp 774131
device 773853
var 771724
post 769028
log@@ 764207
4@@ 763732
execute 763621
\n@@ 761777
doc 759895
next 759708
on@@ 757396
To@@ 757101
al@@ 754035
3@@ 752780
s.@@ 749440
step 749265
p_@@ 747255
K@@ 746863
left 746719
point 746060
with_@@ 745904
>= 745136
200 744496
html 741099
stdout 740637
Set 739780
points 736445
20 734912
status_code 734319
W@@ 733927
py@@ 732528
ing@@ 731879
returns 731735
graph 729278
matrix 726999
conf 726931
"@@ 726623
no@@ 726165
fn 723172
ctx 720558
P 718868
last_@@ 716477
Y 716330
:▯ 716092
a▯@@ 715193
main 712298
mask 712113
load 711469
12 709646
col 709011
my@@ 708451
conn 705500
err 704047
0@@ 701584
ing_@@ 700420
Path 700200
input_@@ 698881
handler 696332
expected_@@ 696236
st@@ 694509
callback 693736
plot 691640
s/@@ 691484
ip 688909
max@@ 688299
%s▯@@ 686526
Set@@ 681408
QtGui 680893
uuid 679597
layer 678716
cursor 678603
inputs 674704
plt 673538
attr 673344
columns 672946
right 671984
process 671116
network 670510
limit 666857
5@@ 666482
R 665503
do 663900
arguments 663617
store 661527
Get 659415
case 658935
start_@@ 658719
output_@@ 657507
Dict 657053
%@@ 654688
Return 654156
but 653859
<= 652119
〖stropenu:"〗 650304
domain 647119
empty 646690
1.@@ 643879
di@@ 643572
16 642622
add_argument 641588
where 641369
default_@@ 640862
O@@ 640343
into 637083
rows 635274
out@@ 633391
In@@ 633135
grid 631058
F 630567
ds 630128
er@@ 629746
foo 629301
global 627869
en@@ 627768
using 626652
0.5 626240
make_@@ 626035
data@@ 624717
1_@@ 621382
G 619201
Check 618402
manager 618103
job 617220
system 616391
time_@@ 615937
:▯%s 615809
time@@ 615626
Value 615443
E 614332
se@@ 614112
Args 612199
-> 611340
window 610960
src 610918
then 610762
scale 609883
Create 609846
|@@ 609725
spec 608098
target_@@ 608064
startswith 605860
read_@@ 605481
ar@@ 605026
del 604969
f_@@ 604720
pre@@ 604357
run_@@ 604332
String 604206
Re@@ 603409
ax 602595
~ 601476
stats 600770
handle 599675
word 599563
id_@@ 598821
log_@@ 597946
#@@ 596774
key@@ 596069
groups 595250
queue 595128
same 594884
opts 593621
required 592278
return_value 591846
properties 589901
bytes 589562
〖stropen:"""〗 589376
2_@@ 588146
es 587994
show 586725
attributes 585914
al 584931
co@@ 584413
stderr 584286
>@@ 583603
child 583422
10@@ 581334
use_@@ 581082
uid 579218
specified 575340
Y@@ 574968
TODO 574495
option 573995
er_@@ 573032
do@@ 572003
send 571939
optional 571743
dataset 570255
line@@ 570211
parse_@@ 569607
uri 568607
db@@ 568399
as@@ 568078
box 566642
dest 565287
last 564648
l_@@ 564301
ti@@ 564077
hash 563601
flags 563542
mean 563434
total 563416
found 563215
style 562875
make 562433
attrs 562406
st 562045
year 561559
load_@@ 561163
sp@@ 560776
widget 560021
▯to▯@@ 559817
getattr 558902
▯▯@@ 558069
exit 557098
stop 556998
unit 555900
6@@ 555810
img 555656
user@@ 555039
score 554786
e_@@ 554529
li@@ 554011
database 554000
socket 552166
name@@ 551817
parse 551632
core 550987
init 550828
J@@ 549210
timestamp 548811
able 547536
sorted 547431
sub 547285
and_@@ 547136
Node 545761
encode 545111
URL 544788
ation 543451
build_@@ 543383
8@@ 542644
has_@@ 542347
xml 541942
enumerate 541678
dictionary 540949
11 540565
button 540338
Add 540241
U@@ 538754
Test@@ 537588
bar 536165
%s@@ 535004
le@@ 534736
d▯@@ 534661
math 533815
.▯@@ 531901
must 528809
for_@@ 527982
verbose 526820
parameter 526018
User 524937
cfg 523994
stack 522818
folder 522687
$@@ 522526
raw 521951
pk 520324
addr 519069
assertRaises 518809
an@@ 518778
op@@ 516881
File@@ 516768
Item 516481
variables 515729
}@@ 515625
db_@@ 515512
ch@@ 515388
list@@ 514851
after 513641
Data@@ 513373
patch 513250
meta 512806
build 510892
paths 509227
me@@ 509033
Parameters 508783
section 508107
http 508078
pattern 507601
there 505794
str@@ 505473
account 503647
name_@@ 503578
7@@ 502309
features 502287
valid 502286
ed 501770
need 501176
▯=▯@@ 500846
in▯@@ 500309
r_@@ 499624
pool 498958
Info 497308
users 497302
volume 496640
mo@@ 496275
zeros 495306
{}@@ 494926
assertEquals 494725
Text 494641
like 493864
te@@ 493799
flag 493413
old_@@ 493249
events 493028
variable 492904
indices 490789
g_@@ 490732
{} 489655
source_@@ 489504
si@@ 489397
@@@ 489384
2.@@ 489211
part 489161
created 489152
15 488726
messages 488341
Request 488174
min@@ 487262
was 486498
Z@@ 485969
t▯@@ 485553
min_@@ 484980
node_@@ 484603
〖stropenr:'〗 483886
at@@ 483824
reverse 483469
profile 483289
no_@@ 482677
lib 482267
sample 482171
ro@@ 481124
ad@@ 480625
ip@@ 479954
out_@@ 479807
num@@ 479736
attribute 478964
top 478129
loc 478049
payload 477893
key_@@ 476898
buffer 476307
game 476155
total_@@ 476096
\ 475758
configuration 475602
ac@@ 475410
you 474320
comment 473228
〖lf〗@@ 473076
script 472786
hasattr 472518
er 472450
delete_@@ 472075
32 471822
H 471779
image_@@ 470821
schema 470737
b_@@ 470096
before 469526
fname 469322
POST 469309
alpha 469104
sleep 468958
ne@@ 468841
ms 468144
batch 468096
po@@ 467621
space 467558
type_@@ 466878
12@@ 466736
warning 466601
?@@ 465748
30 465669
subprocess 465337
true 465211
9@@ 464757
base_@@ 464735
ns3 464729
change 463613
or@@ 463224
decode 461166
success 460700
v_@@ 460674
tmp 460554
vars 460323
select 460195
requests 459721
repo 459465
commit 459373
ri@@ 458162
K 458147
write_@@ 457996
0x@@ 457279
W 457164
py 456954
zip 455559
de 455060
called 454792
sort 454159
dt 453688
auth 453530
category 453120
layout 453051
S_@@ 452551
weights 452315
check@@ 451444
type@@ 450869
label_@@ 450016
images 449844
+@@ 449295
here 448809
extend 448737
lo@@ 448575
loop 448170
tests 448116
State 447289
TypeError 447128
line_@@ 447117
50 446372
argv 446160
two 445672
or_@@ 444426
We 444390
cell 444230
thread 442710
temp 442625
net 440769
exp 440213
)▯@@ 439412
dumps 439215
sequence 438902
Object 438878
"▯@@ 438593
Size 438264
Index 437941
ed@@ 436979
&@@ 436546
i_@@ 436331
utf-8 435444
List@@ 434647
raises 434275
up@@ 434097
encoding 433185
k_@@ 433067
rate 433012
rule 432698
its 432062
ation@@ 431254
package 430339
environ 430145
show_@@ 430105
driver 429914
〖stropenb:'〗 429911
al_@@ 429762
diff 429120
await 427848
config_@@ 427817
next_@@ 427677
local 427256
as_@@ 427030
util 426522
dim 426364
by_@@ 426012
more 425681
▯-@@ 425566
model_@@ 425384
weight 424642
container 424610
loads 423522
ap@@ 423471
parts 423144
rtype 421055
Model 420850
render 420322
day 420288
path@@ 420214
group_@@ 419860
abs 419643
Key 419397
$ 418856
children 418218
le 417908
details 417692
Button 417301
player 417149
V 416984
local_@@ 416494
information 416199
units 415422
*@@ 414955
vals 414567
do_@@ 414010
unicode 413773
menu 413380
... 410589
read@@ 410490
res@@ 410196
be@@ 409913
GET 409647
node@@ 409629
11@@ 409617
ns 408867
outputs 408668
role 406834
find_@@ 406814
user_id 406634
changed 405840
1. 404675
tr@@ 403726
some 402600
seq 401898
buf 401866
factory 401854
con@@ 400854
\\@@ 400538
__name__ 400086
_serialize 400047
than 400046
]@@ 400025
run@@ 399975
display 399518
Time 399139
actions 398830
ops 398760
end_@@ 398195
words 397447
active 396825
elements 396507
ab@@ 396321
loss 395823
font 395495
done 395471
create@@ 395109
Config 394880
desc 394519
am@@ 394099
interface 393806
login 393327
report 393315
_type 392827
times 391402
fp 391142
contents 391019
policy 390949
com 390943
tokens 390229
site 390227
scope 390087
namespace 390002
The▯@@ 388941
insert 388238
0. 388229
Label 388024
text@@ 387762
end@@ 387327
filters 387049
mp@@ 386515
cluster 386492
path_@@ 385486
event_@@ 385372
assert_@@ 383738
samples 383724
value@@ 383648
start@@ 383629
15@@ 383223
access 382870
)@@ 382680
ui 382616
For 382552
\t@@ 382394
ar 381232
▯is▯@@ 381201
API 380589
entries 380576
sc@@ 380101
signal 379666
NAME 379568
exceptions 379408
filter_@@ 379192
16@@ 378994
ation_@@ 378984
vector 378880
plugin 378691
sql 378220
setUp 377324
%(@@ 376815
〖lf〗▯▯▯▯▯▯▯▯▯▯▯▯@@ 376511
1000 376172
ers 375710
just 375364
available 375096
Count 374807
14@@ 374688
single 374451
region 374432
member 374083
server_@@ 373761
first_@@ 373464
mapping 373453
interval 372797
value_@@ 372277
cr 372084
ls 371986
search_@@ 371854
enabled 371569
seconds 371291
13@@ 371211
init_@@ 371147
pi 370951
txt 370129
ge@@ 369969
org 369968
document 369508
60 369363
code@@ 369177
dirname 369098
train 369085
fs 368990
image@@ 368852
save_@@ 368545
argument 368416
Response 367903
client_@@ 367778
it@@ 367653
se 367638
all@@ 367598
counter 366823
put 366693
fake_@@ 366488
Q 366361
current@@ 366296
opt 366041
`@@ 365964
ate 365519
api_@@ 365346
1▯@@ 365143
00@@ 364698
passed 364497
kw 364455
fit 364445
Z 364300
mod 364265
move 363831
Event 363588
Image 362760
struct 362671
expr 362408
fd 362339
app@@ 362302
dev 361989
sh@@ 361953
print_@@ 361950
</@@ 361907
ce@@ 361566
Message 360396
De@@ 360300
example 358730
file_name 358672
Un@@ 358520
st_@@ 358508
actual 358278
query_@@ 358265
does 357802
for▯@@ 357703
service_@@ 357511
ts@@ 357506
amount 357411
pd 357368
No▯@@ 357246
13 355893
resources 355809
distance 355800
User@@ 355425
iter 354797
entity 354403
o_@@ 354367
remove_@@ 354002
text_@@ 353894
feature 353819
language 353737
may 353479
0.@@ 353456
operation 353337
http://@@ 353255
returned 353243
matches 352793
methods 352662
train_@@ 352484
20@@ 352116
or▯@@ 352011
keyword 351883
send_@@ 351693
vi@@ 351393
fi@@ 351317
sa 351265
reference 351146
url_@@ 350541
char 350166
process_@@ 350033
item_@@ 349948
y▯@@ 349926
0.1 349712
old 349669
19@@ 349326
links 348597
ss@@ 348562
auto@@ 348342
request_@@ 348230
3.@@ 348163
raw_@@ 348105
cl@@ 347540
exc 347414
ext 346758
already 346662
my_@@ 346570
don 346247
on▯@@ 346184
par@@ 346171
dist 345785
commands 345405
summary 345203
Optional 344978
64 344806
wait 344522
center 344316
▯for▯@@ 344240
file_path 344037
Client 343987
sqrt 343731
map@@ 343550
;@@ 343364
error_@@ 343184
collection 343023
ID@@ 342415
〖lf〗▯▯▯▯▯▯▯▯@@ 342197
depth 342188
w_@@ 342101
identifier 341984
and▯@@ 341718
s_to_@@ 341702
product 341092
engine 340925
classes 340656
int@@ 339449
open@@ 339347
Mock 338237
states 337983
dot 337170
red 336521
ex 336390
between 336215
assertFalse 335565
Number 335511
fail 335475
root_module 334752
error@@ 334706
2.0 334568
255 334327
O 333625
ex@@ 333399
0.0@@ 333363
arr 333029
sure 333020
input@@ 332452
map_@@ 332244
ok 331326
'▯@@ 331252
assert@@ 330843
,▯ 330164
with▯@@ 329734
th@@ 328950
index_@@ 328884
layers 328731
ec@@ 328637
▯▯▯▯@@ 328545
T_@@ 328362
ent@@ 328304
show@@ 328058
duration 328056
ch 328005
pid 327521
admin 326713
ci@@ 326658
Dir 326616
lock 326281
url@@ 326142
setup 326083
generate_@@ 325865
upper 325650
storage 325611
delta 325382
KeyError 325088
table_@@ 324851
state_@@ 324559
slug 324524
Status 324480
base@@ 323698
_client 323583
output@@ 323555
credentials 323157
25@@ 322914
post_@@ 322382
Sub@@ 322365
ref@@ 322202
component 321214
cs 321184
arg@@ 320899
="@@ 320885
of_@@ 320870
the@@ 320543
non 320100
var@@ 320066
provided 319931
compile 319905
▯the▯@@ 319843
update@@ 319551
off 319309
::@@ 318710
see 318514
the▯@@ 318283
Any 318271
en 318101
Name@@ 317517
result_@@ 316951
full 316799
strings 316539
er▯@@ 316412
outfile 316400
action_@@ 316265
14 316121
LOG 316020
RE@@ 315964
kind 315910
QtCore 315755
ve@@ 315482
Type@@ 314910
functions 314773
25 314587
30@@ 314475
__class__ 314372
el@@ 314290
18@@ 314016
been 314012
also 313991
tasks 313989
No@@ 313853
last@@ 313669
back 313651
s2 313479
sample_@@ 313393
over 313326
pro@@ 312603
parent_@@ 312354
symbol 311966
date_@@ 311897
stat 311854
so@@ 311848
python 311728
ignore 311513
obj@@ 311394
]▯@@ 311301
tr 311254
field_@@ 311178
{}▯@@ 310999
direction 310882
me 310833
hostname 310776
group@@ 310430
content_type 310395
task_@@ 309892
second 309696
post@@ 309604
json_@@ 309544
Add@@ 309538
ter@@ 309249
io 308985
owner 308875
s1 308677
writer 308399
cur@@ 308356
Group 307773
reader 307239
extra 307138
tensor 306869
property 306339
screen 305825
pack 305727
head 305698
clear 305542
24@@ 304779
master 304639
▯of▯@@ 303881
failed 303838
prop 303766
cols 303705
vm 303664
work 303603
integer 303557
steps 302961
^ 302953
because 302740
el 302700
mi@@ 302361
them 302064
ma@@ 301682
Field 301532
defaults 301405
angle 301159
17@@ 300807
project_@@ 300662
cur 300621
Form 300473
-= 300431
norm 300293
24 300258
endpoint 300174
backend 300151
32@@ 299987
instances 299667
platform 299409
bot 299301
_data 299268
ted 299261
Time@@ 298865
ly 298508
added 298211
unique 298207
40@@ 298096
indent 298050
ic@@ 298037
ms@@ 297742
addWidget 297510
ind 297468
tmp@@ 297424
common 297062
reason 296613
repr 296474
term 296242
In 296228
_P@@ 295988
Column 295836
axes 295803
pr@@ 295693
Manager 295037
an▯@@ 294691
rules 294476
running 294325
ss 294024
host_@@ 293826
course 293417
factor 293041
edges 293000
label@@ 292941
col@@ 292655
selected 292284
control 292105
table@@ 292080
protocol 291756
from▯@@ 291731
initial 291626
From@@ 291447
controller 291247
U 291048
lang 291037
pytest 291000
;▯@@ 290940
down 290894
It 290860
edge 290788
filepath 290663
subject 290540
h_@@ 290476
write@@ 290425
round 290154
src_@@ 289999
provider 289585
records 289167
Table 288759
month 287764
bi@@ 287713
temp@@ 287697
Note 287646
changes 287549
us 287545
job_@@ 287455
ob@@ 287304
author 287272
modules 286903
host@@ 286275
note 285784
use@@ 285774
based 285743
branch 285539
bin 285376
csv 285304
contains 285189
history 284925
transform 284836
coords 284043
channels 283942
ter 283495
period 283150
valid_@@ 282888
counts 282659
dis@@ 282650
message_@@ 282466
top@@ 282154
threshold 282129
seed 281677
v1 281647
days 281520
board 281237
transport 281072
tab 281010
Map 281009
ps 280669
batch_size 280514
Line 280098
series 279552
page_@@ 279532
elem 279289
ations 278948
temp_@@ 278879
sub_@@ 278773
release 278561
t1 278447
load@@ 278428
builder 278283
extra_@@ 278090
compute 278002
format_@@ 277907
they 277889
Result 277746
Class 277730
On@@ 277706
doc@@ 277506
suffix 277319
gtk 277105
64@@ 276794
convert 276655
want 276505
item@@ 276442
ation▯@@ 276197
date@@ 275994
bar@@ 275847
basename 275784
skip 275730
status_@@ 275701
ra@@ 275689
block_@@ 275626
Point 275421
net@@ 275301
long 274987
lib@@ 274902
accept 274669
}▯@@ 274624
al▯@@ 274572
not▯@@ 274472
source@@ 274467
IN@@ 273800
Base@@ 273535
per@@ 273530
environment 273521
sets 273199
dir@@ 273014
proxy 272911
fill 272662
Key@@ 272349
ho@@ 272266
plot_@@ 272142
setting 272083
memory 272026
Qt 271967
https 271419
page@@ 271386
dialog 271385
info_@@ 270990
gen 270983
float32 270778
ta@@ 270480
targets 270464
containing 270330
gen@@ 269895
Widget 269718
per 269457
app_@@ 269426
im@@ 269130
rect 269032
\"@@ 268978
p1 268784
Py@@ 268777
">@@ 268729
z_@@ 268559
E_@@ 268314
assertIn 268314
equal 268160
action@@ 267864
AC@@ 267434
agent 267274
color@@ 267205
warn 267158
x1 267150
assert_equal 267111
reset 266991
redirect 266910
!@@ 266427
original 266406
usage 266375
colors 266141
header_parameters 265274
full_@@ 265255
blocks 264982
choice 264957
{0}@@ 264901
view_@@ 264761
val@@ 264372
reshape 264357
4.@@ 264294
cos 264208
A_@@ 263938
include 263726
row_@@ 263641
return_@@ 263523
50@@ 263385
Construct 263060
s_list 262794
▯-▯@@ 262728
OK 262657
tools 262425
force 262303
area 262246
multi@@ 262129
block@@ 262004
shell 261947
not_@@ 261662
icon 261497
endswith 261289
ref_@@ 261228
Array 261204
ts_@@ 261143
exist 261136
class_@@ 261113
price 260854
if@@ 260798
object_@@ 260377
bo@@ 260328
structure 260061
file▯@@ 259946
progress 259917
generator 259640
freq 259298
port_@@ 259280
_re@@ 259275
Image@@ 259171
signature 259122
es@@ 259000
disable 258855
auth_@@ 258805
ate@@ 258642
.html 258600
radius 258551
>> 258357
〖lf〗▯▯▯▯@@ 258016
operator 257988
error_map 257819
^@@ 257780
2▯@@ 257554
80@@ 257493
setText 257444
register 257292
resource_@@ 257139
tag@@ 257031
setObjectName 256850
eval 256732
server@@ 256709
defined 256516
for@@ 256358
application 256260
expression 255912
constants 255908
zero 255732
event@@ 255665
X_@@ 255599
ver@@ 255554
〖lf〗▯▯▯▯▯▯▯▯▯▯▯▯▯▯▯▯@@ 254857
mat 254757
since 254737
Is@@ 254565
extension 254526
ST@@ 254181
ent 254072
For@@ 253864
ur@@ 253851
Handler 253563
ff@@ 253520
our 253178
both 252980
finally 252881
what 252665
size_@@ 252649
condition 252636
Co@@ 252539
whether 252199
index@@ 251604
le_@@ 251597
he@@ 251431
NotImplementedError 251296
validate 251102
chain 251078
generate 250975
handle_@@ 250810
Update 250590
real 250581
vo@@ 250428
packet 250358
s-@@ 250296
00 250242
>▯@@ 249927
choices 249917
q_@@ 249874
red@@ 249853
updated 249750
apply 249519
track 249422
ul@@ 249379
side 249307
Code 248834
main_@@ 248795
tag_@@ 248787
const 248572
metrics 248480
regex 248428
delay 248424
is▯@@ 248219
missing 247920
correct 247899
fmt 247893
dump 247884
con 247744
response_@@ 247657
testing 247638
multiple 247610
cur_@@ 247508
ut@@ 247292
ver 247264
40 247243
ndarray 246977
remote_@@ 246782
pl@@ 246255
selection 246244
at_@@ 246167
link@@ 246030
instance_@@ 245931
draw 245285
pair 245109
D_@@ 245064
topic 245051
Create@@ 245012
tx 244998
Default 244962
binary 244925
alias 244752
Element 244654
us@@ 244062
fig 243938
message@@ 243897
proc 243716
root_@@ 243634
normal 243555
See 243465
22@@ 243359
setup_@@ 243333
none 243015
metric 242974
age 242749
la@@ 242618
dirs 242582
format@@ 242352
existing 242218
transaction 242072
als 242068
batch_@@ 242067
different 242067
web@@ 242062
com@@ 242051
active_@@ 241833
these 241799
model@@ 241676
Version 241668
_create_@@ 241648
Command 241632
from@@ 241238
Invalid▯@@ 241199
chunk 241105
row@@ 241056
size@@ 241010
fe@@ 240956
template_@@ 240673
26@@ 240539
ag@@ 240515
ca@@ 240348
pipeline_response 240221
components 240140
Mode 240057
flow 240037
%d▯@@ 240035
tables 239944
network_@@ 239739
lat 239687
ip_@@ 239547
invalid 239541
▯%s▯@@ 239506
36@@ 239291
as▯@@ 239141
query_parameters 238471
present 238400
sess 238375
100@@ 238353
search@@ 238352
ct@@ 238201
job@@ 238147
helper 238124
config@@ 237976
about 237868
custom_@@ 237753
DE@@ 237659
les 237432
Action 237391
null 237386
View 236824
cb 236546
3_@@ 236350
DB 236057
target@@ 235865
sources 235854
make@@ 235652
pt 235519
cr@@ 235502
disk 235405
▯in▯@@ 235349
\t 235119
Log@@ 235039
vs 235005
res_@@ 234992
link_@@ 234827
ve 234768
props 234225
rc 234153
wrapper 233713
bucket 233553
sp 233426
bits 233395
gf 233355
sep 233139
gs 232928
Text@@ 232776
5.@@ 232644
33@@ 232404
22 232359
calls 232351
inter@@ 231935
t.@@ 231923
▯▯▯@@ 231833
27@@ 231790
fa@@ 231783
DIR 231678
noqa 231619
▯%s 231543
false 231492
print@@ 231363
state@@ 231354
dx 231221
remote 231176
gl@@ 231173
ted@@ 231043
DB@@ 230873
With@@ 230863
int_@@ 230736
d.@@ 230723
field@@ 230717
lists 230526
21 230492
match_@@ 230410
through 230407
trace 230379
save@@ 230340
v2 230330
Error@@ 230240
%d 229940
Page 229864
t2 229830
dict_@@ 229796
Color 229359
s. 229247
custom 229104
ones 228885
te 228805
dst 228707
Context 228692
doesn 228534
frame_@@ 228376
To 228327
Make 228311
test_get_@@ 228266
os@@ 228139
deserialized 228108
validate_@@ 228058
origin 227639
bin@@ 227610
ds@@ 227511
x2 227410
slice 226946
bit@@ 226854
version@@ 226745
AL@@ 226684
34@@ 226657
L_@@ 226577
global_@@ 226538
cache_@@ 226445
sent 226380
scores 226296
old@@ 226197
foo@@ 226133
// 226012
speed 225730
Node@@ 225722
api_version 225505
support 225430
other_@@ 225305
fo@@ 225073
ports 224797
urls 224748
hex 224464
string_@@ 224107
gr@@ 223981
17 223889
numbers 223661
count_@@ 223129
low 222960
without 222627
back@@ 222619
go@@ 222564
constant 222276
18 222163
retry 222091
sid 221947
img_@@ 221820
var_@@ 221689
th 221687
M_@@ 221668
ar_@@ 221633
gi@@ 221607
kernel 221466
device_@@ 221396
coordinates 221383
Con@@ 221122
%s.@@ 221005
C_@@ 220954
tx@@ 220656
_p@@ 220574
param@@ 220349
im 220189
Frame 219479
cp@@ 219459
able@@ 219383
task@@ 219372
strftime 219153
cost 218838
ment 218836
cmd_@@ 218585
edit 218464
rank 218441
application/json 218313
su@@ 218292
35@@ 218275
Factory 218263
AttributeError 218176
_check_@@ 218138
Variable 218024
rec 218000
der 217948
verify 217815
〖stropenb:"〗 217786
pe@@ 217733
register_@@ 217602
ks 217426
change_@@ 217413
std 217397
add_option 217214
code_@@ 217161
Service@@ 217159
specific 217145
version_@@ 217086
deleted 217052
char@@ 217043
either 217022
build@@ 216995
2. 216922
Str 216900
hosts 216782
ad 216773
Python 216747
command_@@ 216527
sock 216230
needed 216062
bit 215866
module_@@ 215824
inst 215575
arange 215423
Entry 215271
DataFrame 215119
Service 215075
la 215030
work@@ 215029
df@@ 214900
〖stropen:'''〗 214852
click 214833
Session 214824
jobs 214798
404 214506
44@@ 214248
pairs 214046
assert_called_once_with 213918
sin 213884
isfile 213841
pages 213828
card 213793
256 213676
Group@@ 213634
DEFAULT_@@ 213563
open_@@ 213381
An 213305
Dialog 213274
local@@ 213022
services 212783
way 212718
RuntimeError 212678
il@@ 212610
within 212364
info@@ 212305
child_@@ 212182
Log 211942
29@@ 211847
has@@ 211752
complete 211592
obj_@@ 211501
99@@ 211494
cc@@ 211480
Start 211460
_path 211302
instead 211284
Token 211273
et@@ 211157
header_@@ 211108
t_id 211053
60@@ 211001
Input 210913
default@@ 210870
form@@ 210755
content_@@ 210746
tab@@ 210662
512 210582
person 210407
to▯@@ 210183
ratio 210128
devices 209981
Event@@ 209911
ast 209827
Obj 209693
ator 209455
Value@@ 209328
destination 209318
No 209247
pygame 209122
change@@ 209098
mesh 209070
per_@@ 209037
div 209023
ke@@ 208999
id▯@@ 208908
23 208890
flush 208716
Date 208708
39@@ 208658
80 208613
call_@@ 208466
zone 208442
otherwise 208412
m▯@@ 208295
store_true 208257
view@@ 208122
figure 208034
sec 207984
Line@@ 207967
AT@@ 207966
non@@ 207934
br@@ 207890
answer 207801
program 207792
callable 207667
Config@@ 207632
google 207626
es_@@ 207574
prev_@@ 207532
Window 207506
of@@ 207169
DEBUG 206978
coord 206674
400 206659
Parser 206353
p2 206312
random_@@ 206259
ph@@ 206226
.png 206145
translate 206085
warnings 206059
pp@@ 205820
Base 205800
timedelta 205797
ax@@ 205786
6.@@ 205375
SE@@ 205362
Use 205335
pi@@ 205237
no▯@@ 205005
A▯@@ 204903
boolean 204858
this▯@@ 204655
astype 204467
se_@@ 204271
report_@@ 204180
bounds 203759
token_@@ 203573
secret 203463
ma 203403
frames 203259
〖stropenr:"〗 203143
ste@@ 203079
string@@ 203064
tmp_@@ 202997
37@@ 202988
Output 202954
packages 202941
select_@@ 202927
%d@@ 202919
comments 202747
gen_@@ 202713
All 202490
ER_@@ 202440
result@@ 202411
um@@ 202283
QtWidgets 202144
TYPE_@@ 202094
set▯@@ 202036
clean 201971
canvas 201932
200@@ 201779
include_@@ 201693
snapshot 201542
tt@@ 201502
following 201366
Run 201319
resource_group_name 201297
session_@@ 201224
cc 201173
sender 201169
qu@@ 201058
display_@@ 201040
_de@@ 200922
definition 200880
feature_@@ 200705
stop_@@ 200692
reply 200510
draw@@ 200499
89@@ 200407
theta 200041
msg_@@ 200015
%s/@@ 199820
re_@@ 199560
codes 199535
ed_@@ 199315
original_@@ 199282
main@@ 199082
Filter 198999
ai@@ 198983
form_@@ 198869
beta 198632
ated 198600
padding 198360
mat@@ 198328
volume_@@ 198311
color_@@ 197934
parent@@ 197934
async 197866
49@@ 197613
=▯@@ 197537
go 197494
lon 197390
browser 197325
geo@@ 197236
()@@ 197168
Function 197017
01 196900
IP@@ 196786
Model@@ 196678
dat@@ 196659
initial_@@ 196525
vm_@@ 196490
Object@@ 196461
trans 196368
JSON 196347
ER@@ 196060
Options 195985
du@@ 195780
lookup 195745
repository 195742
download 195737
56@@ 195573
video 195551
library 195434
\'@@ 195265
rs 195254
rb 195185
maximum 195180
href 195169
Item@@ 194959
vec 194840
1) 194823
revision 194698
one@@ 194617
nn 194607
ep@@ 194421
Open@@ 194415
one_@@ 194286
timer 194062
marker 194035
versions 193993
until 193958
86@@ 193920
findall 193905
members 193747
57@@ 193614
cat 193608
updates 193385
90 193338
detail 193325
xml@@ 193322
exp@@ 193292
my 193241
can@@ 193146
world 193135
net_@@ 193134
json@@ 192885
bins 192861
Check@@ 192860
final_@@ 192808
Y_@@ 192803
str_@@ 192786
col_@@ 192762
19 192627
find@@ 192543
positions 192521
route 192510
y1 192421
allow_@@ 192144
basis 192039
77@@ 191983
data▯@@ 191956
28@@ 191846
azure 191799
traceback 191797
match@@ 191752
at▯@@ 191699
val_@@ 191642
if_@@ 191530
SP@@ 191484
Box 191468
docs 191452
this_@@ 191373
ns@@ 191371
My@@ 191309
s▯to▯@@ 191043
TYPE 191009
column_@@ 190991
sn@@ 190771
project_id 190763
ment@@ 190647
Path@@ 190630
0_@@ 190509
being 190339
dir_@@ 190270
500 190238
split_@@ 190226
70@@ 190159
av@@ 190107
ni@@ 189910
send@@ 189717
IP 189700
best_@@ 189532
left_@@ 189372
bu@@ 189133
stop@@ 189099
port@@ 188826
ignore_@@ 188775
https://@@ 188587
eq_ 188402
place 188267
cluster_@@ 188173
sign 188100
threads 187983
previous 187920
filter@@ 187629
many 187600
always 187582
ings 187480
priority 187455
Gtk 187420
bottom 187364
E501 187316
cm 187179
ct 187133
glob 187112
parsed 187070
possible 186991
90@@ 186952
P_@@ 186656
ce 186313
remove@@ 186269
begin 186265
\n\n 186149
String@@ 186055
▯and▯@@ 186027
〖stropenf:"〗 185865
start_time 185853
import_@@ 185797
win 185762
ws 185761
op_@@ 185707
able_@@ 185705
install 185547
step_@@ 185543
cb@@ 185537
1/@@ 185468
0▯@@ 185461
parse@@ 185321
cm@@ 185314
comp@@ 185210
tri@@ 185047
compute_@@ 184963
47@@ 184951
SI@@ 184757
um 184698
box@@ 184647
55@@ 184550
31 184535
And@@ 184478
AR@@ 184392
service@@ 184381
bind 184372
keep 184299
Tag 184215
their 184207
ERROR 183797
Params 183641
UN@@ 183572
home 183567
ff 183546
selected_@@ 183521
_set_@@ 183496
def@@ 183451
admin_@@ 183448
Of@@ 183378
Id@@ 183197
><@@ 183075
Invalid@@ 182983
reg 182912
box_@@ 182820
42 182781
Remove 182711
sigma 182704
randint 182676
training 182674
top_@@ 182517
c1 182213
Width 182200
.txt 182192
ce_@@ 182030
Names 181866
cell_@@ 181862
LE@@ 181807
dimension 181795
sync 181752
blank 181565
88@@ 181458
mu@@ 181432
oprot 181418
FLAGS 181386
distribution 181190
setattr 181156
merge 181087
layer_@@ 181072
http_@@ 181048
expect 180979
ll 180946
problem 180817
New@@ 180728
non_@@ 180616
logs 180499
pylint 180468
point@@ 180437
AS@@ 180423
des 180399
loader 180391
48@@ 180378
-▯@@ 180218
cv2 180130
DI@@ 180103
tion 180026
an_@@ 179965
En@@ 179579
_config 179541
span 179528
dims 179497
email_@@ 179408
polling 179371
rest 179371
SC@@ 179177
worker 179138
over@@ 179019
qs 178988
byte 178739
{0} 178591
total@@ 178558
img@@ 178492
:▯{} 178457
lin@@ 178425
power 178315
38@@ 178184
__str__ 177884
account_@@ 177638
abspath 177618
uni@@ 177616
identity 177482
66@@ 177358
SELECT▯@@ 177325
means 177312
frequency 177281
iterator 177227
mod@@ 177179
content@@ 177166
plugins 177127
Layer 177089
pad 176995
os_@@ 176916
59@@ 176870
edit_@@ 176683
rv 176676
proto 176556
token@@ 176449
allowed 176293
mu 176289
shift 176238
le▯@@ 176224
once 176183
de_@@ 176180
pos_@@ 176101
ir@@ 176032
background 176014
high 175908
channel_@@ 175903
t-@@ 175850
Query 175745
1024 175728
Menu 175704
yaml 175619
Input@@ 175524
ev@@ 175347
IOError 175237
che@@ 175131
ates 174919
ses 174860
dd@@ 174847
fetch 174755
ol@@ 174599
categories 174596
67@@ 174554
how 174520
removed 174495
feed 174463
SIZE 174434
fh 174368
By@@ 174360
order_@@ 174315
param_@@ 174265
storage_@@ 174217
test▯@@ 174065
xml_@@ 174003
tool 173966
pickle 173938
u_@@ 173878
Address 173795
record_@@ 173702
msg@@ 173683
question 173622
au@@ 173499
we@@ 173497
Settings 173371
AD@@ 173341
s,▯@@ 173276
Error▯@@ 173163
sig 173061
shutil 173059
cor@@ 173019
supported 172993
grid_@@ 172956
algorithm 172923
sr@@ 172891
cat@@ 172862
ns3::@@ 172599
cloud 172584
dimensions 172562
unit_@@ 172487
mon@@ 172444
Thread 172396
machine 172348
chars 172296
st▯@@ 172285
pkg 172255
sig@@ 172241
right_@@ 172077
ling 171958
〖lf〗▯▯▯▯▯▯▯▯▯▯▯▯▯▯▯▯▯▯▯▯@@ 171920
ted_@@ 171870
win@@ 171841
entry_@@ 171837
modified 171483
course_@@ 171411
AB@@ 171361
cu@@ 171341
button_@@ 171285
rel@@ 171251
six 171224
K_@@ 170860
statement 170825
Run@@ 170768
final 170495
Read 170435
Connection 170348
s_dict 170321
exclude 170273
da@@ 170227
force_@@ 170117
Url 170104
ans 170089
cf@@ 169986
sc 169883
plot@@ 169715
8.@@ 169600
bs 169595
hash@@ 169542
registry 169485
upload 169330
lst 169321
next@@ 169240
md 169189
panel 168976
stat@@ 168933
of▯@@ 168893
CC@@ 168887
issue 168852
plugin_@@ 168827
failure 168735
forms 168695
terms 168659
validation 168646
ING 168620
src@@ 168531
copy_@@ 168438
Server 168169
phase 168128
clicked 168124
▯%@@ 168089
ly@@ 168023
Tests 167975
your 167961
title@@ 167903
can_@@ 167873
loc@@ 167705
EN@@ 167657
act 167656
word_@@ 167535
checks 167497
operations 167352
arrays 167348
array_@@ 167146
simple 167123
CH@@ 167121
queryset 167044
client@@ 166944
empty_@@ 166933
segment 166847
auto 166803
nan 166602
cs@@ 166534
request@@ 166512
1-@@ 166479
cert 166399
generated 166336
unit@@ 166327
mode@@ 166301
fun@@ 166230
init@@ 166177
unpack 166135
Ex@@ 166101
vm@@ 166089
pipeline 165997
spec@@ 165818
Only 165710
iter@@ 165593
attrib 165536
_test_@@ 165515
permissions 165509
first@@ 165417
resource@@ 165383
Pre@@ 165251
mm 165213
let 165134
__dict__ 165129
html_@@ 164934
has_key 164908
auto_@@ 164850
ali@@ 164802
actual_@@ 164735
would 164605
locale 164597
partition 164552
KEY 164436
PIPE 164382
entities 164355
stream@@ 164355
graph@@ 164277
HTTP 164160
single_@@ 164139
der@@ 164108
dr@@ 164073
0.2 163997
ser 163964
af@@ 163946
tree_@@ 163913
a.@@ 163752
character 163646
atom 163637
69@@ 163589
Update@@ 163551
cells 163548
extract_@@ 163518
metadata_@@ 163511
scheme 163504
call@@ 163456
xs 163437
raw@@ 163421
Format 163388
k▯@@ 163385
git 163355
video_@@ 163330
Server@@ 163295
Sets 163268
ii 163158
ter_@@ 163119
Multi@@ 163111
man@@ 163062
Length 162955
.com/@@ 162828
sd@@ 162811
cd@@ 162782
When 162764
api@@ 162740
.0 162721
runner 162701
process@@ 162434
scene 162368
grad 162357
ent_@@ 162257
87@@ 162232
cnt 162154
corresponding 161991
=%s 161982
tree@@ 161958
ted▯@@ 161821
levels 161808
dependencies 161759
order_by 161737
bl@@ 161705
stream_@@ 161568
3▯@@ 161551
graph_@@ 161545
sizes 161441
play@@ 161416
orm 161287
wi@@ 161268
J 161211
Message@@ 161194
err@@ 161145
move_@@ 161086
tile 161026
team 161006
point_@@ 160988
OR@@ 160870
ba@@ 160737
|▯@@ 160732
extract 160649
enable 160476
every 160440
的@@ 160434
product_@@ 160357
Field@@ 160296
geometry 160103
epoch 160096
collections 160059
#▯@@ 160022
ate_@@ 159890
public 159818
Resource@@ 159725
forward 159702
mark 159653
hook 159616
Num 159510
pa@@ 159327
__ 159273
Search@@ 159222
c▯@@ 159190
book 159185
7.@@ 159150
io@@ 159114
device@@ 159038
Location 158792
frame@@ 158780
root@@ 158767
F_@@ 158765
urllib 158752
auth@@ 158750
XML 158580
verify_@@ 158510
Mo@@ 158491
123 158474
led 158447
ut 158413
access_@@ 158397
comp 158370
isdir 158369
ord 158216
loaded 158209
pre 158174
tool@@ 158165
cast 158128
Instance 157985
it▯@@ 157881
arch 157708
convert_@@ 157647
Ch@@ 157539
lf@@ 157517
the_@@ 157498
dic 157469
AN@@ 157467
cp 157318
Header 157266
meta@@ 157099
rec@@ 157000
ting 156993
mb@@ 156784
S▯@@ 156767
atoms 156689
trans@@ 156657
class@@ 156582
Read@@ 156563
inf@@ 156506
all▯@@ 156493
FILE 156411
web 156377
option@@ 156329
ins 156289
allow 156257
ED 156221
command@@ 156148
filenames 156141
s:▯@@ 156137
ig@@ 156116
//@@ 156092
sa@@ 156071
x0 155932
s:@@ 155851
mac 155713
ge 155580
Task 155531
handlers 155358
Client@@ 155341
js 155301
_C@@ 155267
roles 155261
most 155255
ler 155208
header@@ 155201
Tensor 155123
double 155117
name▯@@ 155064
context_@@ 154987
arg_@@ 154973
ON@@ 154920
Series 154901
contact 154832
Values 154808
AP@@ 154731
▯{@@ 154690
df_@@ 154672
RO@@ 154632
ID_@@ 154630
128 154627
td 154595
ness 154531
Write 154492
site_@@ 154491
take 154437
connections 154421
system_@@ 154184
templates 154135
pdf 154119
policy_@@ 154082
router 154034
by▯@@ 154011
cpu 153979
cal@@ 153948
_fromUtf8 153933
query@@ 153900
*▯@@ 153895
keywords 153812
e▯@@ 153731
site@@ 153701
Output@@ 153637
{0}▯@@ 153613
ml@@ 153464
wb 153445
mp 153377
ated_@@ 153344
54@@ 153248
sample@@ 153245
count@@ 153139
must▯be▯@@ 153085
word@@ 153083
l▯@@ 153009
scalar 152993
_is_@@ 152960
path_format_arguments 152928
tid 152768
Types 152633
am 152632
object@@ 152567
StringIO 152533
000@@ 152409
servers 152382
Di@@ 152344
skip_@@ 152309
locations 152151
your▯@@ 152086
dy 152028
PATH 151976
title_@@ 151924
sh 151836
Pos 151744
export_@@ 151735
by@@ 151684
parse_args 151625
gamma 151622
clean_@@ 151567
car@@ 151524
Position 151513
shared 151480
family 151477
cmd@@ 151450
unknown 151431
▯--@@ 151388
<< 151357
Source 151271
override 151267
cl 151212
cleaned_data 151170
4_@@ 151169
c2 151099
render_@@ 150955
ps@@ 150945
Queue 150809
fr@@ 150670
internal 150643
standard 150612
▯is▯not▯@@ 150501
9.@@ 150439
tm 150381
hidden 150373
2d 150365
less 150330
sel 150252
new▯@@ 150208
level@@ 150157
Per@@ 150094
icon@@ 149981
Table@@ 149939
best 149913
store_@@ 149912
sk@@ 149847
above 149708
TEST_@@ 149695
./@@ 149503
iprot 149472
)s@@ 149374
nu@@ 149367
Do@@ 149295
dev@@ 149187
closed 149162
apply_@@ 149099
tmpdir 149095
bb@@ 149035
star@@ 148922
button@@ 148820
could 148747
hash_@@ 148731
nx 148708
1,@@ 148602
pos@@ 148558
ant 148544
reg@@ 148443
add_class 148425
switch 148405
Method 148397
via 148260
cases 148190
AM@@ 148071
fake 148062
head@@ 147995
sum@@ 147984
Matrix 147977
uses 147904
ic 147887
visible 147698
connected 147674
exp_@@ 147644
symbols 147589
download_@@ 147520
x▯@@ 147409
lat@@ 147394
ner 147371
seq@@ 147359
s▯(@@ 147262
move@@ 147257
IC@@ 147113
Content 147106
insert_@@ 147073
timezone 147012
__file__ 146993
eq 146977
energy 146976
evaluate 146976
linear 146904
bad_@@ 146748
enable_@@ 146709
97@@ 146659
Ã@@ 146519
full@@ 146508
future 146445
hi@@ 146354
Description 146215
such 146184
func_@@ 146175
scale_@@ 146120
State@@ 146113
widgets 146094
pc 146086
INFO 146082
{1}@@ 145935
finished 145933
Integer 145877
ctypes 145834
characters 145786
Raises 145780
END 145769
N_@@ 145703
return@@ 145702
Files 145636
Â@@ 145498
int32 145471
Load 145466
y.@@ 145435
http://www.@@ 145261
surface 145171
hour 145159
archive 145139
WHERE▯@@ 145095
readline 145059
ance 145045
AG@@ 145026
configure 144992
84@@ 144938
req_@@ 144938
export 144928
ds_@@ 144907
stdin 144842
y2 144830
invalid_@@ 144797
ty 144794
o▯@@ 144782
ary 144772
trigger 144702
_to_@@ 144673
static 144651
prob 144632
media 144595
28 144562
Source@@ 144504
partial 144469
CO@@ 144445
scan 144427
this@@ 144388
R_@@ 144258
limits 144202
average 144163
B_@@ 144016
country 143939
Task@@ 143927
cwd 143887
Gets 143875
rep@@ 143793
editor 143740
Range 143624
relative 143611
number_@@ 143598
TI@@ 143575
too 143534
conditions 143412
initialize 143270
__repr__ 143214
_file 143196
dest_@@ 143171
Or@@ 143142
tor@@ 143115
notes 143111
addresses 143103
Out@@ 143043
menu@@ 143043
ded 142994
associated 142958
number_of_@@ 142912
%s\n 142881
G_@@ 142869
game_@@ 142859
LI@@ 142846
inf 142794
End 142674
NO@@ 142595
profile_@@ 142579
Popen 142482
fl@@ 142403
pt@@ 142350
emit 142307
rev 142143
Info@@ 142112
TO@@ 142034
d1 142023
makedirs 141968
lu@@ 141930
expand 141912
constraints 141809
ES 141744
today 141727
Vector 141714
TH@@ 141580
Tuple 141575
〖stropenf:'〗 141574
et 141570
direct 141447
ue@@ 141309
address_@@ 141282
package_@@ 141275
cn@@ 141253
indexes 141217
upload_@@ 141158
doc_@@ 141084
another 141039
sim 140966
s_per_@@ 140946
fetch_@@ 140934
Template 140865
View@@ 140862
46@@ 140853
ON 140844
Resource 140826
cli 140819
45@@ 140810
vertices 140793
and@@ 140771
orig_@@ 140736
quote 140704
pre_@@ 140679
activity 140658
Process 140622
instance@@ 140485
_get@@ 140471
rule@@ 140418
App@@ 140269
layer@@ 140161
300 140145
etc 140143
representation 140080
rp@@ 139961
Store 139898
sm@@ 139844
stage 139781
Page@@ 139680
listdir 139565
ret@@ 139496
23@@ 139328
up_@@ 139248
responses 139226
sy@@ 139214
Example 139203
below 139190
__call__ 139142
s▯for▯@@ 139139
s3 139109
Title 139049
dates 139049
selector 138981
dst_@@ 138954
max_length 138945
contain 138896
tion@@ 138818
status@@ 138723
Device@@ 138683
phi 138672
ch_@@ 138640
26 138621
private 138579
ated@@ 138529
red_@@ 138503
png 138458
down@@ 138454
sw@@ 138327
r1 138101
serial 138075
put_@@ 138058
eval_@@ 138039
\u0@@ 137962
order@@ 137915
formats 137824
Max@@ 137823
Failed▯to▯@@ 137777
projects 137762
wrap 137753
0.00@@ 137742
number@@ 137697
m1 137666
constraint 137638
a1 137593
ne_@@ 137550
Link 137509
Handle 137489
yes 137423
blob 137383
draw_@@ 137364
previous_@@ 137341
Not@@ 137336
Request@@ 137246
share 137200
xpath 137190
return▯@@ 137136
ating 137065
_add_@@ 136913
attr@@ 136902
Convert 136896
align 136854
real_@@ 136824
flow_@@ 136808
gui 136806
ru@@ 136785
diff@@ 136781
element@@ 136509
dataset_@@ 136469
permission 136439
́@@ 136421
ER 136391
ready 136328
ments 136287
cap@@ 136268
MP@@ 136100
obs 135977
slot 135922
Graph 135785
QApplication 135754
rstrip 135732
resolution 135724
suite 135701
hours 135614
install_@@ 135603
cre@@ 135586
chunks 135552
s_by_@@ 135532
Po@@ 135422
\n\n@@ 135405
started 135391
Tree 135370
missing_@@ 135311
prev 135287
calculate 135201
retval 135121
grid@@ 135041
function@@ 134934
existing_@@ 134834
ors 134818
sql_@@ 134785
method_@@ 134781
cmds 134756
mem 134701
{:@@ 134593
Sequence 134553
fix 134531
Auto@@ 134480
stored 134437
extensions 134331
track@@ 134285
analysis 134234
short 134218
solution 134195
da 134184
md@@ 134162
yp@@ 134124
refs 134083
Pro@@ 134062
master_@@ 133991
age@@ 133958
queue_@@ 133831
mean_@@ 133767
Map@@ 133621
views 133554
mask_@@ 133506
strategy 133499
33 133490
den@@ 133472
precision 133443
sync_@@ 133418
Row 133417
email@@ 133414
es▯@@ 133405
tu@@ 133233
OSError 133183
game@@ 133058
margin 133055
ze@@ 133034
package@@ 133027
27 132953
mail 132934
refresh 132854
exc_info 132720
deepcopy 132666
requested 132655
received 132583
AL 132555
room 132491
imp@@ 132383
s_for_@@ 132245
base_url 132171
bias 132169
tuples 132168
pass@@ 132127
common_@@ 131996
Web@@ 131930
ES@@ 131926
article 131863
As@@ 131852
Network@@ 131769
function_@@ 131760
Helper 131735
disabled 131720
field_name 131715
▯▯▯▯▯▯▯▯@@ 131631
xy 131621
Find 131541
PO@@ 131492
delete@@ 131350
inv 131338
rule_@@ 131329
co 131227
off@@ 131178
ned 131154
argparse 131129
Initialize 131105
safe_@@ 130966
nb_@@ 130953
sections 130946
something 130937
shared_@@ 130841
was▯@@ 130784
Delete 130749
ence 130707
CONF 130695
predictions 130654
window_@@ 130653
ValidationError 130615
tz 130548
cookie 130459
descriptor 130395
nb@@ 130329
Now 130294
column@@ 130276
quality 130248
bus 130242
flat 130234
nd@@ 130227
3.0 130203
login_@@ 130189
tex@@ 130185
setdefault 130180
ext@@ 130151
fc@@ 130143
soup 130096
Generate 130063
mem@@ 130042
Changed 130027
:▯{@@ 129945
dn 129933
Dis@@ 129910
Job@@ 129875
curr_@@ 129857
merge_@@ 129796
bound 129785
special 129769
Content-Type 129761
0000@@ 129746
sol@@ 129699
='@@ 129664
nt 129647
>\n 129533
subnet 129361
clear_@@ 129355
notification 129339
step@@ 129275
Op@@ 129237
sheet 129199
still 129182
Instance@@ 129172
saved 129137
ser@@ 129132
en_@@ 129095
〖tab〗@@ 128981
avoid 128961
cond 128950
type▯@@ 128934
parameter@@ 128931
minimum 128833
schedule 128797
1.0@@ 128796
Start@@ 128786
ons 128765
vol@@ 128750
fil@@ 128622
d-@@ 128551
disk_@@ 128493
configs 128476
IndexError 128343
Port 128308
58@@ 128241
Layout 128234
der_@@ 128227
asarray 128200
By 128115
locals 128111
ndim 128093
seek 128091
edge_@@ 128076
right@@ 128058
entity_@@ 128041
after_@@ 128020
maps 127986
byte@@ 127941
+▯@@ 127921
Items 127901
citation 127886
tk 127858
element_@@ 127836
side_effect 127812
only▯@@ 127775
matching 127740
escape 127725
tempfile 127677
ents 127631
env_@@ 127550
This▯@@ 127474
ran@@ 127322
cannot 127305
scan_@@ 127298
needs 127178
lo 127155
nullable 127155
2D 127138
ze 127083
ate▯@@ 127080
push 126981
An@@ 126974
vol 126817
dc 126810
installed 126796
rel 126758
MagicMock 126650
_list 126585
backup 126584
share_@@ 126546
All@@ 126415
is_valid 126390
again 126355
fid 126347
meta_@@ 126301
even 126265
br 126257
domain_@@ 126227
assertAlmostEqual 126199
reset_@@ 126139
si 126108
free 126067
kw@@ 126056
cli@@ 126036
bin_@@ 125995
s_from_@@ 125908
serializer 125885
Creates 125878
lineno 125870
data/@@ 125856
works 125761
public_@@ 125685
tol 125677
md5 125600
well 125586
dom 125553
d2 125544
Call 125509
re▯@@ 125480
000 125476
range_@@ 125458
mis@@ 125456
Save 125445
utf8 125443
if▯@@ 125395
MAX_@@ 125374
f1 125359
ys 125345
ner@@ 125330
0.01 125282
pp 125259
Le@@ 125238
compare 125214
em@@ 125210
metavar 125209
deps 125174
ml 125053
g▯@@ 125045
drop 125001
cache@@ 124984
35 124906
SO@@ 124821
\.@@ 124668
table_name 124649
later 124617
ke 124594
Ã 124529
diff_@@ 124449
pred 124418
iterable 124338
complex 124329
79@@ 124232
quantity 124154
assertIsInstance 124146
cell@@ 124127
ck 124070
unique_@@ 124004
Record 123938
fit_@@ 123910
stub 123845
organization 123815
MO@@ 123800
parents 123793
sto@@ 123770
runs 123738
not@@ 123720
segments 123694
Index@@ 123686
mc 123680
connection_@@ 123639
Be@@ 123607
dat 123607
were 123462
('@@ 123432
negative 123359
attr_@@ 123337
prompt 123252
Test▯@@ 123231
activation 123202
examples 123195
player_@@ 123171
Arguments 123160
iterations 123139
sym 123065
big@@ 123057
tb 123039
with@@ 123019
Action@@ 123015
ari@@ 123007
Fake@@ 122909
ic_@@ 122902
fixed 122835
minutes 122833
Lo@@ 122719
ascii 122709
Build@@ 122657
container_@@ 122617
actor 122615
Ref 122569
rotation 122504
de▯@@ 122488
ck@@ 122456
2) 122408
necessary 122394
be▯@@ 122370
pri@@ 122359
temperature 122256
'%s'▯@@ 122242
sed 122152
prop@@ 122145
Status@@ 122141
Button@@ 121926
*= 121919
iteration 121894
css 121852
listener 121777
Point@@ 121758
etree 121628
Level 121579
▯[@@ 121577
location_@@ 121574
Command@@ 121454
Default@@ 121446
_make_@@ 121361
Results 121228
seq_@@ 121209
pk@@ 121172
2-@@ 121145
ub@@ 121129
Query@@ 121113
module@@ 121050
gene@@ 121041
body_@@ 121017
Property 120989
Parse 120942
static_@@ 120875
void 120848
console 120788
m2 120762
-0@@ 120755
threading 120716
sort_@@ 120663
65@@ 120657
legend 120623
acc 120594
dev_@@ 120555
fac 120519
Size@@ 120517
related 120439
http@@ 120422
opt_@@ 120379
thumbnail 120350
currently 120348
yet 120342
FI@@ 120332
Box@@ 120301
ten@@ 120290
mid 120245
36 120240
ALL 120225
results_@@ 120215
dep@@ 120144
id=@@ 120131
pixels 120097
tra@@ 120054
.py 119949
s_path 119916
sel@@ 119916
cv 119859
02@@ 119848
ta 119778
ters 119579
good 119467
W_@@ 119428
NOTE 119406
group_id 119369
dict@@ 119312
IDs 119301
display@@ 119297
AA@@ 119295
IN 119276
Build 119258
bad 119215
ca 119196
apps 119054
workspace 118996
0) 118989
gradient 118968
normalize 118905
Parameter@@ 118810
Label@@ 118780
safe 118707
n▯@@ 118640
template@@ 118614
▯"@@ 118603
Spec 118541
play 118528
Class@@ 118389
len@@ 118339
HTTP@@ 118321
rxn 118309
s▯in▯@@ 118298
html@@ 118263
response@@ 118231
ty@@ 118129
control_@@ 118069
Block 118063
notify 118008
session@@ 117989
del@@ 117952
HTML 117861
city 117815
ed▯@@ 117813
r2 117788
_parse_@@ 117720
optimizer 117716
led@@ 117710
import_from_module 117700
tur@@ 117671
mass 117589
git_@@ 117561
Parameter 117501
nick 117497
key▯@@ 117459
sum_@@ 117450
tx_@@ 117416
%s,▯@@ 117414
pg@@ 117343
least 117340
monitor 117333
clone 117329
Tag@@ 117305
constructor 117261
spaces 117242
left@@ 117231
those 117205
case@@ 117183
_meta 117179
sorted_@@ 117117
{1} 117096
75 117008
processes 116996
45 116957
ment_@@ 116893
0,@@ 116867
percent 116864
E▯@@ 116856
_translate 116823
score_@@ 116800
_update_@@ 116665
eps 116646
cleanup 116629
length@@ 116593
gp@@ 116584
translation 116544
li 116515
proxy_@@ 116512
sts 116424
St@@ 116343
() 116337
urllib2 116299
external_@@ 116269
1.5 116206
SS@@ 116152
player@@ 116123
pl 116115
Local@@ 116110
actually 116090
requires 116053
tail 116043
ensure 116033
T▯@@ 115999
menu_@@ 115997
boxes 115958
typ 115957
Cache 115943
ptr 115912
only_@@ 115843
PRO@@ 115804
Order 115788
TS 115743
("@@ 115726
ati@@ 115719
Int 115671
29 115666
EC@@ 115635
solver 115625
Height 115617
stack_@@ 115527
conv 115516
Ad@@ 115509
_deserialize 115500
runtime 115495
tion_@@ 115388
predict 115362
OrderedDict 115280
85@@ 115225
might 115218
active@@ 115212
agent_@@ 115180
green 115158
Code@@ 115148
man 115131
DATA 115089
.*@@ 115086
vectors 115083
connect_@@ 115080
Project 115039
Al@@ 114963
Unable▯to▯@@ 114955
bd@@ 114938
chr 114935
10.@@ 114878
dn@@ 114713
define 114638
repo@@ 114594
players 114538
formatter 114452
dump@@ 114422
%s_@@ 114418
close_@@ 114396
mx 114359
API@@ 114348
buttons 114346
close@@ 114337
reference_@@ 114298
mar@@ 114284
\\ 114235
Color@@ 114221
positive 114208
dummy 114189
inner 114123
dc@@ 114104
serialize 114049
Me@@ 114035
t_name 114000
D▯@@ 113952
push@@ 113947
range@@ 113937
mkdir 113848
mod_@@ 113827
start_date 113825
globals 113805
tar@@ 113797
\〖lf〗@@ 113793
04@@ 113761
ED@@ 113744
mini@@ 113723
ance@@ 113707
placeholder 113691
encoded 113645
34 113638
import@@ 113594
ix 113581
par 113530
channel@@ 113519
conv@@ 113518
1:@@ 113451
act@@ 113434
Â 113427
test-@@ 113422
iter_@@ 113389
fix@@ 113372
ling@@ 113350
queries 113307
ator@@ 113269
loss_@@ 113238
axis_@@ 113235
destroy 113218
currency 113165
09@@ 113162
Step 113022
cancel 112969
Se@@ 112939
latest 112921
fun 112916
inside 112808
pixel 112646
track_@@ 112633
Cannot▯@@ 112626
exec 112623
Msg 112604
pc@@ 112568
hide 112565
SH@@ 112558
FileName 112557
-1 112538
cluster@@ 112528
objs 112466
manifest 112463
sentence 112461
HttpResponse 112456
Mock@@ 112427
App 112409
Par@@ 112407
sparse 112395
cd 112375
lab@@ 112319
〖lf〗▯▯▯▯▯▯▯▯▯▯▯▯▯▯▯▯▯▯▯▯▯▯▯▯@@ 112312
async_@@ 112308
you▯@@ 112294
VERSION 112287
Stream 112216
put@@ 112194
s/ 112180
01@@ 112136
processed 112106
py_@@ 112081
Simple@@ 112077
noise 112030
08@@ 112025
Version@@ 112008
()▯@@ 112000
ln 111940
vec@@ 111908
workflow 111881
report@@ 111850
transpose 111840
TR@@ 111835
MainWindow 111830
flatten 111759
ME@@ 111743
gs@@ 111673
nothing 111638
te_@@ 111637
tor 111637
I▯@@ 111628
clusters 111618
difference 111573
`▯@@ 111561
Target@@ 111558
other@@ 111550
processing 111447
conf_@@ 111427
Not▯@@ 111287
sizePolicy 111273
sion 111254
pin 111219
resize 111202
Open 111147
during 111147
output_dir 111137
syn@@ 111133
python_@@ 111095
execution 111045
cube 111020
tw@@ 110987
Please▯@@ 110986
addon 110933
ss_@@ 110798
has▯@@ 110789
Post@@ 110744
curve 110726
sv@@ 110706
interfaces 110702
inp 110662
ING_@@ 110661
blue 110651
append_@@ 110593
URL@@ 110584
f▯@@ 110583
multi 110571
jo@@ 110549
nums 110549
lon@@ 110517
ap 110505
test.@@ 110464
ms_@@ 110439
bug 110415
js@@ 110398
fit@@ 110375
domain@@ 110361
alt 110351
.5 110322
Compute 110314
required_@@ 110300
:▯%s▯@@ 110258
rpc 110236
simple_@@ 110227
Print 110225
stmt 110196
abc 110180
QLabel 110073
s_ 110016
px 109891
ker 109852
ls@@ 109831
alignment 109787
mapper 109785
variant 109737
dist_@@ 109721
edge@@ 109711
curr@@ 109697
dec 109688
4▯@@ 109660
Offset 109629
checked 109549
to_dict 109531
day@@ 109520
SM@@ 109490
patch_@@ 109486
debug_@@ 109463
multi_@@ 109445
pipe 109443
sor@@ 109441
network@@ 109411
Element@@ 109386
array@@ 109340
episode 109321
fileName 109312
f2 109303
list▯@@ 109292
pb2 109258
ou@@ 109244
First 109233
":▯"@@ 109211
sen@@ 109188
face 109153
scheduler 109022
sequences 108985
75@@ 108978
repeat 108949
density 108915
errno 108910
copy@@ 108735
.com 108701
primary 108689
Send 108676
ET 108664
Search 108639
executable 108611
ll@@ 108591
Out 108571
internal_@@ 108558
bundle 108533
files_@@ 108533
Decimal 108429
regions 108284
96@@ 108283
bbox 108279
ranges 108227
tab_@@ 108211
reg_@@ 108176
cc_@@ 108150
pool_@@ 108137
ned@@ 108119
nes 108096
border 108093
named 108066
dist@@ 108054
ignored 108041
air@@ 108002
should_@@ 107970
Document 107901
Block@@ 107898
76@@ 107849
FF@@ 107845
that▯@@ 107825
'%s' 107815
script_@@ 107814
FROM▯@@ 107775
n1 107775
Configuration 107757
uniform 107756
Accept 107719
que 107703
logits 107687
Rule 107606
0.9@@ 107577
s=@@ 107534
volume@@ 107529
tp 107504
github 107500
fs_@@ 107494
patterns 107397
Attribute 107393
pointer 107383
look 107366
window@@ 107358
Change@@ 107354
seen 107316
orientation 107314
helpers 107250
external 107246
▯with▯@@ 107217
FIXME 107195
absolute 107134
select▯@@ 107089
Ro@@ 107087
~@@ 107082
square 107080
gene 107072
LO@@ 106994
calc_@@ 106925
ant@@ 106896
ally 106858
render_template 106854
mm@@ 106823
s_with_@@ 106805
delta_@@ 106739
in▯the▯@@ 106738
c.@@ 106713
▯▯▯▯ 106693
180 106674
shapes 106599
sl@@ 106589
s_in_@@ 106459
execute_@@ 106450
mk@@ 106441
Could▯not▯@@ 106434
Val 106416
ay@@ 106413
ui@@ 106336
dd 106328
reduce 106328
pr 106305
",▯"@@ 106267
Int@@ 106264
video@@ 106243
dbinstance 106226
Interface 106213
SubElement 106190
get_value 106186
ment▯@@ 106148
implementation 106090
starting 106061
Dataset 106056
Attribute@@ 106045
avg 106036
parsed_@@ 106033
se▯@@ 106022
e-@@ 106014
global@@ 106013
script@@ 106013
nd 105969
annotations 105919
pool@@ 105915
access_token 105880
dtypes 105865
catalog 105858
Directory 105823
mo 105791
thread_@@ 105788
fails 105786
option_@@ 105768
config_file 105737
dbse 105689
additional 105667
IT@@ 105642
You 105578
appropriate 105572
thread@@ 105450
ur 105427
Module 105405
download@@ 105376
overwrite 105343
NotFound 105269
age_@@ 105265
mgr 105247
ding 105246
clock 105240
End@@ 105183
Window@@ 105178
float64 105135
finish 105129
78@@ 105092
Comp@@ 105064
meth 105030
add_ReactionDatum 105027
tes 105005
attribute@@ 105001
Var 104994
property_@@ 104960
rep 104923
ext_@@ 104888
second_@@ 104880
ha@@ 104874
comment@@ 104831
scipy 104732
3d 104721
Max 104686
Filter@@ 104684
org_@@ 104680
MS@@ 104628
level_@@ 104594
setValue 104589
.json 104577
Date@@ 104577
initializer 104563
j_@@ 104563
wait_for_@@ 104558
super@@ 104549
separator 104525
representing 104520
inspect 104492
validator 104491
backup_@@ 104474
401 104452
assert_ 104424
ne▯@@ 104414
delimiter 104320
clients 104272
l2 104270
wait_@@ 104268
certificate 104254
Verify 104253
il 104199
cover 104198
allowed_@@ 104170
weight_@@ 104143
48 104111
dep 104103
tv@@ 104026
UR@@ 103933
issues 103910
Do 103898
▯▯▯▯▯▯@@ 103875
found_@@ 103863
Device 103810
completed 103793
span@@ 103751
Match 103716
ssl_@@ 103715
assign 103683
func@@ 103669
readlines 103654
▯a▯@@ 103607
csv_@@ 103576
pts 103561
scan@@ 103523
urlopen 103488
sys@@ 103487
s_file 103483
dp 103449
connection@@ 103446
th_@@ 103435
MI@@ 103398
pm 103341
Num@@ 103331
ak@@ 103328
asset 103323
type_ 103314
99 103259
split@@ 103224
rt 103216
balance 103200
Ar@@ 103170
plugin@@ 103033
▯not▯@@ 102940
pop@@ 102899
ra 102834
QSizePolicy 102815
ssh_@@ 102739
infile 102731
reads 102709
Target 102654
rt@@ 102642
Str@@ 102626
stride 102619
gra@@ 102579
desc@@ 102529
ev 102474
ED_@@ 102446
dl@@ 102430
Bar 102415
display_name 102407
float@@ 102348
digits 102341
center@@ 102303
ties 102273
along 102258
05@@ 102244
fail@@ 102238
ber@@ 102228
sp_@@ 102207
updated_@@ 102207
ger@@ 102202
space@@ 102185
comment_@@ 102182
ftype 102152
sites 102150
binary_@@ 102136
ces 102099
windows 102091
got 102083
Delete@@ 102072
long@@ 102065
ang@@ 102025
role_@@ 101998
drop@@ 101995
self.@@ 101930
camera 101903
flow@@ 101829
under 101812
xx 101809
coordinate 101802
Job 101783
walk 101741
TE@@ 101730
ret_@@ 101728
!▯@@ 101693
_logger 101646
Operation 101643
some@@ 101632
y-@@ 101608
checksum 101567
Unit@@ 101551
pu@@ 101524
degree 101511
tick 101485
Style 101451
clo@@ 101448
led_@@ 101421
tic@@ 101409
references 101380
Bo@@ 101377
cached 101363
URI 101340
gt 101336
small 101290
cf 101286
transitions 101251
></@@ 101237
Change 101231
basic 101215
ders 101191
ele@@ 101168
war@@ 101137
02 101077
Min@@ 101030
dump_@@ 100983
cpu_@@ 100978
),▯@@ 100948
1,▯@@ 100947
plan 100942
10000 100927
ine 100921
iface 100856
US@@ 100814
statistics 100781
filtered 100737
np@@ 100734
Connection@@ 100707
_x 100683
fixture 100632
large 100631
edi@@ 100609
Collection 100481
TC@@ 100473
gu@@ 100459
Link@@ 100439
1.1 100437
ips 100412
folder@@ 100359
0x0@@ 100354
Token@@ 100327
tf@@ 100310
orig 100246
IO@@ 100219
repo_@@ 100212
location@@ 100195
section_@@ 100191
ded@@ 100189
hit 100185
conf@@ 100182
core_@@ 100161
member_@@ 100084
rel_@@ 100079
directly 100074
org@@ 100064
Policy 100031
caller 100031
0x00 100006
Format@@ 99992
Unknown▯@@ 99927
pres@@ 99910
68@@ 99905
rename 99903
V_@@ 99893
ld@@ 99831
white 99812
BE@@ 99781
quit 99775
keep_@@ 99756
lr 99728
release_@@ 99718
band 99707
impl 99684
geom 99676
a2 99669
book@@ 99635
pending 99609
assignment 99594
vertex 99516
Write@@ 99490
pkg@@ 99481
artist 99479
implemented 99421
exact 99398
publish 99390
project@@ 99388
Examples 99381
mer@@ 99341
pb@@ 99335
datasets 99299
avg_@@ 99288
na 99251
d▯to▯@@ 99248
tp@@ 99248
▯▯▯▯▯@@ 99245
realm 99185
around 99172
renderer 99145
assertIsNone 99130
hex@@ 99125
}}@@ 99118
req@@ 99034
private_@@ 99018
hist 98955
Flag 98948
species 98938
program@@ 98914
na@@ 98814
annotation 98790
5.0 98718
light@@ 98694
binding 98632
selected@@ 98626
var▯@@ 98625
part_@@ 98601
Utils 98503
x-@@ 98483
rng 98354
install@@ 98350
available_@@ 98332
latitude 98271
Inter@@ 98253
drop_@@ 98239
light 98211
get_object 98122
cmap 98111
nc 98110
fc 98079
control@@ 98055
recv 98028
sal@@ 97994
argument@@ 97982
poll 97953
cent@@ 97945
longitude 97901
td@@ 97896
commit_@@ 97887
ssl 97875
error▯@@ 97855
are▯@@ 97824
un 97812
course_id 97809
s.▯@@ 97737
nb 97730
Tree@@ 97710
sequence_@@ 97663
'%s'@@ 97657
▯or▯@@ 97654
qui@@ 97625
06@@ 97542
due 97540
black 97521
use▯@@ 97491
Defaults 97466
**@@ 97458
url_for 97394
clear@@ 97385
audio 97379
number▯of▯@@ 97374
profile@@ 97363
volumes 97363
found@@ 97360
section@@ 97346
*.@@ 97335
processor 97326
On 97263
▯'@@ 97255
▯from▯@@ 97222
Host 97187
letter 97175
att@@ 97157
thing 97103
\" 97056
position@@ 97034
ded_@@ 97028
get▯@@ 97017
base64 97001
watch@@ 96955
enum 96929
invalid▯@@ 96898
One 96882
fs@@ 96880
route_@@ 96695
System@@ 96694
output_file 96642
://@@ 96603
Graph@@ 96564
cov 96560
AL_@@ 96539
HttpResponseError 96418
exist@@ 96396
head_@@ 96342
{{@@ 96335
document_@@ 96327
matrix_@@ 96262
gateway 96255
submit 96237
three 96228
training_@@ 96228
gets 96223
37 96188
lengths 96153
id▯=▯@@ 96142
raised 96142
linalg 96131
stats_@@ 96121
digest 96119
EL@@ 96113
lic@@ 96092
cycle 96087
Calculate 96083
remaining 96074
kernel_@@ 96063
metric_@@ 96058
Result@@ 96057
replace_@@ 96033
ker@@ 96030
workers 96007
0.3 95990
oc@@ 95953
amp@@ 95937
signals 95913
DEFAULT 95862
bg 95844
95@@ 95832
correctly 95830
Custom@@ 95823
abort 95788
Callback 95736
test_create_@@ 95720
radi@@ 95713
Function@@ 95686
fn@@ 95672
Ne@@ 95659
CONFIG 95646
grad_@@ 95597
Stream@@ 95595
shape_@@ 95542
n2 95540
From 95523
getvalue 95511
cal 95450
next_link 95403
TT@@ 95393
GP@@ 95375
subset 95294
when▯@@ 95238
low@@ 95235
ent▯@@ 95224
sion@@ 95219
contact_@@ 95199
2/@@ 95184
I_@@ 95125
parameter_@@ 95112
logfile 95110
Plot 95095
person@@ 95070
UI 95064
Host@@ 95052
style@@ 95016
high@@ 95015
tenant_id 95004
connect@@ 94976
Li@@ 94951
ename 94946
tile_@@ 94939
OR 94912
specs 94896
dec@@ 94891
Profile 94813
cookies 94790
Rect 94789
Last@@ 94756
before_@@ 94666
ab 94635
sur@@ 94608
tick@@ 94583
Load@@ 94577
Process@@ 94543
experiment 94527
GL@@ 94455
act_@@ 94416
select@@ 94372
ap_@@ 94357
0.5@@ 94319
don@@ 94280
memory_@@ 94268
AssertionError 94237
nr 94212
MA@@ 94206
▯of▯the▯@@ 94170
ident 94130
line▯@@ 94130
cid 94097
directories 94095
Container 94084
74@@ 94082
candidates 94081
clip 94075
oo@@ 94054
candidate 93973
idx_@@ 93950
tf_@@ 93944
client_id 93943
mag@@ 93938
shuffle 93890
urlparse 93839
getLogger 93831
ator_@@ 93830
subscription 93815
assertIsNotNone 93801
lock_@@ 93801
2,@@ 93777
ends 93777
is▯not▯@@ 93756
system@@ 93756
media_@@ 93746
ping 93712
decorator 93700
Edit 93690
rating 93674
fontsize 93670
AND▯@@ 93641
sm 93640
OS@@ 93639
Param 93625
98@@ 93621
written 93611
turn 93569
shutdown 93538
IM@@ 93519
plo@@ 93512
anchor 93496
offset_@@ 93481
07@@ 93474
a-@@ 93461
ir 93426
Metadata 93373
mol 93362
www 93314
dicts 93297
attach 93289
aliases 93280
sd 93261
Layer@@ 93225
localhost 93201
own 93199
import▯@@ 93163
creation 93161
Controller 93130
solve 93075
Property@@ 93052
SN@@ 93049
ArgumentParser 93045
norm_@@ 93028
Filename 93020
long_@@ 92993
sql@@ 92975
ster 92952
alert 92939
specify 92925
ft 92840
streams 92819
callbacks 92811
networks 92802
m.@@ 92793
Cor@@ 92776
l1 92746
starts 92745
bpy 92715
err_@@ 92640
1e@@ 92639
Flags 92634
body@@ 92628
mas@@ 92559
aa@@ 92543
Equal 92536
Points 92496
cy@@ 92494
rho 92486
gr 92472
X-@@ 92436
end_date 92418
validation_@@ 92410
zip@@ 92407
nested 92356
Option 92331
Logger 92309
conv_@@ 92219
inner_@@ 92208
attempt 92182
schema_@@ 92173
sed_@@ 92166
domains 92143
NE@@ 92130
=▯ 92124
Show 92108
Control 92097
theme 92096
torch 92089
ep 92086
Project@@ 92083
leaf 92083
accuracy 92075
2000 91952
btn 91852
center_@@ 91836
tt 91811
font@@ 91806
ack 91791
season 91760
one▯@@ 91740
Array@@ 91720
az@@ 91716
ter▯@@ 91702
rand 91695
Channel 91693
setup@@ 91676
i▯@@ 91649
ve_@@ 91633
STATUS_@@ 91621
5_@@ 91611
70 91482
sign@@ 91464
dlg 91449
using▯@@ 91432
initialized 91415
ef@@ 91411
filename@@ 91410
ite@@ 91338
2f@@ 91302
epsilon 91240
Not 91201
document@@ 91182
RA@@ 91154
chdir 91127
flavor 91102
dummy_@@ 91063
station 91047
ko@@ 91020
debug@@ 90987
mark@@ 90982
aa 90976
][@@ 90931
O_@@ 90912
ft@@ 90885
Unit 90863
expect_@@ 90853
,▯"@@ 90850
sensor 90849
home@@ 90842
stuff 90825
ini@@ 90808
b1 90790
splitext 90764
3-@@ 90718
exception_@@ 90702
guid 90696
{"@@ 90692
ensure_@@ 90691
Folder 90672
5▯@@ 90656
OS 90646
cut 90645
mac@@ 90641
s▯=▯@@ 90629
hits 90622
Generator 90605
GL_@@ 90521
fin@@ 90512
hi 90506
mag 90485
AS 90385
boundary 90349
proj 90349
ger 90233
Setup 90221
simulation 90205
included 90200
roo@@ 90173
get_all_@@ 90122
phone 90110
node_id 90079
VM 90078
relation 90057
DoesNotExist 90035
ity 90030
star 89978
encoder 89967
prev@@ 89964
Session@@ 89962
found▯@@ 89917
student 89851
ly▯@@ 89843
where▯@@ 89835
s▯are▯@@ 89788
Bar@@ 89787
hello 89780
known 89779
probability 89770
〖lf〗〖lf〗@@ 89759
nex@@ 89728
〖lf〗▯▯▯▯▯▯▯▯▯▯@@ 89720
New 89713
pub@@ 89653
mgmt 89612
ast@@ 89575
Keys 89570
prepare_@@ 89567
fill_@@ 89535
provider_@@ 89527
know 89515
defaultdict 89484
Up@@ 89475
basic_@@ 89459
ssh 89422
task_id 89420
lex@@ 89407
spacing 89406
expected@@ 89392
data_dir 89387
lookup_@@ 89375
ge_@@ 89294
should▯be▯@@ 89285
echo 89256
category_@@ 89253
ci 89237
Control@@ 89226
Th@@ 89217
typ@@ 89212
Role 89206
against 89200
matplotlib 89187
did 89184
xyz 89155
por@@ 89154
s▯of▯@@ 89077
wd 89021
remote@@ 89001
epochs 88975
rgb 88972
vn@@ 88972
's▯@@ 88970
Sh@@ 88910
Close 88896
Work@@ 88837
flash 88790
minute 88741
_v 88712
Geo@@ 88678
push_@@ 88678
team@@ 88601
child@@ 88568
seg@@ 88551
cri@@ 88534
Also 88501
logic 88484
Response@@ 88477
django 88448
ar▯@@ 88393
edit@@ 88343
Selection 88258
Font 88255
System 88233
without_@@ 88205
true_@@ 88204
UUID 88180
There 88165
summary_@@ 88149
Tool@@ 88092
",@@ 88074
▯▯ 88044
aw@@ 88027
stack@@ 87916
dt@@ 87794
asset_@@ 87786
name_ 87733
ST_@@ 87711
fetchall 87704
bb 87655
python@@ 87652
variable_@@ 87647
exit@@ 87613
day_@@ 87607
403 87592
short_@@ 87562
ves 87526
rhs 87519
CS@@ 87497
bar_@@ 87445
calculate_@@ 87435
todo 87404
add_method 87386
security 87265
api_key 87256
Properties 87254
feed_@@ 87241
mi 87210
cer@@ 87206
mode_@@ 87197
mail@@ 87107
first_name 87106
SU@@ 87077
decimal 87077
pad_@@ 87056
ST 87038
length_@@ 87019
_PATH 86997
',▯'@@ 86989
register_Ns3@@ 86979
activate 86966
retrieve 86966
fr 86963
〖lf〗▯▯@@ 86948
real@@ 86909
Net@@ 86857
callback_@@ 86823
Auth@@ 86794
sha@@ 86760
lib_@@ 86752
IS@@ 86698
KEY_@@ 86676
cloud_@@ 86662
t/@@ 86656
degrees 86645
NodeId 86586
Otherwise 86581
3. 86552
capacity 86531
determine 86518
Plugin@@ 86512
Ensure 86503
are@@ 86503
klass 86492
tensor_@@ 86483
end_time 86437
Vector@@ 86412
class_name 86405
automatically 86396
Call@@ 86364
input▯@@ 86364
detail@@ 86360
web_@@ 86347
cv@@ 86325
acl 86320
t0 86303
DO@@ 86239
offsets 86234
successful 86233
_r@@ 86208
tions 86199
primary_@@ 86191
used_@@ 86144
gid 86133
chan 86131
55 86130
You▯@@ 86130
red▯@@ 86106
tensors 86044
Union 86043
modes 86020
rpc_@@ 86002
ok@@ 85983
ticket 85964
sho@@ 85963
worker_@@ 85959
At@@ 85958
0000 85948
ve▯@@ 85947
module_name 85936
hand 85934
tc 85927
pandas 85894
39 85858
y0 85842
Bind 85805
virtual 85775
takes 85765
He@@ 85742
\u00@@ 85723
ori@@ 85697
Reader 85674
lock@@ 85673
posts 85659
pkg_@@ 85658
prepare 85637
〖lf〗▯▯▯▯▯▯@@ 85619
restart 85610
splitlines 85606
Template@@ 85585
scenario 85568
applied 85565
pkt 85559
deg 85524
s_dir 85523
cards 85511
concatenate 85511
tenant 85510
RI@@ 85504
ac 85502
white@@ 85486
self_@@ 85458
case_@@ 85423
sti@@ 85420
ATION 85411
sim_@@ 85389
settings_@@ 85342
colour 85318
sizer 85305
made 85304
setEnabled 85296
tar 85285
<▯@@ 85275
KEY@@ 85270
VI@@ 85265
Buffer 85255
Windows 85255
trace_@@ 85243
Access@@ 85215
coverage 85126
returncode 85108
exec_@@ 85076
boo@@ 85061
velocity 85056
slice_@@ 85043
flux 84981
Proxy 84956
ATION_@@ 84952
tax@@ 84927
verbosity 84925
XXX 84902
rmtree 84896
position_@@ 84878
oper@@ 84874
fail_@@ 84862
ind@@ 84862
pay@@ 84857
Pattern 84843
created_@@ 84782
tracker 84731
Module@@ 84717
Wrapper 84684
prop_@@ 84678
blit 84676
son@@ 84651
train@@ 84643
Header@@ 84634
zone@@ 84620
exe 84608
compiler 84592
3f@@ 84547
prediction 84543
tre@@ 84541
calling 84504
Attributes 84502
accounts 84501
▯<@@ 84479
free@@ 84453
CON@@ 84437
perm 84366
cross 84338
en▯@@ 84336
public@@ 84332
_build_@@ 84317
matched 84312
CP@@ 84298
len_@@ 84290
retries 84282
sed@@ 84277
cam@@ 84196
env@@ 84163
subs 84157
zero@@ 84148
free_@@ 84145
utcnow 84139
AR 84134
Panel 84125
sq@@ 84124
fraction 84123
isn 84102
commit@@ 84101
WC 84098
generate@@ 84008
LIST 84000
▯file@@ 83921
salt 83864
42@@ 83841
ned_@@ 83830
.p@@ 83824
linspace 83823
int64 83809
interface_@@ 83792
command▯@@ 83777
space_@@ 83773
Row@@ 83751
submission 83749
job_id 83728
ators 83719
additional_@@ 83710
-01 83709
faces 83685
201 83674
fill@@ 83660
fits 83656
rad 83651
Left 83642
major 83629
registered 83614
creds 83596
daemon 83595
record@@ 83566
ot@@ 83558
vel 83536
assert_called_with 83523
Port@@ 83499
44 83476
Try 83462
cross@@ 83426
product@@ 83416
gc 83409
resolve 83387
Content@@ 83386
xp 83360
))@@ 83350
products 83345
rd@@ 83316
documents 83231
addres@@ 83139
Top@@ 83096
gene_@@ 83090
Select@@ 83072
Given 83069
part@@ 82970
Adding 82968
EX@@ 82968
iso@@ 82967
s▯and▯@@ 82954
help@@ 82909
XML@@ 82902
ing▯the▯@@ 82871
scale@@ 82864
Back@@ 82841
csv@@ 82826
ly_@@ 82814
pat@@ 82803
median 82802
master@@ 82798
strict 82796
includes 82789
ty_@@ 82779
sb@@ 82767
Frame@@ 82741
exec@@ 82733
series_@@ 82646
Volume@@ 82643
effect 82631
def_@@ 82620
have▯@@ 82583
flag@@ 82567
snapshot_@@ 82553
projection 82541
loop_@@ 82523
38 82516
moves 82487
',▯@@ 82471
)s▯@@ 82467
_c@@ 82462
scripts 82447
Cursor 82440
poly@@ 82440
getcwd 82439
virtual_@@ 82436
example_@@ 82432
notify_@@ 82418
behavior 82406
prefix@@ 82397
...@@ 82388
ated▯@@ 82376
ue 82357
dispatch 82343
args_@@ 82341
restore 82335
Scale 82311
1d 82302
prior 82274
ity@@ 82262
Meta@@ 82253
variance 82242
evt 82225
So@@ 82223
Error:▯@@ 82203
handles 82188
lang@@ 82187
Symbol 82178
Operation@@ 82145
sr 82116
1f@@ 82043
CE@@ 82041
den 82018
Shape 82004
Enabled 81982
\s*@@ 81978
perform 81953
attachment 81940
ug@@ 81915
Tri@@ 81909
fb@@ 81872
Non@@ 81844
Ac@@ 81835
s3_@@ 81823
shape@@ 81821
directory▯@@ 81802
skip@@ 81796
note@@ 81792
ado 81786
Save@@ 81771
medi@@ 81763
guess 81687
wa@@ 81682
ctxt 81677
ImportError 81669
120 81668
infos 81660
ctrl 81614
parallel 81604
clean@@ 81572
va@@ 81520
classifier 81519
%s:@@ 81513
lt 81503
Bad@@ 81482
hidden_@@ 81463
.0@@ 81273
Interval 81256
Show@@ 81241
ow@@ 81241
Channel@@ 81226
cmp 81203
assigned 81200
Should 81186
method@@ 81184
saved_@@ 81165
wait@@ 81157
conn_@@ 81153
converted 81148
filename_@@ 81147
rate_@@ 81138
UP@@ 81137
STATE_@@ 81115
ordered 81108
ster@@ 81094
0.05 81086
seg 81083
ga@@ 81082
GC@@ 81068
0.25 81043
kwds 81032
history_@@ 81007
mem_@@ 80993
activity_@@ 80920
Fields 80904
ist@@ 80893
creator 80891
tic 80884
dim_@@ 80870
merge@@ 80869
peer 80861
fu@@ 80841
font_@@ 80779
CT@@ 80768
om@@ 80749
ence@@ 80745
disable_@@ 80735
tabs 80728
cached_@@ 80724
supplied 80690
4.0 80668
vari@@ 80668
ticks 80662
error_message 80644
->@@ 80638
Reference 80614
general 80587
tile@@ 80582
SUB@@ 80562
ON_@@ 80550
include@@ 80542
orders 80438
Network 80424
0.8 80411
sec@@ 80398
album 80365
desired 80360
mal@@ 80330
floor 80311
ro 80286
ring 80283
_log 80232
concat 80212
strptime 80170
Reference@@ 80168
spec_@@ 80167
adapter 80158
exclude_@@ 80151
related_@@ 80114
3D 80066
segment@@ 80063
hdr 80061
These 80015
ses@@ 80012
sin@@ 80009
ip_address 80007
Counter 80006
hooks 80001
":▯@@ 79976
kill 79972
men@@ 79958
batch@@ 79953
Widget@@ 79949
Whether 79931
fixed_@@ 79914
pb 79911
angles 79861
r▯@@ 79842
rm@@ 79839
role@@ 79836
0-@@ 79826
nargs 79810
CL@@ 79779
Dictionary 79755
Feature@@ 79739
according 79705
tablename 79691
Notes 79677
der▯@@ 79676
king 79657
wiki 79656
Storage 79647
ame@@ 79613
ROOT 79566
adding 79566
individual 79549
TP@@ 79544
bt@@ 79521
value▯@@ 79515
do▯@@ 79505
creating 79484
bit_@@ 79454
Len 79453
Tra@@ 79437
basestring 79413
\"▯@@ 79399
sym@@ 79389
ov@@ 79386
working 79363
mp_@@ 79346
plan@@ 79276
ase@@ 79263
}/@@ 79255
el_@@ 79235
Ma@@ 79218
group_name 79215
glyphs 79203
Plugin 79167
calc 79142
END@@ 79136
Over@@ 79131
asyncio 79122
mask@@ 79119
)s 79113
find▯@@ 79104
uuid4 79054
neighbors 79042
recursive 79029
std@@ 79001
ask 78993
everything 78988
anything 78967
▯file▯@@ 78958
43@@ 78938
comm 78935
〖lf〗▯▯▯▯▯▯▯▯▯▯▯▯▯▯@@ 78907
reading 78905
plus 78903
wrong 78876
limit_@@ 78871
git@@ 78851
NULL 78849
feature@@ 78831
sli@@ 78773
cut@@ 78752
Display 78742
handle@@ 78741
np_@@ 78739
bad@@ 78738
BO@@ 78726
capture 78723
register@@ 78721
tracks 78720
subscription_id 78713
user▯@@ 78699
diag 78685
CD@@ 78648
mt 78615
relu 78608
things 78608
try_@@ 78607
s_and_@@ 78583
ato@@ 78541
rot@@ 78537
Parse@@ 78536
checking 78536
defs 78524
Storage@@ 78522
RP@@ 78521
handling 78399
am_@@ 78392
vbox 78379
join_@@ 78368
schema@@ 78354
lam@@ 78340
fix_@@ 78333
/etc/@@ 78321
filter_by 78317
Transform 78300
fake@@ 78275
STRING 78267
decode_@@ 78253
profiles 78253
Category 78236
10.0 78209
password_@@ 78179
The@@ 78178
Root 78163
attribute_@@ 78135
_state 78134
orig@@ 78104
spectrum 78102
_on_@@ 78092
visit 78076
hint 78075
will▯@@ 78038
Select 77983
Current@@ 77972
d. 77945
Mode@@ 77935
Nodes 77934
At 77931
GE@@ 77914
database_@@ 77909
year@@ 77903
ng@@ 77895
admin@@ 77868
work_@@ 77847
Volume 77837
itself 77833
timeout_@@ 77832
Main 77831
MM@@ 77785
Copy 77765
collect 77757
last_name 77757
start▯@@ 77755
chan@@ 77753
lab 77745
One@@ 77726
fragment 77690
fast@@ 77680
signal_@@ 77650
formula 77643
Right 77625
prob@@ 77607
V1@@ 77603
fd@@ 77577
focus 77555
default▯@@ 77544
ne 77514
definitions 77493
opt@@ 77493
oid 77475
cpu@@ 77472
|= 77451
ua 77420
passwd 77413
est@@ 77403
Tr@@ 77388
bases 77362
tb@@ 77343
team_@@ 77339
94@@ 77312
baz 77303
loop@@ 77287
pdb 77276
Sample@@ 77272
NOT 77264
=\"@@ 77255
mb 77247
Ver@@ 77243
latest_@@ 77238
SQL 77230
variable@@ 77230
audio_@@ 77214
region@@ 77201
Expected▯@@ 77185
Flow@@ 77170
rospy 77169
PC@@ 77165
parser_@@ 77163
author@@ 77145
pack_@@ 77123
pose 77117
TestCase 77093
reversed 77082
":@@ 77052
card@@ 77049
PR@@ 77047
atom@@ 77041
Rec@@ 77015
normalized 77000
ach@@ 76988
mock_calls 76975
style_@@ 76969
population 76968
Sp@@ 76959
Account@@ 76952
measure 76949
delta@@ 76940
ads 76939
conversion 76934
connector 76922
Rule@@ 76914
enc@@ 76879
${@@ 76822
dns_@@ 76811
sessions 76810
",▯@@ 76775
checker 76768
0.9 76756
flag_@@ 76755
〖docopenr:"""〗 76735
ics 76731
it_@@ 76720
FA@@ 76712
150 76683
%s) 76639
Find@@ 76634
art 76622
ning 76622
bib@@ 76616
member@@ 76601
expected▯@@ 76596
filtered_@@ 76570
Grid 76519
txt@@ 76518
goal 76508
database@@ 76473
any▯@@ 76455
never 76451
query_params 76450
overlap 76447
rm 76443
Builder 76437
follow 76432
mean@@ 76423
s2@@ 76423
Ids 76420
Component 76416
by_name 76415
formatted 76415
ti 76406
probs 76403
sg@@ 76395
preview 76361
Rate 76357
ats 76343
LEFT 76334
sensor@@ 76331
folders 76328
release@@ 76305
um_@@ 76298
que@@ 76288
interface@@ 76280
ints 76279
1234 76263
transition 76251
Area 76249
Form@@ 76231
hd@@ 76217
amp 76178
s: 76176
converter 76174
store@@ 76159
limit@@ 76150
fft 76146
uint8 76132
song 76112
Timestamp 76083
estimator 76063
);@@ 76057
repos 76043
unittest 76042
id,▯@@ 76030
-- 76023
customer 76009
hass 75987
alt@@ 75975
Order@@ 75956
card_@@ 75940
transfer 75928
prod 75899
correct_@@ 75890
must▯@@ 75885
_read_@@ 75854
GPIO 75848
transform_@@ 75828
routes 75821
ct_@@ 75819
score@@ 75807
с@@ 75805
C▯@@ 75804
Move 75781
ylabel 75776
ju@@ 75749
criteria 75738
FILE_@@ 75713
true@@ 75681
ban@@ 75646
pw@@ 75642
CR@@ 75630
calendar 75585
help_@@ 75540
btn@@ 75494
H_@@ 75479
gre@@ 75477
Has@@ 75474
plane 75454
ling▯@@ 75440
cap 75437
time▯@@ 75436
a/@@ 75388
distances 75384
addr_@@ 75382
playlist 75374
101 75276
pprint 75266
low_@@ 75253
mox 75219
tolist 75189
Option@@ 75172
/▯@@ 75142
backend_@@ 75126
fo 75105
ad_@@ 75094
([@@ 75069
Game@@ 75065
NS 75041
week 75027
/tmp/@@ 75023
archive_@@ 75020
material 74992
width@@ 74982
ren@@ 74952
para 74948
PL@@ 74919
makes 74917
mt@@ 74912
redis 74875
tau 74868
dx@@ 74866
aggregate 74844
Document@@ 74812
inventory 74807
out_file 74755
generation 74748
56 74717
inc 74712
histogram 74676
compare_@@ 74660
:▯%@@ 74628
del_@@ 74620
sort@@ 74599
browse 74593
conver@@ 74592
configured 74580
data_type 74563
dataframe 74528
weight@@ 74489
qty 74485
ner_@@ 74477
Policy@@ 74457
ln@@ 74445
sudo 74433
Stats 74432
ce▯@@ 74428
msgs 74414
published 74411
_value 74380
add▯@@ 74371
HO@@ 74369
Database 74358
dest@@ 74351
does▯not▯@@ 74346
/= 74334
better 74319
sh_@@ 74314
plots 74297
JSON@@ 74286
gg@@ 74269
Application 74265
full_name 74252
Player 74247
provide 74230
ction 74227
tion▯@@ 74216
p0 74209
bat@@ 74168
pin@@ 74151
board_@@ 74139
communicate 74132
Dir@@ 74129
slots 74114
int▯@@ 74096
ting▯@@ 74090
params_@@ 74085
wrapped 74080
syntax 74076
mappings 74075
short@@ 74060
ned▯@@ 74045
Feature 74023
AND 74010
reload 74008
DA@@ 74002
mimetype 74002
Te@@ 73996
example@@ 73994
access@@ 73982
Package@@ 73926
cle@@ 73917
cont 73916
va 73912
intersection 73910
markup 73900
Checks 73894
Failed 73873
get_data 73848
call_count 73841
Dict@@ 73840
pack_start 73836
under@@ 73830
issue_@@ 73791
TEXT 73788
modify 73775
addAction 73771
199@@ 73763
pa 73738
Ge@@ 73731
component_@@ 73712
tele@@ 73692
std_@@ 73679
coeff 73672
poly 73655
sion_@@ 73630
disconnect 73624
overrides 73524
Parent 73509
dns 73508
known_@@ 73485
ws@@ 73480
Expression 73476
_g@@ 73472
ki@@ 73448
lb@@ 73439
sup@@ 73435
300@@ 73411
KE@@ 73407
SD@@ 73403
statu@@ 73378
xy@@ 73334
switch_@@ 73324
hexdigest 73284
_url 73273
41 73265
2.5 73235
give 73227
numeric 73223
Address@@ 73218
disk@@ 73212
replace@@ 73202
ical 73169
AI@@ 73136
dependency 73130
critical 73127
polling_method 73105
LA@@ 73095
;\n 73079
Warning 73071
\x00@@ 73064
); 73063
ry 73054
rd 73049
Number@@ 73036
pas@@ 73035
queue@@ 73034
vector_@@ 73022
deprecated 73018
fee 73012
GG@@ 72973
cutoff 72966
HOST 72943
CA@@ 72916
entry@@ 72912
AV@@ 72902
FL@@ 72900
co_@@ 72900
UP 72891
namespaces 72879
Entity 72876
VE@@ 72863
Main@@ 72860
chunk_@@ 72821
reference@@ 72812
consumer 72777
ob 72765
json_data 72758
terminal 72751
dos 72747
percentage 72726
book_@@ 72717
MS 72715
Setting 72711
branch@@ 72667
ie 72660
ence_@@ 72648
〖lf〗▯▯▯▯▯▯▯▯ 72624
NO_@@ 72598
.. 72586
prefix_@@ 72579
Bin@@ 72564
ee@@ 72557
creates 72550
begin_@@ 72515
Cmd 72513
sequence@@ 72506
parsing 72480
gRPC 72461
Append 72458
gn@@ 72452
datatype 72395
zoom 72379
GR@@ 72338
languages 72331
rid 72330
keras 72320
buff 72282
ver_@@ 72281
side@@ 72277
trace@@ 72264
float_@@ 72247
chart 72217
upgrade 72214
atol 72213
scopes 72199
Queue@@ 72193
idx@@ 72178
quiet 72168
force@@ 72167
duplicate 72140
xlabel 72136
object▯@@ 72131
Pool 72096
Column@@ 72094
same_@@ 72073
%.@@ 72059
ny 72054
Body 72040
Report 72006
requirements 71991
secs 71991
intervals 71956
ani@@ 71938
symbol@@ 71927
b2 71920
containers 71919
Pa@@ 71913
Api@@ 71909
two_@@ 71894
failures 71882
container@@ 71869
allow@@ 71855
Python@@ 71825
best@@ 71813
changed_@@ 71808
image_id 71793
bytearray 71785
IN_@@ 71769
company 71763
array_ops 71723
ie@@ 71710
instance_id 71708
flo@@ 71706
clf 71694
SE 71683
segment_@@ 71680
gain 71674
Cluster@@ 71666
visit_@@ 71660
ini 71638
Fi@@ 71615
arc@@ 71615
stat_@@ 71611
flask 71607
hold 71583
collection_@@ 71571
e1 71565
regular 71562
decoder 71551
['@@ 71533
field▯@@ 71516
sys_@@ 71516
Stack 71500
cert_@@ 71488
","@@ 71487
unlink 71480
Idx 71478
Used 71471
Timer 71470
EP@@ 71464
primary_key 71457
600 71445
500@@ 71435
table▯@@ 71427
Each 71414
pg 71408
{}/@@ 71396
%s. 71375
dim@@ 71354
p▯@@ 71354
wh@@ 71332
but▯@@ 71258
already▯@@ 71257
Grid@@ 71241
Min 71232
tearDown 71224
ssh@@ 71214
03@@ 71204
Qu@@ 71181
context@@ 71167
destination_@@ 71152
very 71150
authentication 71140
AN 71137
Var@@ 71136
Failure 71131
DELETE 71124
char_@@ 71122
ble@@ 71115
te▯@@ 71112
mark_@@ 71074
Edit@@ 71047
Ob@@ 71043
assert_allclose 71043
CF@@ 71017
sparse_@@ 71017
nor@@ 71000
bold 70986
%s:▯@@ 70980
As 70968
TIME 70935
Bu@@ 70903
ven@@ 70879
Boolean 70876
rev@@ 70869
posx 70868
_un@@ 70842
eb@@ 70823
black@@ 70808
assume 70795
movie 70782
mer 70781
atom_@@ 70742
utc 70734
addItem 70719
widget_@@ 70711
Person 70708
\x@@ 70698
NONE 70687
xbmc 70671
Menu@@ 70631
tolerance 70617
titles 70605
_args 70592
angle_@@ 70578
non-@@ 70577
posy 70574
s3@@ 70574
mount 70562
term_@@ 70552
jsonify 70546
ec 70541
prog 70537
assertNotEqual 70536
endpoint_@@ 70515
region_@@ 70501
Trans@@ 70479
triggered 70434
Cell@@ 70426
checkpoint 70356
tries 70344
vel@@ 70341
nt@@ 70339
distance_@@ 70333
OP@@ 70331
46 70312
extent 70298
name=@@ 70268
dm 70256
Enable 70224
bindings 70193
circle 70188
ui_@@ 70167
id_ 70162
d/@@ 70155
Provider 70143
password@@ 70103
mut@@ 70085
upload@@ 70041
Account 70028
Global@@ 70007
useful 69987
IO 69968
BB@@ 69933
subclass 69931
TO 69919
65 69914
nm 69886
rh@@ 69886
buffer_@@ 69872
bind_@@ 69859
self@@ 69855
Func 69841
person_@@ 69836
[^@@ 69833
acquire 69826
newline 69808
ud@@ 69802
od@@ 69798
s▯from▯@@ 69790
instrument 69786
S3@@ 69781
union 69753
description@@ 69724
TType 69723
axis@@ 69709
extra@@ 69705
Bit@@ 69695
Tab 69670
indicator 69668
51 69656
Comment 69656
export@@ 69656
lb 69628
tip 69591
including 69587
Space 69564
loading 69535
t_type 69521
cs_@@ 69520
endpoints 69507
review 69507
topics 69503
feat 69501
Lines 69483
stage@@ 69480
underlying 69460
lot 69457
pred_@@ 69457
SIGNAL 69450
relative_@@ 69446
driver_@@ 69431
100.0 69400
rest@@ 69384
Signal 69383
type_id 69382
bytes_@@ 69275
Callable 69272
sTo@@ 69249
face@@ 69242
receive 69242
Entry@@ 69235
0.4 69226
alpha_@@ 69222
ath@@ 69218
itertools 69181
tok 69138
branch_@@ 69137
failed_@@ 69112
normalize_@@ 69099
IF@@ 69083
ix@@ 69016
roll 69013
sl 69008
enter 68998
52 68991
jid 68956
fac@@ 68949
ns_@@ 68947
analy@@ 68939
Timeout 68937
hashlib 68925
fg 68919
:▯{0} 68913
allows 68908
exchange 68893
IR@@ 68871
Play@@ 68833
robot 68825
list_of_@@ 68817
PRE@@ 68805
{0:@@ 68733
LE 68730
type_name 68728
HttpResponseRedirect 68719
ther@@ 68712
sam@@ 68691
null@@ 68688
zz@@ 68641
migration 68636
readable 68609
should▯@@ 68600
registr@@ 68580
Lock 68566
misc 68561
={@@ 68559
palette 68532
bg@@ 68501
trees 68501
Match@@ 68499
temporary 68494
ordering 68489
zed 68469
pull 68439
emp@@ 68428
offset@@ 68417
y/@@ 68401
1] 68382
dy@@ 68382
fetch@@ 68376
Child 68361
combo 68352
forward_@@ 68337
VM@@ 68331
test_data 68273
USER 68263
executor 68262
security_@@ 68240
authors 68236
Section 68190
ners 68181
dr 68175
abs_@@ 68163
(?P<@@ 68125
grp 68115
DATA_@@ 68047
Import@@ 68036
setting@@ 68035
hs 68022
increment 68021
/api/@@ 68014
stan@@ 67985
le.@@ 67971
trigger_@@ 67962
s_count 67960
ma_@@ 67947
output▯@@ 67940
dot_@@ 67924
zero_@@ 67921
schedule_@@ 67918
fn_@@ 67917
Can 67904
notebook 67901
43 67893
chat 67868
Raw@@ 67818
Required 67803
stock_@@ 67796
ld 67793
vlan 67793
59 67773
progress_@@ 67763
LOG@@ 67740
recipient 67735
up▯@@ 67689
ht@@ 67676
p2@@ 67639
〖lf〗▯▯▯▯▯▯▯▯▯▯▯▯▯▯▯▯▯▯▯▯▯▯▯▯▯▯▯▯▯▯▯▯@@ 67635
ERS 67625
AT 67595
account@@ 67572
operation_@@ 67563
cons@@ 67542
reports 67540
px@@ 67535
hashes 67534
assign_@@ 67528
ANY 67495
jpg 67483
../@@ 67477
eli@@ 67455
Align@@ 67454
ch▯@@ 67449
DateTime 67438
say 67411
lan@@ 67402
notifications 67398
refresh_@@ 67394
00000 67391
Details 67391
cfg_@@ 67386
Empty 67339
vocab 67311
beam 67307
). 67285
M▯@@ 67284
Mi@@ 67260
ex_@@ 67234
s_data 67218
factors 67213
47 67185
partitions 67179
sig_@@ 67175
Up 67159
TS@@ 67149
(?:@@ 67136
New▯@@ 67135
HE@@ 67130
Cap@@ 67126
Writer 67124
Record@@ 67120
encode_@@ 67119
handler_@@ 67116
class▯@@ 67115
name="@@ 67114
cause 67103
strides 67100
dt_@@ 67090
area_@@ 67088
running_@@ 67074
div@@ 67066
Tags 67052
termin@@ 67046
linewidth 67045
ending 67043
SET 67032
ls_@@ 67016
Level@@ 67007
Pool@@ 66996
bound@@ 66993
place@@ 66987
rotate 66977
PER@@ 66965
sync@@ 66959
require 66943
3,@@ 66935
WARNING 66932
login@@ 66928
bot@@ 66924
after▯@@ 66921
__getitem__ 66918
After 66894
▯▯▯▯▯▯▯@@ 66874
rc@@ 66861
ous 66857
insert@@ 66846
multiple_@@ 66836
proc_@@ 66805
tiles 66803
accepted 66797
tran@@ 66783
_validate_@@ 66776
period_@@ 66763
byte_@@ 66758
Stop 66732
Actions 66730
rtol 66716
dra@@ 66715
cannot▯@@ 66684
_run_@@ 66679
stamp 66667
corpus 66658
questions 66654
must▯be▯a▯@@ 66638
generic 66636
QMessageBox 66591
router_@@ 66584
ttl 66580
charge 66577
sf 66561
Make@@ 66559
invoice 66539
any@@ 66536
scaling 66520
Active@@ 66519
vr@@ 66519
0/@@ 66518
hyper@@ 66518
watch 66515
xmin 66486
ens 66477
confirm 66455
represent 66453
NS@@ 66441
payment_@@ 66435
ng 66423
submit@@ 66422
controls 66413
fetchone 66408
reactor 66400
fp@@ 66399
IS_@@ 66398
Float 66389
bas@@ 66365
embed 66339
funcs 66329
taken 66327
em 66322
Mask 66308
stock 66304
when_@@ 66295
strip_@@ 66288
server▯@@ 66278
ling_@@ 66274
vertical 66273
tweet 66271
outdir 66229
retry_@@ 66228
ability 66213
pow 66201
library_@@ 66197
answers 66164
Prefix 66151
instruction 66145
batches 66142
model_name 66122
SR@@ 66118
s_id 66096
topic_@@ 66088
sz 66044
printer 66042
MAP 66023
computed 66012
me_@@ 66000
TEST@@ 65999
power_@@ 65997
Param@@ 65989
recipe 65982
Post 65977
CI@@ 65966
topology 65936
BU@@ 65913
good_@@ 65891
%s:▯%s 65869
learning_rate 65864
locator 65830
fig@@ 65828
First@@ 65802
going 65799
Product@@ 65751
TO_@@ 65746
pretty 65743
run▯@@ 65724
current▯@@ 65721
409 65713
session_id 65712
eq@@ 65706
ERROR:▯@@ 65704
Schema 65694
Send@@ 65676
properly 65649
cloud@@ 65618
receiver 65610
_assert_@@ 65580
polygon 65578
api_client 65524
%s▯%s 65519
sha1 65433
.org/@@ 65363
m_id 65353
fullname 65333
ite 65260
is_active 65256
Dummy@@ 65244
styles 65242
Agent 65241
Cache@@ 65226
Hash 65225
bridge 65209
complete_@@ 65209
Mapping 65176
trans_@@ 65161
.py@@ 65153
coord_@@ 65122
contacts 65112
gri@@ 65110
resolve_@@ 65110
price_@@ 65102
ase 65069
resp@@ 65060
Events 65054
slices 65038
whole 65036
qt 65021
selection_@@ 65014
tell 64979
mock@@ 64957
%r 64953
standard_@@ 64952
inv_@@ 64926
Ti@@ 64905
i1 64870
ating▯@@ 64854
sound 64848
disp@@ 64788
SV@@ 64785
53 64781
AS▯@@ 64776
MD@@ 64772
TEST 64758
m-@@ 64753
statements 64742
Number▯of▯@@ 64731
Domain 64723
values_@@ 64716
ident@@ 64699
xmax 64689
ation_id 64675
userid 64661
subscriptionId 64639
1.2 64634
gap 64609
rate@@ 64603
request▯@@ 64583
disc@@ 64581
None@@ 64573
dv@@ 64507
reply_@@ 64499
ON▯@@ 64423
gradients 64420
really 64408
user_name 64382
outer 64360
template_name 64355
LOG_@@ 64354
c/@@ 64342
problems 64262
ative 64247
_n@@ 64235
toolbar 64222
Found▯@@ 64219
Protocol 64196
Foo 64188
Don 64169
inc@@ 64155
_load_@@ 64130
half 64101
TA@@ 64082
clas@@ 64075
)\n 64072
dropout 64064
photo 64048
ack@@ 64046
AU@@ 64028
]+)@@ 64023
address@@ 64015
rx 64012
ca_@@ 63984
xi 63969
Next@@ 63966
compression 63965
_t 63956
-1@@ 63930
pixel@@ 63925
rf 63925
inverse 63920
UL@@ 63916
follow@@ 63916
ams 63896
{},▯@@ 63884
Variable@@ 63881
aux 63865
ing▯to▯@@ 63861
scal@@ 63842
equ@@ 63837
micro@@ 63834
Range@@ 63833
dst@@ 63810
curr 63780
Single@@ 63773
▯%d▯@@ 63763
inline 63759
UT@@ 63748
service_name 63741
Method@@ 63735
predicate 63724
0px 63693
Sum 63674
enable@@ 63668
pause 63657
locked 63651
patch@@ 63649
built 63632
savefig 63630
RPC 63627
ary@@ 63622
normal_@@ 63620
extract@@ 63619
MIN@@ 63614
some_@@ 63607
im_@@ 63589
ctions 63586
eta 63566
tzinfo 63553
agent@@ 63549
Cloud@@ 63545
Ref@@ 63523
Stop@@ 63504
LOGGER 63482
inds 63475
minor 63426
dri@@ 63424
d.▯@@ 63422
mail_@@ 63417
ht 63402
handled 63399
ical@@ 63395
from_string 63393
documentation 63383
render@@ 63372
backup@@ 63355
fore@@ 63334
FE@@ 63317
gl 63291
Si@@ 63277
charset 63276
Ag@@ 63261
emails 63247
==▯@@ 63243
er_name 63243
prime 63215
user_profile 63213
gro@@ 63195
mid@@ 63195
clause 63190
let@@ 63176
pars 63167
relationship 63142
Pri@@ 63098
Sim@@ 63095
mouse 63087
:0@@ 63081
attempts 63078
2d@@ 63076
Print@@ 63072
visibility 63060
create▯@@ 63057
id="@@ 63054
-id 63049
signed 63043
Thread@@ 63038
Char@@ 63019
s/{@@ 62994
port▯@@ 62988
input_shape 62985
ies 62972
sions 62964
PP@@ 62962
missing▯@@ 62933
]+@@ 62925
Col@@ 62914
pub 62912
won 62911
inplace 62905
backwards 62898
DS 62897
network_id 62864
est 62841
)〖lf〗@@ 62807
raise_@@ 62795
x.@@ 62787
js_@@ 62782
ceil 62767
inde@@ 62764
}\n 62757
has▯been▯@@ 62723
eng@@ 62722
ill@@ 62685
sc_@@ 62684
processed_@@ 62667
specified▯@@ 62657
switch@@ 62655
Register 62637
las@@ 62623
sticky 62623
dir_path 62615
UTC 62614
pick@@ 62614
cho@@ 62612
geo 62605
join@@ 62605
Async@@ 62601
outside 62595
layout@@ 62594
Score 62582
spo@@ 62572
Float@@ 62570
Errors 62563
respon@@ 62560
reward 62548
genes 62536
mes 62529
API_@@ 62522
io_@@ 62514
end▯@@ 62495
exit_@@ 62484
string▯@@ 62482
partial_@@ 62481
reverse_@@ 62469
current_user 62467
adds 62462
tool_@@ 62451
addr@@ 62434
product_id 62434
If@@ 62426
matrices 62420
HTTP_@@ 62412
ING@@ 62407
cont@@ 62397
So 62394
piece 62394
:▯%s@@ 62375
mock_get_@@ 62368
second@@ 62362
resi@@ 62355
alg 62351
_write_@@ 62349
bon@@ 62342
Gen@@ 62339
wor@@ 62254
c2@@ 62253
ordered_@@ 62241
whitespace 62235
PUT 62232
%s/%s 62213
flu@@ 62213
Temp@@ 62212
wallet 62210
fast 62199
bt 62194
ram 62194
ble 62193
format_url 62184
protected 62184
dot@@ 62172
generic_@@ 62166
Done 62150
assets 62147
wrap_@@ 62143
sign_@@ 62141
collection@@ 62077
people 62068
Attr 62051
us_@@ 62043
datetime_@@ 62022
Limit 62018
transactions 61985
lower_@@ 61981
caption 61976
waiting 61974
ada 61966
mocked_@@ 61942
ade 61917
fy 61886
live 61881
ked 61842
interpolation 61838
IL@@ 61829
é@@ 61829
fasta 61805
options_@@ 61800
tex 61798
x_ 61797
nc@@ 61786
v3 61781
Assert 61757
Ho@@ 61747
compat 61731
.csv 61730
enough 61729
coun@@ 61724
And 61708
Is 61698
\x00 61688
ES_@@ 61660
character@@ 61654
btn_@@ 61646
merged 61639
heading 61632
Site 61629
chain_@@ 61617
art@@ 61615
_s@@ 61596
peak 61582
nan@@ 61573
far 61558
rot 61549
comp_@@ 61545
wr@@ 61539
__get_@@ 61531
resp_@@ 61470
timestamp@@ 61468
fa 61442
groupby 61411
dep_@@ 61403
from_file 61374
hyp@@ 61374
perms 61368
ity_@@ 61347
ID▯@@ 61339
ged 61329
]*@@ 61318
executed 61316
dynamic 61311
nodes_@@ 61287
append@@ 61273
127.0.0.1 61254
h1 61254
CP 61250
by_id 61241
bot_@@ 61230
successfully 61213
Ph@@ 61197
power@@ 61190
dimension@@ 61183
__doc__ 61170
text▯@@ 61169
Go@@ 61168
pattern@@ 61153
storage@@ 61153
SL@@ 61150
ic▯@@ 61150
QIcon 61122
":"@@ 61091
QU@@ 61061
95 61043
DF@@ 61031
exception@@ 60998
pic@@ 60992
3) 60990
Identifier 60985
bc 60985
roots 60984
Display@@ 60961
110@@ 60944
mapped 60930
corr 60921
lc 60903
GUI 60894
bn@@ 60887
partition_@@ 60880
Vi@@ 60841
calculated 60827
==@@ 60824
front 60822
Move@@ 60815
branches 60801
_process_@@ 60795
DR@@ 60790
ae@@ 60789
mouse@@ 60783
construct 60780
cfg@@ 60775
places 60748
s__ 60747
def▯@@ 60740
question_@@ 60738
Site@@ 60714
got▯@@ 60714
verb 60714
backward 60691
Password 60690
ei@@ 60666
e2 60654
land@@ 60654
down_@@ 60635
stor@@ 60629
Batch@@ 60626
ClsType 60604
theano 60596
3d@@ 60576
route@@ 60576
break@@ 60573
Skip 60560
).@@ 60557
),@@ 60544
0] 60539
c-@@ 60539
angle@@ 60517
cli_@@ 60512
Context@@ 60507
Tab@@ 60507
Mar@@ 60499
bp 60499
random_state 60478
49 60469
complete@@ 60456
obs_@@ 60449
har@@ 60445
sing 60431
average_@@ 60418
account_id 60407
Sizer 60384
screen@@ 60373
Deleting 60341
render_to_response 60336
screen_@@ 60330
native 60329
ha 60319
Pass 60317
ro_@@ 60285
ler@@ 60282
submit_@@ 60277
dl 60275
Meta 60244
see@@ 60224
text_type 60192
pix 60183
p.@@ 60170
fpath 60163
dynamic_@@ 60162
middle 60148
authenticate 60142
sampling 60139
ub 60129
th▯@@ 60128
QPushButton 60110
..@@ 60100
tl@@ 60100
custom@@ 60086
Spec@@ 60080
back_@@ 60071
_handle_@@ 60059
Qgs@@ 60052
fin 60037
ship@@ 60021
cep@@ 60018
cons 60012
spin@@ 59981
wifi 59962
pass_@@ 59954
resolver 59954
boot_@@ 59950
comm@@ 59946
created_at 59943
freq_@@ 59939
Virtual@@ 59923
some▯@@ 59922
sList 59908
check_output 59889
wx@@ 59872
now@@ 59865
Win@@ 59860
0.7@@ 59826
recent 59821
WE@@ 59806
Engine 59796
/v@@ 59772
Col 59760
INT 59752
po 59749
pg_@@ 59727
pending_@@ 59718
е@@ 59710
blob@@ 59694
registration 59694
Com@@ 59685
cn 59677
bucket_@@ 59671
docstring 59664
evaluation 59655
ke_@@ 59640
LE_@@ 59635
modified_@@ 59619
mix@@ 59609
guest 59604
masks 59586
shift_@@ 59566
ine@@ 59511
inst@@ 59491
pad@@ 59487
css@@ 59484
bc@@ 59480
sg 59473
iz@@ 59454
Loader 59450
setLevel 59446
Rows 59436
fact 59435
year_@@ 59431
splits 59429
Video@@ 59423
subscribe 59423
compile_@@ 59407
nl@@ 59400
filesystem 59399
н@@ 59388
tk@@ 59387
listed 59369
Hash@@ 59361
sw 59355
ard 59352
bra@@ 59349
ance_@@ 59347
Part 59341
250 59331
Draw 59319
RGB 59312
File▯@@ 59308
lp 59302
.\n 59296
VALUE 59296
http_response 59296
recv_@@ 59280
LL@@ 59274
Package 59269
"> 59268
ph 59266
lhs 59262
need_@@ 59245
\s+@@ 59244
s... 59241
63 59232
},@@ 59219
cb_@@ 59211
patches 59210
Definition 59208
0.4@@ 59198
ns.core 59189
partner 59187
met@@ 59167
feedback 59165
ans@@ 59162
folder_@@ 59156
Init 59143
12.@@ 59120
note_@@ 59115
@example.com 59095
cal_@@ 59091
systems 59089
board@@ 59083
pol@@ 59077
_init_@@ 59076
Icon 59073
//▯@@ 59054
0.6@@ 59027
Op 59023
_PRO@@ 59017
losses 59012
while▯@@ 59011
hit@@ 59005
boot 59003
itemlist 59002
Can@@ 58995
vector@@ 58995
wave@@ 58989
ac_@@ 58987
0.8@@ 58956
sha256 58952
api-version 58944
Creating▯@@ 58932
feed@@ 58928
datastore 58909
whose 58904
depends 58897
Foo@@ 58891
Ste@@ 58868
big 58865
Environment 58856
54 58853
mocker 58837
RIGHT 58833
data-@@ 58831
grad@@ 58806
',@@ 58742
pr_@@ 58736
full_path 58717
cx 58704
possible_@@ 58701
1D 58700
cores 58669
sun@@ 58669
thresh 58632
TF@@ 58628
alloc@@ 58624
Serializer 58620
contrib 58618
allclose 58614
Interface@@ 58605
ron 58595
Dec@@ 58588
Application@@ 58568
project_name 58549
ify 58527
will▯be▯@@ 58525
dm@@ 58507
probably 58491
relations 58479
flat@@ 58466
%%@@ 58441
rather 58428
cannot▯be▯@@ 58425
USE_@@ 58422
ml_@@ 58413
input_file 58401
unused 58399
wave 58384
Fe@@ 58374
0.7 58369
sympy 58342
у@@ 58338
FF 58334
pul@@ 58330
bs@@ 58326
periods 58298
lig@@ 58258
returning 58258
Labels 58250
tit@@ 58243
}▯{@@ 58242
3/@@ 58239
_size 58204
COM@@ 58196
lstrip 58167
Report@@ 58143
Missing▯@@ 58107
pix@@ 58082
tempdir 58079
ry@@ 58058
listing 58052
expand_@@ 58030
duplicates 58027
nested_@@ 58014
sink 57956
fi 57932
cancel_@@ 57913
_find_@@ 57900
Container@@ 57872
device_id 57858
notification_@@ 57854
6_@@ 57849
begin@@ 57847
widget@@ 57817
sis 57813
SUCCESS 57812
if▯(@@ 57810
coefficients 57793
object_id 57785
pwd 57778
assert_array_equal 57775
pt_@@ 57770
111 57755
err_msg 57754
contact@@ 57749
set_text 57738
Cell 57732
DD@@ 57731
sim@@ 57720
docker_@@ 57707
START 57697
om 57688
bug@@ 57684
Bytes 57678
deserialize 57675
article_@@ 57644
Matrix@@ 57642
PS@@ 57640
Exception@@ 57636
stre@@ 57629
txid 57616
8_@@ 57615
s▯with▯@@ 57602
Wait 57600
observation 57600
validate@@ 57592
svn 57591
get_text 57589
unless 57583
tive@@ 57581
unknown▯@@ 57576
%s%s 57570
TYPES 57554
Player@@ 57549
\s@@ 57535
0.001 57534
subdir 57518
Debug@@ 57512
error_msg 57504
cost_@@ 57503
agents 57501
get_object_or_404 57491
try@@ 57491
rb@@ 57487
_i@@ 57482
.xml 57481
win_@@ 57481
ax1 57468
hbox 57467
DOWN 57462
Down 57456
linux 57456
ave 57447
fallback 57443
apply@@ 57437
(%s) 57434
configure_@@ 57405
sed▯@@ 57392
Profile@@ 57390
;〖lf〗@@ 57387
:▯'@@ 57375
enc 57372
author_@@ 57358
gb@@ 57343
filled 57310
72 57302
leave 57298
5-@@ 57271
PH@@ 57268
rollback 57265
OK@@ 57262
workdir 57260
oauth_@@ 57256
qt@@ 57251
Empty@@ 57249
Product 57230
ations_@@ 57230
grade 57228
look@@ 57201
subject_@@ 57172
Axis 57167
ations@@ 57132
application@@ 57126
deployment 57125
0.6 57116
HTTPError 57116
pipeline_@@ 57092
meter 57067
before▯@@ 57059
Layout@@ 57057
di 57051
Extension 57048
},▯@@ 57038
t▯to▯@@ 57013
compatibility 56998
nickname 56995
_do_@@ 56990
57 56984
ENT@@ 56953
set_value 56935
compatible 56933
radians 56929
0,▯@@ 56915
03 56915
pitch 56910
assertNotIn 56899
b▯@@ 56899
addCallback 56898
movie@@ 56883
linear_@@ 56854
scroll@@ 56834
posi@@ 56802
120@@ 56790
pair@@ 56788
proper 56776
play_@@ 56770
displayed 56767
INSERT▯INTO▯@@ 56726
log_file 56720
longer 56714
WIDTH 56707
leg@@ 56696
scatter 56696
attachments 56694
sentinel 56690
version▯@@ 56672
valid@@ 56666
mtime 56657
s_name 56640
ction_@@ 56623
publish_@@ 56618
Root@@ 56612
simple@@ 56610
fully 56607
arch@@ 56601
drive 56578
ping@@ 56571
TION 56569
ConfigParser 56563
Car@@ 56554
Total 56551
k1 56549
explo@@ 56543
cross_@@ 56541
directory_@@ 56533
snap@@ 56515
multiplier 56511
problem_@@ 56506
policies 56494
pragma 56484
tester 56483
dp@@ 56473
try▯@@ 56470
proj@@ 56465
wise 56465
rest_@@ 56464
])@@ 56446
face_@@ 56418
ssi@@ 56413
urlencode 56404
particular 56398
Exp@@ 56392
Remote@@ 56376
send_message 56376
ing.@@ 56374
detect 56373
manager_@@ 56354
blue@@ 56353
hol@@ 56353
separate 56351
logout 56333
Selection@@ 56316
66 56313
Mon@@ 56296
Basic@@ 56286
ze_@@ 56282
condition@@ 56280
language@@ 56279
Stack@@ 56275
Fo@@ 56271
who 56269
subplot 56252
0.2@@ 56251
ack_@@ 56249
owner@@ 56247
volume_id 56230
isnan 56222
["@@ 56213
comparison 56211
Normal 56209
delete▯@@ 56200
first▯@@ 56174
years 56162
mr@@ 56140
alt_@@ 56137
descr 56110
00000000@@ 56106
texts 56087
counters 56081
sol 56079
zone_@@ 56079
sha 56078
DS@@ 56068
live@@ 56054
resource_id 56053
ction@@ 56034
interactive 56034
Sequence@@ 56022
ERROR@@ 56017
create_table 56007
instructions 56005
sco@@ 56005
Keyword 55991
namespace_@@ 55984
Bi@@ 55979
vote 55970
console_@@ 55953
%r@@ 55947
s▯the▯@@ 55936
Ctrl 55934
d2@@ 55934
53@@ 55930
core@@ 55916
tl 55916
pack@@ 55886
payload_@@ 55875
sigma_@@ 55859
path_to_@@ 55856
Extract 55846
greater 55832
〖lf〗▯▯▯▯▯▯▯▯▯▯▯▯▯▯▯▯▯▯▯▯▯▯▯▯▯▯▯▯@@ 55817
Usage 55810
EM@@ 55797
update▯@@ 55797
packet_@@ 55791
slice@@ 55783
RequestContext 55779
cul@@ 55766
Fil@@ 55761
answer_@@ 55755
Script@@ 55750
}} 55743
resourceGroupName 55742
▯to▯the▯@@ 55730
static@@ 55714
run_command 55708
inst_@@ 55698
Plot@@ 55693
imports 55685
unknown_@@ 55679
replacement 55664
CG@@ 55663
ary_@@ 55663
.▯ 55614
SQL@@ 55614
ids_@@ 55613
sent_@@ 55592
▯B@@ 55580
compress 55571
seri@@ 55568
g1 55564
SET▯@@ 55551
viewer 55545
variants 55543
PAR@@ 55534
Reset 55528
payment 55528
reset@@ 55528
completion 55527
Packet 55525
Util 55484
3600 55473
stra@@ 55445
4-@@ 55440
fx 55433
tup 55430
Mat@@ 55427
serialized 55426
ical_@@ 55412
markers 55411
ship 55390
slo@@ 55389
expanduser 55383
management 55377
subnet_@@ 55359
self._config.subscription_id 55347
fl 55326
h2 55325
wt 55313
terminate 55309
Json@@ 55307
Loop 55298
Static@@ 55297
Admin@@ 55293
alive 55290
test/@@ 55266
Distance 55263
loc_@@ 55236
decode@@ 55218
ymax 55214
pe 55206
VC@@ 55195
iso 55191
redis_@@ 55184
noise_@@ 55173
neg 55156
Use@@ 55144
а@@ 55132
logged 55117
96 55115
DB_@@ 55114
spli@@ 55089
able▯@@ 55078
lim@@ 55057
strand 55057
success_@@ 55054
indicating 55049
pm@@ 55034
origin@@ 55018
chi@@ 55011
mandatory 54988
seqs 54984
Draw@@ 54966
med 54965
hello@@ 54926
Enum 54909
ListResult 54896
get_name 54894
lim 54891
52@@ 54886
Db@@ 54885
only@@ 54864
X▯@@ 54853
AND@@ 54829
anti@@ 54800
AndReturn 54797
dct 54785
pdf@@ 54768
Drop@@ 54765
collect_@@ 54750
Validate 54744
empty@@ 54742
method▯@@ 54729
mf 54707
bank 54698
identity_@@ 54689
elapsed 54685
:\n 54682
swap 54671
gui@@ 54664
visi@@ 54659
Region 54647
ables 54647
django.db.models.fields.CharField 54647
6▯@@ 54643
pag@@ 54626
stopped 54623
base_dir 54621
dialog@@ 54613
hierarchy 54610
=%s@@ 54609
Information 54604
points_@@ 54604
cas@@ 54595
Called 54593
interp 54587
s}@@ 54578
2015@@ 54575
invoke 54568
magic 54562
pieces 54561
TIMEOUT 54558
authorization 54548
sil@@ 54548
:\n@@ 54544
license 54535
shard_@@ 54535
84 54524
Define 54515
tensor@@ 54511
get_current_@@ 54506
bf@@ 54502
gd@@ 54496
launch@@ 54495
equivalent 54493
parsed_args 54488
initi@@ 54482
supported_@@ 54480
extension@@ 54459
rho@@ 54449
Count@@ 54439
']@@ 54432
Def 54427
capabilities 54412
her@@ 54404
data_path 54390
photo@@ 54387
rg@@ 54386
Retry 54385
statuses 54373
00000@@ 54347
Entity@@ 54346
arrow 54343
attribute▯@@ 54335
ima@@ 54334
123@@ 54329
gran@@ 54323
defines 54319
rectangle 54319
Media@@ 54279
mul 54272
GT@@ 54270
iteritems 54259
Formatter 54255
unique@@ 54233
output_path 54203
failed▯@@ 54199
Cre@@ 54192
т@@ 54185
acc_@@ 54183
crop 54174
resol@@ 54169
activ@@ 54152
Must 54145
values@@ 54128
expires 54121
draft 54120
_Get@@ 54108
pn@@ 54091
DN@@ 54083
pattern_@@ 54077
ay 54076
horizontal 54076
Ap@@ 54060
Imp@@ 54058
Script 54051
Email@@ 54047
Apply 54044
--▯@@ 54027
tv 54022
format_exc 54018
EXPAND 54005
ant_@@ 53968
literal 53967
Q_@@ 53944
sb 53941
fw 53940
}〖lf〗@@ 53936
Doc@@ 53911
ion@@ 53910
nu 53910
inner@@ 53891
story 53885
amount_@@ 53857
building 53819
L▯@@ 53818
thumb 53815
IS 53812
tz@@ 53811
Sample 53794
nav@@ 53790
rec_@@ 53787
Random@@ 53780
rank@@ 53780
CustomConstraint 53775
small@@ 53772
videos 53764
property@@ 53763
equals 53756
hr@@ 53748
texture 53744
abc@@ 53720
status▯@@ 53711
rates 53697
Obj@@ 53695
bul@@ 53690
buffer@@ 53683
cover@@ 53681
▯on▯@@ 53669
sentences 53640
directory@@ 53624
Http@@ 53610
buckets 53608
jar 53602
Objects 53594
transfer_@@ 53592
border@@ 53590
\t\t@@ 53574
ants 53571
FS 53569
required▯@@ 53548
Settings@@ 53546
basedir 53543
running▯@@ 53528
bur@@ 53525
Email 53517
icon_@@ 53516
compute@@ 53509
list_of_elem 53505
alle@@ 53496
figsize 53492
default_value 53489
stu@@ 53461
UM@@ 53456
al-@@ 53450
dataset@@ 53433
4f@@ 53413
assert_almost_equal 53403
1d@@ 53392
gzip 53373
MAX 53367
classification 53358
enter@@ 53356
out▯@@ 53351
Valid 53343
initialize_@@ 53334
cast@@ 53322
item_id 53298
pw 53296
libs 53287
Connect 53286
USER_@@ 53281
aut@@ 53275
machine@@ 53274
rr 53244
vol_@@ 53244
relevant 53214
file_list 53209
Left@@ 53196
fileobj 53196
tbl 53171
clip_@@ 53166
Remove@@ 53162
supports 53162
cl_@@ 53158
final@@ 53155
Contents 53148
quota 53140
tic_@@ 53115
class_ 53110
users_@@ 53109
ure 53100
vp@@ 53100
STATUS 53095
OO@@ 53094
hy@@ 53092
GU@@ 53080
mysql 53069
&▯@@ 53065
indexer 53063
ges 53059
measurement 53057
abstract 53051
iff 53037
much 53036
event_id 53031
available@@ 53002
dic@@ 52980
deploy_@@ 52968
skipped 52965
EVT_@@ 52962
k-@@ 52930
ymin 52896
zip_@@ 52879
NOT_@@ 52870
ravel 52870
<a▯href="@@ 52859
extension_@@ 52855
CODE 52841
PE@@ 52839
Route@@ 52836
о@@ 52835
custom_headers 52809
pylab 52808
0b@@ 52800
Retrieve 52796
pressure 52776
none@@ 52773
det 52752
001 52751
fan@@ 52748
eval@@ 52742
gram 52730
Transition 52729
CONFIG_@@ 52714
Then 52712
ERROR_@@ 52700
arm 52693
packets 52691
mapping_@@ 52685
hparams 52683
Of 52682
capture_@@ 52673
__eq__ 52671
adjust 52665
owner_@@ 52656
have_@@ 52655
sprite 52646
direct_@@ 52629
Ip@@ 52616
snapshots 52596
Tx@@ 52585
Parent@@ 52583
Center 52580
Determine 52580
We@@ 52579
graphs 52572
transaction_@@ 52557
plain 52524
language_@@ 52515
class="@@ 52506
unicode_@@ 52495
mesh@@ 52489
incoming 52484
integers 52479
heads 52466
fer@@ 52449
hand@@ 52448
chrom 52444
embedding 52441
labels_@@ 52435
utility 52433
phone@@ 52419
replic@@ 52415
results@@ 52414
mg@@ 52407
999 52406
named_@@ 52401
verts 52396
embedding_@@ 52387
ipv6 52362
username@@ 52354
extras 52347
workflow_@@ 52342
fout 52341
zation 52341
nearest 52321
SELECT 52295
Expr 52291
Adds 52273
potential 52264
nonce 52262
staff 52253
pick 52250
Word 52218
Full@@ 52215
acc@@ 52214
400@@ 52213
outs 52212
video_id 52208
etag 52195
course_key 52184
modify_@@ 52184
:▯{}@@ 52173
ck_@@ 52168
fanart 52163
4. 52140
pla@@ 52137
NaN 52131
CM@@ 52119
i2 52115
YP@@ 52110
0.000@@ 52083
nl 52081
Split 52078
home_@@ 52074
Star@@ 52073
tot 52072
eg@@ 52062
mouse_@@ 52055
b2@@ 52051
los 52050
AnonymousCredentials 52041
shar@@ 52032
calcul@@ 52024
beginning 52006
execution_@@ 51996
translations 51975
happen 51971
rea@@ 51955
Su@@ 51953
letters 51944
2,▯@@ 51935
Authorization 51934
yaml_@@ 51932
trial 51928
data_dict 51927
platform_@@ 51920
Groups 51903
Iterable 51882
painter 51845
EV@@ 51844
special_@@ 51839
cmdline 51820
dec_@@ 51820
divi@@ 51818
footer 51813
curses 51811
ute 51810
lat_@@ 51808
True@@ 51800
bulk_@@ 51798
-c 51797
Data▯@@ 51797
key_name 51794
85 51792
Track@@ 51792
disks 51786
Tool 51761
61 51751
ITY 51741
BytesIO 51739
hat 51736
width_@@ 51730
others 51716
across 51710
votes 51705
ByName 51697
Fa@@ 51689
hor@@ 51668
pid@@ 51663
Game 51630
ResourceNotFoundError 51617
restore_@@ 51617
expressions 51612
echo@@ 51611
Pi@@ 51609
parent_id 51601
flip 51588
svg 51586
Namespace 51583
fixtures 51583
verified 51571
nic@@ 51543
any_@@ 51542
MODE 51541
.1 51530
fromstring 51523
media@@ 51516
message_id 51514
load▯@@ 51513
added_@@ 51505
OP_@@ 51489
lower@@ 51486
q1 51474
tests/@@ 51463
ray 51462
masked 51452
slave 51447
67 51445
_dict 51441
application_@@ 51439
ion 51438
randn 51437
cidr 51433
!=▯@@ 51429
override_@@ 51422
alert_@@ 51415
dense 51406
wo@@ 51403
INT@@ 51389
eu@@ 51378
prefs 51372
_pipeline 51367
new_name 51365
similar 51359
204 51357
indi@@ 51353
Res@@ 51343
check▯@@ 51324
__new__ 51323
post_data 51323
get_context_data 51314
not▯found 51280
RE_@@ 51275
2015 51272
omega 51269
Total@@ 51227
Validator 51219
stores 51215
writing 51210
explicitly 51208
integr@@ 51197
58 51175
builds 51174
math@@ 51166
_h@@ 51148
random@@ 51146
exit_code 51116
popup 51114
Y▯@@ 51106
ia 51098
broadcast 51078
ta_@@ 51074
severity 51053
Agent@@ 51045
Minimum 51044
issu@@ 51030
ked_@@ 50982
Execute 50969
inv@@ 50961
EE@@ 50951
listen 50939
eg 50938
estimate 50936
throw 50919
lexer 50905
entr@@ 50894
cursor_@@ 50881
event_type 50848
ye@@ 50847
Since 50846
ul 50846
entity@@ 50845
ctl 50844
les@@ 50841
e_id 50829
matcher 50828
coeffs 50784
get_user_@@ 50763
topic@@ 50762
vim 50758
l.@@ 50749
molecule 50748
Close@@ 50726
month@@ 50722
combo@@ 50715
calculation 50705
GL 50680
nonzero 50674
RE 50670
Copy@@ 50668
;〖lf〗▯▯▯▯▯▯▯▯@@ 50663
Language 50663
who@@ 50654
keep@@ 50645
ram@@ 50640
please 50621
Memory@@ 50616
BR@@ 50614
bool@@ 50606
stable 50589
62 50587
origin_@@ 50581
add_column 50577
Render@@ 50564
KeyboardInterrupt 50554
pretty_print 50553
node▯@@ 50537
providers 50525
norm@@ 50520
chunk@@ 50517
Sign@@ 50513
OUT 50511
simul@@ 50510
tmp_dir 50508
Exists 50504
band@@ 50498
setGeometry 50496
_m@@ 50494
flat_@@ 50490
%s-@@ 50487
platform@@ 50479
Position@@ 50475
nam@@ 50470
ash@@ 50463
}{@@ 50462
Component@@ 50461
performance 50459
category@@ 50458
Ok 50450
ao@@ 50430
counter@@ 50412
Database@@ 50410
gt_@@ 50405
are_@@ 50398
function▯@@ 50378
68 50377
hist@@ 50371
pun@@ 50368
share@@ 50368
enti@@ 50366
shell_@@ 50360
h2@@ 50352
silent 50352
km 50346
72@@ 50344
ga_credentials 50344
holes 50339
%i@@ 50334
dictionaries 50332
Mac@@ 50321
ing-@@ 50311
dirty 50304
Pr@@ 50301
ber 50295
prefixes 50288
chain@@ 50265
Poly@@ 50264
*/@@ 50247
ri 50234
math_ops 50233
number▯@@ 50224
Step@@ 50222
require_@@ 50216
initial@@ 50210
Fixed@@ 50208
pixel_@@ 50208
l2_@@ 50206
gender 50191
-o 50185
tive 50178
\n▯@@ 50157
virtual@@ 50156
together 50150
ja@@ 50131
teams 50111
widths 50110
Screen 50084
correct@@ 50084
realpath 50084
ptr@@ 50079
zed_@@ 50076
contract 50068
StopIteration 50056
direct@@ 50048
1234@@ 50013
History 50010
Starting▯@@ 50010
kb 50006
HttpRequest 50005
_info 49992
tmpl 49992
dom@@ 49987
ster_@@ 49976
dup@@ 49965
sing@@ 49957
vl@@ 49953
pressed 49945
request_id 49940
Proxy@@ 49926
FROM 49904
genome 49885
broker 49879
false@@ 49876
NORMAL 49874
machine_@@ 49871
pop_@@ 49864
̈@@ 49856
learning 49841
brush 49832
ality 49819
All▯@@ 49813
rad@@ 49809
world@@ 49806
mo_@@ 49804
>〖lf〗<@@ 49799
AF@@ 49794
cat_@@ 49790
visited 49779
du 49777
matching_@@ 49760
selec@@ 49751
g2 49750
verify@@ 49745
dirpath 49742
upper_@@ 49732
resource_name 49729
build▯@@ 49705
_current_@@ 49703
codecs 49698
ks@@ 49694
version_info 49691
Paths 49690
slope 49686
argmax 49682
sq 49677
namespace@@ 49669
0x8@@ 49667
distinct 49637
fileno 49623
Arg@@ 49622
ra_@@ 49602
lid 49599
side_@@ 49585
Doc 49582
frappe 49557
fro@@ 49557
Return@@ 49555
BL@@ 49552
302 49549
ful@@ 49535
/dev/@@ 49533
docker 49512
mor@@ 49506
bri@@ 49491
Manager@@ 49458
entropy 49454
(.*?)@@ 49452
of▯the▯@@ 49452
user_data 49452
Import 49450
x2@@ 49445
s▯ 49418
mul@@ 49417
sent@@ 49414
ded▯@@ 49410
mn@@ 49399
horizontalLayout_@@ 49393
gray 49387
resulting 49380
FILE@@ 49367
name}@@ 49355
_f@@ 49350
ResourceExistsError 49344
Case 49343
sec_@@ 49341
:▯%(@@ 49331
clu@@ 49326
nest 49325
ding_@@ 49320
water@@ 49320
objective 49318
journal 49317
sch@@ 49317
uuid@@ 49307
rp 49306
fre@@ 49299
round_@@ 49299
Clear 49293
Rel@@ 49293
come 49290
ars 49268
used▯@@ 49256
opcode 49254
BS@@ 49253
map_error 49253
prote@@ 49253
encoded_@@ 49232
ipv4 49230
s(@@ 49226
"%s" 49218
[@@@ 49209
pv@@ 49205
Driver 49201
gb 49196
Next 49191
\' 49184
assertAllEqual 49176
quanti@@ 49169
Unexpected▯@@ 49162
Power@@ 49146
Seq 49144
typing 49136
app_name 49128
_generate_@@ 49126
blocking 49112
snap 49108
>〖lf〗@@ 49104
scope_@@ 49101
и@@ 49075
HEAD 49062
given▯@@ 49061
Attr@@ 49058
Linear@@ 49045
mount_@@ 49037
distance@@ 49021
wraps 49011
000000@@ 49007
rand_@@ 49005
_set@@ 49002
add_to_@@ 49001
raw_data 48970
.*?@@ 48968
?▯@@ 48968
6-@@ 48963
launch_@@ 48956
p3 48955
single@@ 48951
Numeric@@ 48940
ome@@ 48928
closing 48923
merged_@@ 48921
ClientAuthenticationError 48918
COMP@@ 48910
er.@@ 48908
2014@@ 48905
fla@@ 48892
snippet 48890
GI@@ 48889
grads 48881
CSV 48858
゙@@ 48855
parti@@ 48848
port_id 48836
Access 48830
gpu 48830
publisher 48813
Word@@ 48781
projec@@ 48758
Transaction 48756
sion▯@@ 48752
relpath 48750
peaks 48748
s\n 48738
RED 48737
11.@@ 48729
getter 48719
{2}@@ 48717
ort 48701
Domain@@ 48691
signal@@ 48680
Found 48671
Iterator 48670
dbname 48663
eth@@ 48645
88 48638
Jo@@ 48628
phase_@@ 48621
centers 48620
Length@@ 48619
Condition 48609
prevent 48607
var_name 48606
pyp@@ 48603
separated 48584
nr@@ 48583
publish@@ 48581
pan@@ 48554
git▯@@ 48548
192.168.@@ 48547
62@@ 48545
review@@ 48542
82@@ 48541
ency 48540
FO@@ 48538
rand@@ 48532
1b@@ 48528
getting 48527
health 48523
Sec@@ 48518
MC@@ 48517
java_@@ 48517
combine 48516
UnicodeUTF8 48497
baseline 48494
live_@@ 48493
functools 48483
OR_@@ 48471
Current 48470
NAME_@@ 48466
signature_@@ 48465
id1 48463
serial_@@ 48437
truth 48415
data_file 48411
detected 48410
rx@@ 48407
Off 48405
configuration▯@@ 48405
libraries 48396
layout_@@ 48395
ang 48374
tooltip 48359
codec 48348
bias_@@ 48342
mac_@@ 48342
indicates 48331
k2 48330
vent@@ 48328
b.@@ 48326
s0 48318
deci@@ 48315
student_@@ 48302
transformation 48298
Fit@@ 48296
Vo@@ 48294
il_@@ 48280
h▯@@ 48275
peer_@@ 48272
routine 48269
away 48263
77 48255
config_path 48239
base_path 48238
phrase 48234
error_format 48222
appear 48218
sphere 48214
ff_@@ 48213
operation@@ 48205
choose 48200
was@@ 48198
provides 48177
V2 48172
invoice_@@ 48161
assertAllClose 48156
namespace_ 48152
:▯%r 48150
Track 48138
initialization 48122
Setting@@ 48119
module▯@@ 48117
u1 48110
defer 48106
LD@@ 48105
ball 48101
readonly 48098
Location@@ 48093
socket_@@ 48091
failed▯to▯@@ 48083
Editor 48081
ML@@ 48077
son 48065
sheet@@ 48039
cookie_@@ 48024
wiki@@ 48016
read▯@@ 48010
gate 48004
hal@@ 47999
interval_@@ 47997
a2@@ 47996
Use▯@@ 47995
xx@@ 47995
360 47994
optimize 47990
dur@@ 47979
к@@ 47973
NUM_@@ 47958
prec 47952
decoded 47945
queues 47943
Checker 47938
cuda 47922
Operator 47919
doing 47909
tcp 47906
check_call 47905
recipients 47896
ai 47894
HD@@ 47889
user1 47880
multiply 47855
ylim 47853
With 47849
source▯@@ 47842
xm@@ 47841
Sk@@ 47839
test_update_@@ 47832
reduce_@@ 47826
but@@ 47781
Angle 47775
ba 47772
entire 47772
Pos@@ 47767
rai@@ 47766
analysis_@@ 47765
iloc 47765
Invalid 47757
observer 47754
isdigit 47751
preferences 47751
indent@@ 47740
correction 47737
demo@@ 47733
data2 47706
articles 47698
logging_@@ 47689
Features 47678
81 47677
interval@@ 47672
m/@@ 47657
Exit 47655
)) 47649
ge▯@@ 47646
OU@@ 47642
Connect@@ 47641
Protocol@@ 47630
Tensor@@ 47630
\3@@ 47597
BI@@ 47586
cion 47585
tax 47581
P▯@@ 47578
issubclass 47572
elt 47552
failUnless 47551
>▯ 47541
Extension@@ 47528
high_@@ 47497
gui_@@ 47495
iv@@ 47489
predict_@@ 47489
Active 47486
2.0@@ 47481
already_processed 47462
Prop@@ 47458
formatted_@@ 47453
review_@@ 47452
TV@@ 47449
av 47448
off_@@ 47442
bm@@ 47423
eye 47418
gh@@ 47414
Factor 47408
likelihood 47404
get_or_create 47393
node1 47385
host▯@@ 47379
sive 47368
corresponds 47347
ft_@@ 47347
timestamps 47343
term@@ 47340
TABLE 47331
DC@@ 47322
zer 47319
8▯@@ 47305
receive_@@ 47305
disp 47297
lo_@@ 47297
2016@@ 47295
beta_@@ 47286
regexp 47279
cts 47275
permission@@ 47270
extr@@ 47258
specification 47251
cop@@ 47249
db_name 47244
78 47236
hu@@ 47236
course@@ 47229
credential 47220
Geometry 47218
depending 47210
target▯@@ 47209
features_@@ 47199
cy 47185
courses 47173
pf 47166
5000 47143
Wrap 47130
populate 47126
.jpg 47117
squ@@ 47113
NO 47109
encoder_@@ 47109
confidence 47104
bio@@ 47097
code▯@@ 47068
squeeze 47064
lp@@ 47053
Speed 47051
marks 47045
quote_@@ 47043
isoformat 47032
User▯@@ 47018
locs 47017
Constructor 46993
sn 46986
regex_@@ 46968
tax_@@ 46968
__iter__ 46951
facts 46950
a0 46943
s.html 46940
iterate 46937
STR@@ 46934
63@@ 46933
={} 46932
dw@@ 46911
Socket 46907
iv 46903
ash 46895
considered 46867
s) 46866
pat 46864
freqs 46861
peer@@ 46856
Person@@ 46843
coef 46840
cache_key 46836
AWS 46835
▯▯▯▯▯▯▯▯▯▯▯▯@@ 46833
current_app 46829
ness@@ 46825
candidate_@@ 46823
''@@ 46777
fingerprint 46775
QSize 46772
rx_@@ 46769
bl 46767
config.@@ 46762
dpi 46762
lets 46742
root_dir 46728
subparsers 46725
SystemExit 46718
transforms 46709
expr@@ 46705
java 46695
:%s 46693
ARMErrorFormat 46681
[0-9@@ 46677
vir@@ 46668
image▯@@ 46641
glyph@@ 46640
Some 46633
more▯@@ 46628
Url@@ 46627
hw@@ 46627
monitor_@@ 46618
Val@@ 46613
cont_token 46609
dialect 46607
all_params 46602
DT@@ 46586
Headers 46585
vmax 46585
website 46575
dispatcher 46572
Updates 46569
worker@@ 46566
aliz@@ 46560
market 46530
depth_@@ 46527
rev_@@ 46523
kg 46507
DU@@ 46502
Your▯@@ 46500
́ 46496
FilePath 46494
BC@@ 46481
rect@@ 46478
ctype 46477
NAME@@ 46461
press 46459
Success 46456
frac 46450
calc@@ 46446
10. 46445
double@@ 46444
subtype 46438
logo 46435
ath 46420
opened 46383
round@@ 46383
"]@@ 46377
driver@@ 46375
160 46369
zones 46369
struct_@@ 46362
LENGTH 46349
pho@@ 46346
install▯@@ 46335
.com@@ 46328
MB@@ 46327
touch 46326
tokenizer 46323
identifiers 46319
ind_@@ 46318
----@@ 46304
UTF-8 46297
_last_@@ 46294
explicit 46294
with▯the▯@@ 46292
GET_@@ 46290
chunk_size 46289
name,▯@@ 46286
ches 46274
combined 46259
arc 46257
resolved 46247
ae 46246
opener 46235
=%@@ 46227
normalization 46226
particles 46221
redirect_@@ 46220
ked@@ 46219
exc_@@ 46204
assign@@ 46196
to_string 46194
wp@@ 46184
Style@@ 46178
ino@@ 46173
s.txt 46169
Member 46166
accept_@@ 46162
')@@ 46155
ree 46153
{}_@@ 46140
rsp 46137
get_model 46131
feed_dict 46122
ard@@ 46121
week@@ 46115
assert_raises 46112
cname 46101
eri@@ 46100
cancel@@ 46094
remo@@ 46094
Init@@ 46085
lin 46081
"%s"▯@@ 46071
GetValue 46068
proto@@ 46065
boot@@ 46060
fields_@@ 46058
attach_@@ 46042
ut_@@ 46041
desired_@@ 46027
correlation 46026
valid▯@@ 46024
mesh_@@ 46022
family_@@ 46016
replaced 46000
you@@ 45998
ages 45991
group▯@@ 45973
bro@@ 45962
having 45958
_class 45948
Schema@@ 45946
mati@@ 45946
flattened 45943
fakes 45942
operators 45937
grpc_@@ 45909
n_samples 45907
uri_@@ 45903
stage_@@ 45893
rn@@ 45881
dummy@@ 45876
{}.@@ 45875
timeout@@ 45870
des@@ 45864
fir@@ 45859
2014 45850
deleted_@@ 45849
online 45845
Scan@@ 45835
VER@@ 45828
yy 45811
dry_run 45803
NN@@ 45793
ide@@ 45793
txn 45792
spawn 45760
node_name 45745
els 45744
aspect 45740
mx@@ 45733
compressed 45732
why 45727
Add▯@@ 45717
air 45716
frequencies 45709
1c@@ 45694
datum 45694
vt@@ 45689
configuration_@@ 45686
gp 45682
frag 45667
get_config 45663
fold 45658
transform@@ 45657
lon_@@ 45640
Exit@@ 45637
89 45628
lw 45626
expired 45600
...▯@@ 45599
lines_@@ 45599
_session 45598
gz 45597
arg1 45596
take@@ 45592
height@@ 45583
BeautifulSoup 45569
failed@@ 45569
test_add_@@ 45562
SB@@ 45558
Upload@@ 45558
rever@@ 45555
Edge 45554
RN@@ 45550
LINE 45549
Strings 45547
Segment 45527
%d,▯@@ 45518
coll 45513
imshow 45508
shown 45508
CB@@ 45500
bran@@ 45497
data.@@ 45492
newaxis 45489
represents 45483
variable_scope 45463
each_@@ 45462
observed 45444
((@@ 45413
TED 45399
bla@@ 45390
attached 45389
freq@@ 45389
sqlite3 45389
HOME 45382
Debug 45377
usage_@@ 45376
RT@@ 45375
datas 45368
spin 45367
place_@@ 45362
}) 45358
certain 45356
cg@@ 45349
got_@@ 45336
getenv 45323
UD@@ 45305
osid 45303
hr 45301
passes 45292
normpath 45282
call_args 45279
sickbeard 45276
writes 45271
tcp@@ 45261
je@@ 45238
audi@@ 45234
wf 45232
algo 45230
temp_dir 45221
Struct 45220
sv 45217
into▯@@ 45215
question@@ 45209
Rate@@ 45188
double_@@ 45179
hints 45176
202 45171
Users 45161
scrip@@ 45155
Api 45151
ale@@ 45140
choice@@ 45140
geo_@@ 45140
manifest_@@ 45137
:/@@ 45123
failure_@@ 45121
macro 45120
modifiers 45119
no-@@ 45119
ignore@@ 45090
detector 45088
ns.network 45087
EXP@@ 45086
test_delete_@@ 45083
assertIs 45080
dag 45076
kes 45073
hide_@@ 45067
(%s@@ 45040
Free@@ 45032
log10 45017
Argument@@ 45014
USER@@ 45012
episode_@@ 45005
Export@@ 45003
76 44984
>〖lf〗▯▯▯▯<@@ 44983
{0}/@@ 44981
seed_@@ 44979
Download@@ 44977
3f 44974
items_@@ 44958
care 44956
Hand@@ 44945
relay 44940
anim@@ 44936
nova 44932
bottom_@@ 44931
zipfile 44914
quotes 44906
Dat@@ 44903
prob_@@ 44902
create_user 44875
matched_@@ 44874
google_@@ 44871
/v1/@@ 44865
dent@@ 44864
getName 44864
method_name 44861
eig@@ 44857
wk@@ 44856
Mis@@ 44844
energy_@@ 44841
lap@@ 44838
simply 44838
certificate_@@ 44835
browser@@ 44825
Cmd@@ 44820
deploy 44818
Admin 44811
copied 44803
lv@@ 44800
assignments 44789
key1 44782
Down@@ 44774
f.@@ 44772
Password@@ 44769
ground 44761
radio 44760
setting_@@ 44756
CFG 44746
Ser@@ 44741
price@@ 44740
neighbor 44736
fon@@ 44727
tim@@ 44725
monkeypatch 44712
GA@@ 44710
\u@@ 44700
ADD@@ 44697
▯▯▯▯▯▯▯▯▯▯▯▯▯▯▯▯@@ 44694
Dialog@@ 44693
8-@@ 44679
hour@@ 44679
crash 44667
exactly 44665
>〖lf〗▯▯▯▯▯▯▯▯<@@ 44654
PA@@ 44654
requested_@@ 44654
MAX@@ 44652
Clo@@ 44650
corner 44646
tags_@@ 44603
room_@@ 44596
click@@ 44595
runtime_@@ 44595
comma 44592
Er@@ 44589
Child@@ 44580
loss@@ 44578
scaled 44573
hel@@ 44572
manage@@ 44571
▯/@@ 44563
ok_@@ 44561
extended 44559
artifact 44549
bands 44544
gapic_v1 44539
leaves 44538
to▯ 44534
vertex@@ 44533
ax_@@ 44530
FILES 44528
encrypt 44526
hub@@ 44521
pair_@@ 44519
],@@ 44511
decay 44505
0x1@@ 44503
Mod@@ 44498
Space@@ 44497
ir_@@ 44495
er_id 44492
ot 44492
launch 44489
beta@@ 44487
Configuration@@ 44486
sy 44481
null_@@ 44479
album@@ 44477
strip@@ 44458
reuse 44447
bg_@@ 44440
client_info 44433
fm 44407
QWidget 44395
_key 44392
Running▯@@ 44382
Cancel 44370
Byte@@ 44355
{:.@@ 44355
Loc@@ 44350
detection 44349
_test@@ 44338
proc@@ 44338
FS@@ 44337
Conver@@ 44330
less@@ 44329
2:@@ 44315
lb_@@ 44311
seg_@@ 44308
our@@ 44306
ness_@@ 44305
new_obj 44285
SE_@@ 44283
trying 44279
в@@ 44277
annotate 44257
Unknown 44246
refer@@ 44224
\d@@ 44210
common@@ 44206
imported 44206
pv 44194
Binary@@ 44180
digit 44179
ing▯for▯@@ 44170
path▯@@ 44157
thickness 44155
variant_@@ 44153
ea@@ 44147
--no-@@ 44141
af 44132
parser@@ 44132
finder 44125
contexts 44124
vmin 44120
xlim 44120
episodes 44114
gener@@ 44114
QRect 44108
scroll 44103
MENT 44100
joint 44096
Generic@@ 44095
app_id 44091
set_name 44006
10_@@ 44005
secret_@@ 44001
on▯the▯@@ 43998
devi@@ 43994
needs_@@ 43982
vendor 43978
""@@ 43975
party 43967
86 43965
Replace 43962
л@@ 43962
tr_@@ 43953
django_@@ 43947
metric@@ 43936
can▯@@ 43933
cast_@@ 43932
Login 43927
ALL_@@ 43925
mc@@ 43925
optimization 43922
engine@@ 43920
Ptr 43919
Standard@@ 43911
rendered 43911
she@@ 43909
passing 43901
Elements 43887
private@@ 43867
Total▯@@ 43863
convert@@ 43861
func_name 43861
aler@@ 43860
attention_@@ 43857
cursor@@ 43855
Duration 43846
rename_@@ 43835
Env 43813
interpreter 43809
hp 43799
р@@ 43799
neg@@ 43795
ji@@ 43789
oo 43789
imp 43777
Char 43776
block_size 43758
Limit@@ 43757
stem 43748
input_data 43743
>%s</@@ 43736
\/@@ 43729
tg@@ 43727
pools 43724
regression 43722
hook@@ 43719
separ@@ 43704
modifier 43702
circuit 43700
CPU 43696
ning▯@@ 43695
manual 43694
21@@ 43690
missing@@ 43683
Note@@ 43682
Using▯@@ 43678
Card 43677
MODE_@@ 43677
object_name 43675
without▯@@ 43671
uri@@ 43665
Perform 43663
toggle_@@ 43654
s3db 43653
making 43651
:00 43649
Progress 43647
Conv@@ 43641
print▯@@ 43634
integration 43626
_send_@@ 43616
type=@@ 43614
Json 43613
led▯@@ 43613
MM 43606
argument▯@@ 43606
item▯@@ 43605
98 43587
s:▯%s 43580
ved 43562
lbl 43555
Double@@ 43544
genre 43543
alarm 43538
hidden@@ 43531
SS 43516
chosen 43516
h5@@ 43514
Sy@@ 43496
safe@@ 43494
arri@@ 43493
remaining_@@ 43492
rub@@ 43489
Can't▯@@ 43488
med_@@ 43480
Variables 43479
proj_@@ 43475
continu@@ 43467
Sho@@ 43464
mu_@@ 43453
boundaries 43438
clone_@@ 43433
diagonal 43424
71 43417
loops 43413
US 43400
gr_@@ 43400
han@@ 43400
contour 43391
Missing@@ 43383
Segment@@ 43382
TU@@ 43378
benchmark 43376
mkdtemp 43353
OB@@ 43336
SK@@ 43330
human 43324
click_@@ 43319
Public@@ 43317
QAction 43302
GN@@ 43293
extended_@@ 43290
cov_@@ 43287
_from_@@ 43279
implement 43260
fe 43255
vertical@@ 43254
Summary 43252
ity▯@@ 43249
ups 43242
netloc 43228
ation.@@ 43215
dashboard 43214
mit@@ 43212
Direction 43211
PORT 43209
IMAGE_@@ 43205
re.@@ 43204
cpus 43200
CN@@ 43196
membership 43182
69 43178
Seq@@ 43167
_cache 43164
intensity 43153
suite@@ 43152
Click 43148
parameter▯@@ 43141
tan 43136
out_dir 43126
size▯@@ 43120
ts▯@@ 43119
weighted 43114
{1}▯@@ 43111
align@@ 43110
already_@@ 43103
forwards 43096
([^@@ 43092
partner_id 43088
refresh@@ 43087
computation 43086
ight 43086
linked 43083
id2 43082
Vec@@ 43077
External@@ 43064
97 43059
Lists 43059
TL@@ 43057
PY@@ 43039
5. 43034
normalized_@@ 43033
program_@@ 43033
ENT 43028
.▯▯@@ 43026
wc 43023
deck 43015
%s▯ 43011
go_@@ 42985
marker@@ 42984
pathname 42983
Units 42964
keyboard 42959
-f 42956
Pe@@ 42947
v0 42937
_index 42932
magnitude 42925
between▯@@ 42913
bi 42912
SSL 42910
aux_@@ 42900
c0@@ 42886
background_@@ 42883
worksheet 42881
collector 42876
||@@ 42874
Columns 42865
observations 42865
peak_@@ 42861
RF@@ 42856
now_@@ 42844
get_default_@@ 42843
w1 42825
motion 42823
roi 42822
Right@@ 42821
Install@@ 42812
dele@@ 42805
o.@@ 42794
Release@@ 42792
0.75 42777
sta@@ 42771
d_id 42754
83@@ 42753
ell@@ 42748
General 42730
answer@@ 42721
retrieve_@@ 42720
data1 42707
VO@@ 42706
production 42699
replica 42681
deploy@@ 42680
Font@@ 42676
lst@@ 42676
ace@@ 42672
org/@@ 42666
Abstract@@ 42652
0x00@@ 42650
most_@@ 42647
alize 42634
ing. 42625
configuration@@ 42619
Diff@@ 42604
ases 42601
!!@@ 42588
execute@@ 42569
WA@@ 42568
min_length 42566
tail@@ 42566
marker_@@ 42559
Here 42558
poll_@@ 42541
):@@ 42534
idxs 42530
ances 42522
Encoding 42517
cart 42516
79 42511
stic@@ 42499
High@@ 42493
Functions 42492
fieldname 42492
〖lf〗▯▯▯▯▯▯▯▯▯▯▯▯▯▯▯▯▯▯@@ 42488
mysql_@@ 42482
82 42480
3D@@ 42478
_setup_@@ 42470
contr@@ 42470
CU@@ 42469
FORMAT 42456
Bool 42452
entity_id 42452
testdir 42444
Register@@ 42436
tc@@ 42436
test_list_@@ 42436
U_@@ 42431
bulk 42428
timestamp_@@ 42425
set_title 42424
acl_@@ 42420
paragraph 42409
get_long_running_output 42408
framework 42393
Pas@@ 42390
stubs 42389
which▯@@ 42386
Repository 42365
bootstrap 42359
adj 42358
mods 42355
cally 42354
wavelength 42354
getValue 42351
test1 42350
Skip@@ 42345
Period 42343
log▯@@ 42341
performed 42330
engine_@@ 42329
VE 42326
body_content_kwargs 42325
ps_@@ 42323
rsplit 42303
shows 42295
wav@@ 42295
encode@@ 42294
text/@@ 42286
Weight 42280
r.@@ 42273
Metadata@@ 42271
month_@@ 42253
used@@ 42253
test_name 42249
:▯"@@ 42248
.g@@ 42239
find_all 42233
experiment_@@ 42232
webpage 42210
created▯@@ 42205
ctor 42195
\x0@@ 42184
bars 42167
yellow 42163
bound_@@ 42159
reporter 42154
similarity 42154
fol@@ 42153
peak@@ 42146
Sort 42122
third 42117
ClientRawResponse 42112
fps 42107
cour@@ 42098
Comment@@ 42087
domain_id 42081
\2@@ 42073
to_json 42071
ACTIVE 42061
instr 42057
MP 42043
lattice 42032
cycles 42025
mirror 42014
s.json 42013
jun@@ 42010
83 41987
ail@@ 41985
psi 41979
TS_@@ 41970
test_set_@@ 41961
_b@@ 41960
survey 41960
cp_@@ 41955
dns@@ 41953
StaticText 41947
ра@@ 41944
rer 41931
bed 41929
tenant_@@ 41928
names_@@ 41926
foobar 41919
125 41916
pyplot 41913
sending 41899
equation 41882
games 41874
Analy@@ 41872
months 41872
;〖lf〗▯▯▯▯@@ 41851
i.@@ 41841
done@@ 41834
ax2 41830
__version__ 41827
ell 41824
Tex@@ 41823
SELECT▯*▯FROM▯@@ 41806
Establish 41805
files▯@@ 41803
IC_@@ 41802
Ab@@ 41781
Maximum 41781
4,@@ 41779
subscriptions 41766
absolute_@@ 41761
04 41760
,〖lf〗▯▯▯▯▯▯▯▯▯▯▯▯▯▯▯▯@@ 41752
probabilities 41739
colli@@ 41724
slow 41706
stdout_@@ 41697
%s:%s 41694
Course@@ 41690
(x@@ 41688
flows 41679
pot 41678
Zero@@ 41671
att 41658
Mer@@ 41656
2f 41618
GO@@ 41610
▯%d 41607
Cluster 41606
AD 41600
wrap@@ 41599
dedent 41588
gridLayout_@@ 41582
theta@@ 41582
TOKEN 41581
92@@ 41578
discard 41576
__unicode__ 41573
ative@@ 41568
attach@@ 41565
Constant 41559
important 41558
const_@@ 41555
sett@@ 41555
Constraint 41553
genome@@ 41539
FC@@ 41530
sense 41526
dead@@ 41522
05 41515
Scene 41514
parse▯@@ 41514
lay@@ 41513
Sol@@ 41508
/home/@@ 41505
Calcul@@ 41500
lista 41499
accep@@ 41481
Dist 41473
cid@@ 41470
commits 41466
kb@@ 41455
registers 41455
stri@@ 41455
message▯@@ 41454
Constants 41449
д@@ 41449
.* 41448
txt_@@ 41446
environment@@ 41445
theta_@@ 41445
"/>@@ 41443
assumed 41441
ldap_@@ 41435
Shape@@ 41430
cpp 41427
vis 41424
dar@@ 41419
xt 41418
quote@@ 41416
parms 41410
100000 41398
QVBoxLayout 41397
Got▯@@ 41392
coefficient 41390
events_@@ 41390
Mag@@ 41379
ten 41376
pubkey 41369
floats 41347
og@@ 41345
INPUT 41330
zer@@ 41327
Role@@ 41325
2013@@ 41324
mat_@@ 41321
▯▯▯▯▯▯▯▯▯▯@@ 41321
speed_@@ 41314
weights_@@ 41302
Please 41301
graphics 41284
=%s▯@@ 41280
{▯@@ 41278
)〖lf〗▯▯▯▯▯▯▯▯@@ 41271
translated 41270
;〖lf〗▯▯▯▯▯▯▯▯▯▯▯▯@@ 41263
blog@@ 41263
more_@@ 41250
symlink 41249
depend@@ 41246
REC@@ 41243
tag_name 41222
deferred 41220
lex 41220
higher 41219
heap 41211
Icon@@ 41201
transaction@@ 41201
elems 41195
800 41192
annotation_@@ 41189
cpp_@@ 41178
shares 41177
UPDATE▯@@ 41171
set_sensitive 41152
um▯@@ 41150
wrong_@@ 41150
DIR@@ 41149
torrent 41149
e.@@ 41147
w2 41147
addLayout 41144
deri@@ 41140
Wait@@ 41122
doctype 41119
dc_@@ 41118
sheet_@@ 41116
authenticated 41113
progress@@ 41112
rol@@ 41112
LAT@@ 41093
avg@@ 41084
checkbox 41075
hun@@ 41073
four@@ 41065
Mesh 41064
Plan@@ 41064
{{▯@@ 41056
ag 41055
Fit 41054
cipher 41046
string_types 41042
%Y-%m-%d 41040
bundle_@@ 41030
%f@@ 41027
TION_@@ 41021
Other 41012
boun@@ 41010
vali@@ 41004
toggle 40994
immediately 40992
ses_@@ 40991
grpc 40990
secondary 40988
kv 40986
LU@@ 40984
pull_@@ 40983
k.@@ 40981
get_shape 40972
1j 40971
get_next 40954
ana 40953
bank_@@ 40949
aws_@@ 40939
workspace_@@ 40937
sIn@@ 40935
mic 40934
Children 40933
transport_@@ 40924
neg_@@ 40916
svc 40915
73 40913
TER@@ 40910
package_name 40909
Lat@@ 40905
hard 40895
-p 40890
C0@@ 40890
arr_@@ 40882
inc_@@ 40875
Packet@@ 40874
Library 40864
cum@@ 40852
hub 40847
s} 40846
ary▯@@ 40843
invo@@ 40840
cls_@@ 40839
ences 40838
</a> 40832
Qt@@ 40831
private_key 40825
zy@@ 40824
ServiceClient 40821
experiment@@ 40818
over_@@ 40813
FR@@ 40807
momentum 40795
inactive 40789
inputs_@@ 40789
_t@@ 40778
architecture 40768
small_@@ 40767
Registry 40766
enum@@ 40766
lambda_@@ 40766
doctest 40759
reach@@ 40759
SET_@@ 40758
Member@@ 40756
sigma@@ 40751
NA 40742
urn 40736
types_@@ 40734
SERVICE_@@ 40733
APP@@ 40732
FT@@ 40732
wrong▯@@ 40727
vlan_@@ 40726
ace 40718
vert 40717
Pres@@ 40705
cut_@@ 40705
Disk@@ 40702
ago 40699
trac@@ 40697
house@@ 40692
tot@@ 40692
pdf_@@ 40689
▯->▯@@ 40689
(.+?)@@ 40687
ech@@ 40687
stic 40671
alphabet 40670
imag 40666
crop_@@ 40665
success@@ 40664
previously 40663
ally▯@@ 40658
CC 40652
tostring 40651
smooth@@ 40645
manually 40638
AAAA@@ 40635
(?@@ 40630
image_name 40617
bbox_@@ 40614
design 40593
description_@@ 40585
does▯not▯exist@@ 40571
query_string 40569
other▯@@ 40564
optional_@@ 40557
priv@@ 40557
testcase 40554
CE 40551
▯must▯be▯@@ 40550
thing@@ 40546
filt 40536
') 40535
paginator 40532
filtering 40529
x3 40528
tos 40522
sf@@ 40519
-name 40515
manage_@@ 40510
Processor 40508
given@@ 40506
fic@@ 40500
varname 40493
moving 40488
set_ylabel 40488
conn@@ 40484
student@@ 40480
127 40474
animation 40474
з@@ 40458
formatting 40456
0:@@ 40448
application/@@ 40442
fc_@@ 40440
diffs 40435
appliance 40434
"><@@ 40433
Bas@@ 40424
multiprocessing 40424
car 40415
trigger@@ 40404
Will 40403
protocol_@@ 40400
Structure 40395
d,▯@@ 40393
from_dict 40383
classname 40379
Mini@@ 40378
mobileTemplate 40378
zi@@ 40378
metrics_@@ 40377
92 40375
tive_@@ 40360
usr 40356
:%@@ 40353
Price 40351
books 40351
did▯not▯@@ 40351
body_content 40347
Polygon 40344
slider 40342
id_list 40333
images/@@ 40326
keys_@@ 40326
specifying 40323
El@@ 40322
point▯@@ 40310
Temp 40308
5,@@ 40304
partner_@@ 40295
password▯@@ 40290
AM 40275
ping_@@ 40271
BASE_@@ 40269
MIN_@@ 40262
particle 40257
Usage@@ 40254
calibr@@ 40250
trajectory 40241
Arg 40233
COLOR_@@ 40230
indexed 40227
operation_config 40225
-%@@ 40219
ame 40215
ton 40215
likely 40211
arm@@ 40209
checkout 40209
Section@@ 40205
detect_@@ 40205
log_level 40193
vc 40193
Backend 40192
assert_array_almost_equal 40183
human_@@ 40179
al.@@ 40176
Insert 40167
foo.@@ 40164
_stubs 40160
pol 40153
byref 40148
resize_@@ 40146
AP 40143
test_file 40142
TER 40139
impor@@ 40137
Collection@@ 40134
Selector 40134
{%▯@@ 40133
GM@@ 40119
fy@@ 40117
Surface 40115
%▯@@ 40113
cion@@ 40111
quad@@ 40111
really▯@@ 40105
/s@@ 40099
pid_@@ 40071
challenge 40070
groups_@@ 40058
loaded_@@ 40051
https://www.@@ 40046
mi_@@ 40046
Help 40041
bin/@@ 40028
ask@@ 40026
chat_id 40026
ny@@ 40020
app_label 40017
softmax 40015
customer_@@ 40008
allocation 39997
gas 39996
same▯@@ 39992
happens 39991
provider@@ 39991
NOT▯@@ 39990
identical 39985
constant_op 39983
resume 39978
Some@@ 39971
_result 39968
let_@@ 39965
addon_@@ 39963
6f@@ 39959
Sync@@ 39959
marked 39955
error_code 39940
$(@@ 39936
OL@@ 39936
SW@@ 39927
cleanup_@@ 39925
na_@@ 39922
writerow 39920
model▯@@ 39915
REQUEST 39914
file_id 39913
Unicode 39906
is_authenticated 39901
sted@@ 39900
▯value@@ 39899
N▯@@ 39893
QColor 39893
moment 39891
backends 39885
nr_@@ 39881
)〖lf〗▯▯▯▯@@ 39870
derivative 39862
q2 39843
asset@@ 39833
ifi@@ 39825
Override 39821
irc 39808
highlight 39802
returns_@@ 39802
global_step 39800
ql 39794
spam 39791
c3 39780
vtk@@ 39780
cam 39774
audio@@ 39769
74 39761
a▯valid▯@@ 39756
bind@@ 39752
fire@@ 39750
collect@@ 39741
embeddings 39737
grammar 39733
strs 39732
Mesh@@ 39731
/B@@ 39722
result▯@@ 39719
</div@@ 39716
IECore 39716
assertContains 39700
outer_@@ 39695
FAILED 39694
xaxis 39690
z▯@@ 39689
phase@@ 39674
sel_@@ 39668
gram@@ 39665
-d 39664
gam@@ 39664
proxy@@ 39657
unused_@@ 39657
API▯@@ 39651
colo@@ 39651
Argument 39650
compiled 39645
Part@@ 39644
Equals 39642
TCP 39634
after@@ 39620
-s 39605
tpl 39603
nets 39602
for▯ 39601
Common@@ 39598
sock@@ 39585
pname 39583
colorbar 39582
basic@@ 39580
Man@@ 39579
inte@@ 39576
aci@@ 39575
retcode 39573
chapter 39572
fm@@ 39569
secure 39564
-v 39555
Bad▯@@ 39551
_format_@@ 39551
chat@@ 39547
Selected 39542
pq 39541
4e@@ 39533
start_response 39529
vid 39529
predicted 39527
ws_@@ 39527
surf 39518
so_@@ 39515
enums 39514
decl 39512
ldap 39510
catalog_@@ 39500
index.html 39492
Sig@@ 39489
n.@@ 39486
generator_@@ 39483
column_name 39477
\x01@@ 39476
get_by_@@ 39474
chains 39470
reaction 39466
tm@@ 39458
addon@@ 39455
tro@@ 39446
/bin/@@ 39444
editable 39439
bucket_name 39436
avatar 39430
blacklist 39427
Board 39421
tokenize 39421
distro 39419
tested 39408
dor 39403
Cur@@ 39397
getElementsByTagName 39397
UID 39390
nn@@ 39385
QLineEdit 39382
stype 39382
NF@@ 39381
const▯@@ 39380
not_found 39379
argument_@@ 39378
bond 39376
Off@@ 39373
moved 39351
OPTIONS 39347
height_@@ 39347
decoder_@@ 39339
WH@@ 39325
vo 39315
activated 39286
HTML@@ 39272
uuids 39266
page_size 39259
Msg@@ 39256
mirror@@ 39252
ast_@@ 39250
POST@@ 39238
light_@@ 39234
iso_@@ 39228
selection@@ 39226
est_@@ 39222
ee 39212
margin@@ 39209
gridLayout 39208
prog@@ 39207
rib@@ 39200
\[@@ 39194
Parser@@ 39189
Auth 39188
OF 39178
bw 39171
sqlalchemy 39169
bed@@ 39168
ding@@ 39162
crs 39148
COUNT 39140
past 39134
compo@@ 39133
assert_true 39130
l2@@ 39130
switches 39129
visible_@@ 39127
bottom@@ 39124
alpha@@ 39120
Transform@@ 39117
struct@@ 39110
\d+@@ 39106
data_format 39106
Permission@@ 39100
criterion 39099
extracted 39095
markdown 39089
Global 39079
news 39075
nen@@ 39071
increment@@ 39069
102 39067
000000 39065
datadir 39062
▯%(@@ 39057
Only▯@@ 39056
recent_@@ 39055
repository_@@ 39052
Xml@@ 39039
Store@@ 39035
operand 39034
hg@@ 39032
need@@ 39032
submission_@@ 39024
ATE 39020
0xff 39019
ᄋ@@ 39017
Day 39016
Runner 39008
actor_@@ 39007
covariance 39006
none_@@ 38997
stro@@ 38997
regularizer 38996
annot@@ 38991
vstack 38990
Split@@ 38988
s:▯ 38984
aren 38981
ka 38979
tn 38978
spatial 38966
emb@@ 38965
TH 38962
config▯@@ 38957
python▯@@ 38954
DOMAIN 38945
smaller 38944
overlay 38937
xi@@ 38930
mal 38929
secondary_@@ 38924
objects_@@ 38913
device_name 38902
probe 38901
archive@@ 38894
Sum@@ 38883
num_classes 38882
vers 38870
00:@@ 38869
reached 38868
show▯@@ 38863
Fin@@ 38859
blog 38850
consider 38846
La@@ 38842
uuid_@@ 38840
rig@@ 38835
Scroll@@ 38834
two@@ 38833
further 38830
gt@@ 38827
acion 38826
,▯but▯@@ 38806
structures 38806
align_@@ 38804
user_agent 38800
pin_@@ 38797
Box_@@ 38796
ep_@@ 38794
tru@@ 38792
filePath 38787
Multiple@@ 38785
%s▯%s▯@@ 38777
A-@@ 38775
signed_@@ 38774
mult 38766
controller_@@ 38760
Local 38757
G▯@@ 38751
mv@@ 38745
hit_@@ 38744
inline_@@ 38744
enc_@@ 38737
emo@@ 38736
date▯@@ 38734
idle 38722
numberOf@@ 38714
catch 38708
wal@@ 38706
_context 38705
symbol_@@ 38704
shouldn 38702
releases 38696
epoch_@@ 38691
87 38688
Push@@ 38681
win32@@ 38676
bn 38672
Mixin 38659
Super@@ 38659
1111@@ 38655
tier 38650
thumbnail@@ 38638
au 38635
attr_name 38618
rs@@ 38613
Security@@ 38612
uti@@ 38602
〖lf〗〖lf〗▯▯▯▯@@ 38569
stars 38557
Gi@@ 38549
amplitude 38536
73@@ 38532
exclu@@ 38531
CH_@@ 38528
api_url 38526
like@@ 38519
deno@@ 38511
proposal 38505
Dataset@@ 38503
guest_@@ 38503
expiration 38496
Begin 38490
integer@@ 38487
Desc 38484
2013 38474
matrix@@ 38469
AX@@ 38453
sity 38448
expanded 38447
print_exc 38446
Colour 38430
ol 38430
wall 38421
JS@@ 38419
maybe 38417
bor@@ 38412
91 38409
fuzz@@ 38403
twi@@ 38401
whitelist 38401
db.@@ 38390
Delta 38387
ser_@@ 38379
TypeId 38373
phi@@ 38372
ked▯@@ 38370
verticalLayout_@@ 38369
Edge@@ 38364
gateway_@@ 38356
images_@@ 38355
rank_@@ 38337
Gr@@ 38332
el▯@@ 38324
States 38321
SERVER_@@ 38317
TIME@@ 38317
downloaded 38316
RD@@ 38311
manage 38307
sx 38307
tgt 38306
aff@@ 38299
NULL@@ 38288
Transport 38279
ach 38279
evalu@@ 38268
et▯@@ 38257
subplots 38233
half_@@ 38229
lun@@ 38229
[▯@@ 38225
various 38212
pen@@ 38210
isChecked 38208
normal@@ 38190
93@@ 38188
database▯@@ 38186
yml 38186
debugging 38177
conflict 38176
],▯@@ 38174
tor_@@ 38174
empty▯@@ 38170
hook_@@ 38162
localtime 38151
prep 38148
bone 38142
Region@@ 38124
Credentials 38112
new_value 38111
SyntaxError 38104
identify 38097
Colors 38092
address▯@@ 38083
notice 38073
]/@@ 38072
icons 38071
-12@@ 38070
finish_@@ 38063
ib@@ 38062
wrapped_@@ 38059
255@@ 38056
Folder@@ 38037
Short@@ 38035
paper 38033
Sort@@ 38021
Mem@@ 38017
Description@@ 38016
gradient_@@ 38014
perform_@@ 38005
bp@@ 37998
printed 37994
fli@@ 37990
tvm 37989
SIG@@ 37988
server_id 37984
110 37982
permission_@@ 37981
\x02@@ 37976
combination 37966
_e@@ 37965
subnets 37965
WS@@ 37963
_params 37958
vv 37947
Git@@ 37945
ticker 37942
ak 37940
latex 37936
updating 37925
Why 37920
rejec@@ 37916
Mouse@@ 37907
shell@@ 37903
uint32 37896
TAG 37895
mapped_@@ 37888
observ@@ 37887
Addr 37881
Driver@@ 37881
callback@@ 37878
fw@@ 37877
MB 37863
DED 37850
ving 37827
Lib@@ 37825
7_@@ 37822
pod 37818
triggers 37818
ave@@ 37817
reject 37816
traj 37815
goo@@ 37808
specify▯@@ 37804
Flow 37803
hack 37798
lc@@ 37795
pkgs 37792
san@@ 37787
BA@@ 37778
--------@@ 37773
dists 37773
setChecked 37767
Att@@ 37763
was▯not▯@@ 37748
++@@ 37744
ure@@ 37744
configurations 37742
Canvas 37741
ail 37740
list▯of▯@@ 37732
public_key 37729
lag 37727
shp 37725
values_list 37723
descriptors 37715
pur@@ 37715
me▯@@ 37713
6.0 37707
listeners 37707
delay_@@ 37705
recur@@ 37689
dimensional 37685
bandwidth 37668
perf_@@ 37664
get_id 37661
campaign 37658
heat@@ 37650
script▯@@ 37646
speci@@ 37638
build_dir 37628
gives 37627
bam 37626
scroll_@@ 37625
produce 37624
abs@@ 37623
Classifier 37622
234@@ 37618
axes_@@ 37604
specific_@@ 37598
reserved 37594
06 37591
effects 37582
:▯%d 37581
picture 37567
META 37560
〖tab〗〖tab〗@@ 37558
ational 37556
produc@@ 37549
seed@@ 37548
s▯a▯@@ 37546
amo 37542
cv_@@ 37534
filetype 37533
%s▯-@@ 37530
Testing 37529
enabled_@@ 37526
tas@@ 37525
status_int 37523
GE 37521
TIME_@@ 37521
sampler 37519
FromString 37507
subtitle 37507
▯to▯be▯@@ 37506
less_@@ 37504
Year 37502
Download 37494
descriptions 37491
Raster@@ 37476
PU@@ 37474
slave_@@ 37474
GH@@ 37473
vs@@ 37471
LES 37467
key2 37463
SpinBox 37462
assert_frame_equal 37461
sleep@@ 37456
Program@@ 37454
xc 37454
Exec@@ 37451
nv@@ 37448
broken 37444
implement@@ 37443
translate_@@ 37441
5) 37438
Listener 37437
smooth 37437
Cross@@ 37434
Release 37429
Unknown@@ 37427
ass 37421
und@@ 37413
ef 37409
bd 37402
Feed@@ 37396
leading 37395
:// 37390
args@@ 37388
HEADER 37386
iris 37380
Fast@@ 37379
med@@ 37369
medium 37369
ress 37368
camera_@@ 37358
cation@@ 37356
ped_@@ 37356
vc@@ 37355
_num_@@ 37354
outline 37354
fast_@@ 37353
ano@@ 37348
recor@@ 37338
Stat@@ 37333
Area@@ 37310
\n▯▯▯▯@@ 37309
traces 37292
fullpath 37290
tun@@ 37290
Options@@ 37285
die 37283
tweets 37262
specifi@@ 37260
pip 37258
ating@@ 37257
tracking 37257
9999@@ 37255
Switch 37247
Card@@ 37245
Inputs 37245
each@@ 37243
vms 37243
Yes 37234
femmesh 37232
_l@@ 37231
Case@@ 37225
popul@@ 37219
ask_@@ 37215
duplicate_@@ 37204
buffers 37201
phi_@@ 37201
ize 37199
fine 37194
as_list 37187
combinations 37187
If▯@@ 37165
ion_@@ 37164
per▯@@ 37149
seen_@@ 37143
kwarg 37141
validators 37140
Selected@@ 37134
serialize_@@ 37134
returned▯@@ 37132
link▯@@ 37130
catalog@@ 37128
text/plain 37125
country_@@ 37124
/g@@ 37119
Top 37119
short_name 37118
Notification@@ 37116
divide 37115
\'▯@@ 37105
Python▯@@ 37104
tal@@ 37103
proto_@@ 37099
beam_@@ 37093
my▯@@ 37092
test_no_@@ 37092
though 37092
Vari@@ 37085
feat@@ 37085
Prepare 37074
gpu@@ 37068
beam@@ 37067
GB@@ 37065
Fetch@@ 37063
padx 37060
relation@@ 37057
Statement 37056
db_session 37056
tick_@@ 37056
v1_@@ 37053
wel@@ 37047
dro@@ 37043
ton@@ 37041
2D@@ 37029
transition_@@ 37026
AA 37024
ort@@ 37023
pixbuf 37015
ken@@ 37000
FOR@@ 36997
</td@@ 36992
Messages 36990
utilities 36990
fire 36985
migration_@@ 36977
smart_@@ 36968
ParseError 36964
specifies 36963
component@@ 36961
curve_@@ 36953
areas 36948
ands 36935
256@@ 36928
QHBoxLayout 36927
EVENT_@@ 36924
Iter@@ 36921
scalar_@@ 36912
supports_@@ 36911
pub_@@ 36907
is_valid_@@ 36906
band_@@ 36902
bo 36900
ros 36891
four 36888
combined_@@ 36886
dbg 36874
t3 36874
trials 36874
resamp@@ 36863
usually 36860
compres@@ 36856
platforms 36855
%s.%s 36852
OFF 36845
Sto@@ 36839
connected_@@ 36838
ically 36838
migr@@ 36833
filelist 36823
starting_@@ 36820
glyph 36817
resource_type 36815
project▯@@ 36796
.x@@ 36790
ved_@@ 36789
LIST_@@ 36777
Running 36776
dll 36776
<br@@ 36772
``@@ 36767
received_@@ 36763
sensors 36763
bid 36750
spar@@ 36748
svntest 36746
coor@@ 36742
retrieved 36738
system▯@@ 36729
attemp@@ 36728
constant_@@ 36728
ways 36725
get_response 36722
dru@@ 36718
AT_@@ 36713
Specifi@@ 36710
where@@ 36709
pem 36708
NotImplemented 36706
Certificate@@ 36699
{2} 36697
trainable 36694
Commands 36692
portal 36692
sure@@ 36687
theme@@ 36687
Set▯@@ 36685
setter 36681
original@@ 36680
name2 36679
scanner 36671
lab_@@ 36669
DE 36666
STATE 36666
OUTPUT 36662
migrate 36656
%20@@ 36647
weighted_@@ 36645
file_type 36644
ment_id 36644
hist_@@ 36641
primitive 36641
too▯@@ 36641
mass_@@ 36636
gm 36631
XM@@ 36630
ved▯@@ 36628
ame_@@ 36618
pyxb 36616
DAT@@ 36614
Transaction@@ 36614
cost@@ 36612
_models.@@ 36607
ATE_@@ 36604
Directory@@ 36601
duration_@@ 36601
leaf@@ 36599
numer@@ 36599
fp_@@ 36598
minimum_@@ 36597
ue_@@ 36597
determined 36595
ended 36592
declaration 36588
<div▯class="@@ 36575
choice_@@ 36572
measurements 36572
invoked 36569
gc@@ 36565
vout 36564
arr@@ 36561
either▯@@ 36532
node2 36532
las 36531
п@@ 36529
done_@@ 36518
rst 36518
le-@@ 36517
attack 36515
auth_token 36514
super_@@ 36504
ues 36504
({@@ 36503
rr@@ 36500
However 36499
MU@@ 36497
fb 36486
drawing 36481
&&▯@@ 36480
CLI@@ 36477
wer@@ 36477
asm 36475
handler@@ 36474
Title@@ 36470
iters 36458
alias_@@ 36453
.gz 36451
serialization 36449
lng 36446
parallel_@@ 36446
article@@ 36445
continuation 36442
%d.@@ 36440
last▯@@ 36440
Pl@@ 36438
chr@@ 36437
forwar@@ 36432
registry_@@ 36431
XX@@ 36430
buil@@ 36427
native_@@ 36426
Quantity 36422
decryp@@ 36420
[%s] 36418
s▯on▯@@ 36417
translation_@@ 36415
HEIGHT 36414
{}) 36407
background@@ 36405
verifi@@ 36401
credential@@ 36400
man_@@ 36400
remainder 36387
extractor 36386
thrift_spec 36385
test2 36382
thresholds 36380
hstack 36379
Engine@@ 36348
mg 36345
EN 36342
panel_@@ 36342
vg@@ 36339
shot 36322
floating 36320
_data_@@ 36316
Setup@@ 36314
disable@@ 36293
failUnlessEqual 36293
▯-▯ 36292
_extract_@@ 36280
mon 36279
confirm_@@ 36270
assert_that 36264
outcome 36253
):▯@@ 36249
BoxSizer 36249
numpy_@@ 36246
internet 36239
writable 36236
world_@@ 36231
b64encode 36227
recording 36214
ous@@ 36200
alarm_@@ 36196
BASE 36195
10▯@@ 36193
sg_@@ 36184
fal@@ 36180
attention 36179
bf 36178
But 36173
kill_@@ 36172
Video 36170
Home@@ 36167
c_int 36151
encrypted 36141
FreeQ 36135
station@@ 36128
info▯@@ 36127
contains_@@ 36125
legacy 36112
add_edge 36108
foo_@@ 36108
addrs 36106
ACTION_@@ 36104
pen 36100
lar 36091
AF_INET 36078
green@@ 36078
timeline 36077
=1 36070
baz@@ 36069
configur@@ 36067
tcp_@@ 36067
___@@ 36065
checkpoint_@@ 36057
tel@@ 36057
??@@ 36049
Scope 36037
quota_@@ 36034
joint_@@ 36033
credit 36025
hot@@ 36023
c:@@ 36021
bob 36018
prices 36017
false_@@ 36011
tag▯@@ 36006
CA 36005
core.@@ 36000
mix 36000
OptionParser 35995
expected_result 35994
working_@@ 35994
es.@@ 35992
128@@ 35988
Insert@@ 35985
file_size 35985
css_@@ 35983
objec@@ 35981
_d@@ 35979
4) 35978
actor@@ 35975
add_node 35975
)(@@ 35972
Edi@@ 35972
Threshold 35970
proxies 35957
expect@@ 35953
presence 35950
AR_@@ 35947
initializ@@ 35947
4/@@ 35943
win32 35939
RAN@@ 35938
:▯%s,▯@@ 35937
we▯@@ 35937
Zone@@ 35932
ja 35932
ellip@@ 35928
define_@@ 35924
References 35920
query▯@@ 35918
Wi@@ 35917
surface_@@ 35913
Callback@@ 35910
response▯@@ 35908
security@@ 35905
indicate 35897
promo@@ 35895
represent@@ 35889
blob_@@ 35885
read_csv 35885
sat@@ 35880
0.00000000@@ 35879
/%s 35877
to_file 35877
demo 35875
speed@@ 35875
chi 35867
gi 35866
Scale@@ 35864
anchor_@@ 35861
si_@@ 35860
revisions 35858
sbox 35856
COLOR 35855
ku@@ 35845
trailing 35845
/{@@ 35837
"%s"@@ 35833
_request 35833
validated 35830
Permission 35827
stub_@@ 35821
warning@@ 35814
srv 35812
Render 35800
derived 35798
vs_@@ 35792
shap@@ 35790
shortcut 35790
ut▯@@ 35781
detail_@@ 35777
replay_@@ 35773
NUMBER 35770
v2_@@ 35765
Converts 35759
has▯no▯@@ 35753
md_@@ 35753
bre@@ 35751
warn_@@ 35750
不@@ 35747
SY@@ 35744
interpolate 35737
Ta@@ 35736
contained 35735
Buffer@@ 35731
Team@@ 35729
complex_@@ 35727
Fetch 35723
interaction 35719
deviation 35716
Z_@@ 35710
。 35709
kil@@ 35695
interpre@@ 35693
file.@@ 35690
_default_@@ 35685
{1:@@ 35679
yaxis 35675
urljoin 35674
Screen@@ 35665
association 35661
metadata@@ 35661
roi_@@ 35656
Conf 35648
saver 35648
Reg@@ 35637
undo 35634
);〖lf〗@@ 35631
y_pred 35630
deletion 35615
0.3@@ 35614
ved@@ 35608
s,@@ 35601
caps 35595
Expected 35591
datetime@@ 35581
SetValue 35580
aro@@ 35580
_log_@@ 35578
MenuItem 35567
deep 35567
dhcp_@@ 35564
Net 35558
wri@@ 35556
Curve 35551
scales 35549
E-@@ 35547
:▯%s\n 35537
agg 35532
unsigned 35525
_options 35518
as_dict 35511
alternative 35510
interest 35510
);\n 35507
age▯@@ 35507
managed 35500
in_file 35497
UI@@ 35495
Gra@@ 35494
Django 35489
Depth 35486
generated_@@ 35485
DataType 35484
timestep 35481
AAA@@ 35479
dependent 35478
timer@@ 35477
Internal@@ 35471
dir_name 35466
DATA@@ 35462
ni 35461
REQUIRED 35458
nrows 35455
l-@@ 35442
minus 35440
ative_@@ 35438
community 35435
prox@@ 35435
(s)▯@@ 35434
using_@@ 35431
getAttribute 35430
MENT_@@ 35425
Fr@@ 35418
Look 35418
lm@@ 35416
NamedTemporaryFile 35413
packed 35410
pip@@ 35406
12345 35401
set_xlabel 35401
content-type 35400
procs 35392
definition@@ 35379
〖lf〗〖tab〗〖tab〗@@ 35378
gs_@@ 35374
ario 35371
dis 35347
wd@@ 35341
600@@ 35335
Need 35329
startTime 35329
の@@ 35324
Identity 35323
Just 35319
few 35312
fq@@ 35310
ty▯@@ 35307
A1 35304
pref 35300
Figure 35293
MT_@@ 35287
linestyle 35282
{}\n 35275
d▯in▯@@ 35274
unset 35271
-20@@ 35267
revision_@@ 35265
tv_@@ 35260
siz@@ 35255
header_params 35251
kernel@@ 35238
radio@@ 35232
ah@@ 35229
lookup@@ 35228
bash 35226
summaries 35214
WORK@@ 35213
local▯@@ 35194
Images 35193
vocabulary 35192
construct_@@ 35189
nombre 35183
tho@@ 35179
Den@@ 35174
addition 35168
revision@@ 35168
csr 35167
holder 35167
rid@@ 35167
edu@@ 35161
file1 35153
slot_@@ 35152
lbl@@ 35150
Bitmap 35142
mv 35140
World 35135
cred 35135
xxx 35129
deal 35127
Tools 35122
̂@@ 35122
Dist@@ 35121
story_@@ 35120
Contact 35118
Category@@ 35116
coup@@ 35113
ONLY 35107
populate_@@ 35104
Commit@@ 35103
Contact@@ 35098
cg 35097
solutions 35092
was_@@ 35084
ono@@ 35080
orient@@ 35078
zoo@@ 35075
Enum@@ 35074
movie_@@ 35072
MAC@@ 35062
tap@@ 35050
shor@@ 35046
proper@@ 35040
▯*▯@@ 35030
Disable 35028
я 35025
des_@@ 35020
percentile 35013
mov@@ 35011
spi@@ 35009
unpack_@@ 35006
3:@@ 35005
categori@@ 34998
lazy 34993
Vec 34991
appro@@ 34981
rotation_@@ 34980
1a@@ 34975
shard 34974
convert_to_@@ 34969
AST 34961
startup 34959
aid 34956
ino 34952
ped 34942
War@@ 34939
▯=▯'@@ 34938
setProperty 34934
encryption 34933
od 34923
sRequest 34920
form_data 34919
}〖lf〗▯▯▯▯▯▯▯▯@@ 34914
dz 34911
UC@@ 34909
datastore_@@ 34909
ped@@ 34909
client_raw_response 34906
ud 34904
Term 34895
dfs 34887
ple@@ 34883
lang_@@ 34880
adap@@ 34865
asynchronous 34861
PREFIX 34859
To▯@@ 34859
looking 34856
fixture_@@ 34855
frozenset 34855
_version 34848
cmp@@ 34842
/%s/@@ 34841
s_info 34832
parent_name 34829
contain▯@@ 34820
twice 34820
principal 34819
registration_@@ 34808
pick_@@ 34806
Algorithm 34802
Help@@ 34793
sink_@@ 34785
setting▯@@ 34760
vecs 34759
Methods 34758
ning_@@ 34758
ci_@@ 34749
monitor@@ 34746
ale 34744
panel@@ 34744
domain_name 34741
saving 34739
tan@@ 34737
ctr@@ 34733
coin@@ 34727
corners 34723
crypto 34723
passphrase 34723
Failed@@ 34720
ND@@ 34710
kernel_size 34708
CheckBox 34705
Ri@@ 34698
Ignore 34696
>=▯@@ 34680
Lin@@ 34679
C1 34678
3.5 34672
api.@@ 34671
CODE_@@ 34670
zeros_like 34670
percent_@@ 34664
CLI 34661
---@@ 34658
grab 34658
2016 34652
cw@@ 34631
Resources 34624
write▯@@ 34617
ElementTree 34610
smo@@ 34610
Mail@@ 34609
wp 34602
kargs 34601
CREATE 34597
getopt 34595
fatal 34594
survey_@@ 34594
AW@@ 34593
user_info 34590
be_@@ 34582
user2 34578
pretty_@@ 34577
prediction@@ 34567
c0 34555
y_train 34550
OUTPUT_@@ 34548
artifacts 34548
VAL@@ 34544
trim 34535
explanation 34533
UpdateInstruction 34532
direction@@ 34532
la▯@@ 34531
fg@@ 34530
binary@@ 34528
music 34519
is_const 34518
looks 34510
count▯@@ 34509
cer 34503
defined▯@@ 34494
refle@@ 34492
curves 34477
randrange 34477
reqs 34473
SERVER 34470
CHECK@@ 34467
'] 34463
verticalLayout 34454
condition_@@ 34446
clip@@ 34445
popen 34443
s/%s/@@ 34433
pagination 34432
sat 34432
2] 34430
nice 34424
matri@@ 34411
Using 34407
editor@@ 34405
tas 34402
maybe_@@ 34400
ORDER▯BY▯@@ 34399
SA 34393
vertex_@@ 34392
plotting 34391
Ext@@ 34386
)▯ 34385
legacy_@@ 34384
larger 34380
ture 34374
test_dir 34373
name1 34370
Mark@@ 34368
Server▯@@ 34368
Linux 34365
factor_@@ 34360
several 34359
value1 34354
seems 34350
torrent_@@ 34344
stored_@@ 34339
▯in▯the▯@@ 34338
Choice 34330
fill_value 34329
bus_@@ 34327
found▯in▯@@ 34327
Are@@ 34323
Book@@ 34318
--- 34317
TOP 34315
normali@@ 34314
add_parser 34313
sted_@@ 34313
FIN@@ 34312
remove▯@@ 34310
coordinate@@ 34309
deadline 34309
installed_@@ 34309
cali@@ 34308
▯▯<@@ 34307
ITY_@@ 34306
Reads 34306
CommandError 34304
arity 34301
sort_keys 34300
stops 34283
Takes 34282
lt@@ 34274
days_@@ 34272
expire 34262
Fill 34260
ING▯@@ 34258
lear@@ 34254
goal_@@ 34250
ComboBox 34246
setToolTip 34242
guess_@@ 34241
successful@@ 34237
consistent 34231
sky@@ 34218
errmsg 34215
INTER@@ 34211
set_property 34210
10000@@ 34205
L2 34200
Core@@ 34199
al_id 34199
vm_name 34194
running@@ 34192
service_id 34191
Start▯@@ 34184
chro@@ 34178
FB@@ 34162
BB 34161
?)@@ 34155
container_name 34145
u2 34144
databases 34143
BD@@ 34141
threshold_@@ 34141
val1 34139
ML 34136
CONF_@@ 34126
Loading▯@@ 34125
for▯the▯@@ 34120
truncate 34119
OV@@ 34117
Compute@@ 34115
upper@@ 34114
Sc@@ 34113
host_name 34104
-2 34103
each▯@@ 34100
ature 34098
href@@ 34094
__setitem__ 34092
multiple▯@@ 34092
consts 34086
replicas 34084
attack@@ 34082
npy 34075
normaliz@@ 34070
strength 34065
tuple_@@ 34060
240 34059
Uri 34058
numerical 34054
pady 34054
_check@@ 34050
expected_output 34048
Book 34045
does▯not▯exist 34040
DIS@@ 34036
)▯{@@ 34026
31@@ 34012
location_id 34012
Runs 34010
Direct@@ 34008
applications 34008
nic 34003
mime 33995
timing 33992
%02@@ 33988
protein 33988
}.@@ 33986
数@@ 33986
analysi@@ 33978
sockets 33978
Simple 33977
fqdn 33977
request_type 33975
AE@@ 33974
Red@@ 33970
voltage 33968
б@@ 33967
given_@@ 33964
Clean@@ 33954
Operations 33954
DC 33950
jump 33949
didn 33946
K▯@@ 33943
Real@@ 33943
deco@@ 33941
font_size 33932
song@@ 33927
LIST@@ 33923
hex_@@ 33916
alph@@ 33914
mobj 33906
WR@@ 33888
previous@@ 33888
incident@@ 33874
Symbol@@ 33873
IS▯@@ 33871
.//@@ 33868
bitmap 33867
v2@@ 33866
_test 33864
Cloud 33855
totals 33854
calibration 33853
water 33848
residue 33845
bm 33843
VE_@@ 33841
succeeded 33839
__len__ 33838
einsum 33822
serve 33810
Hz 33804
friendly 33797
0: 33794
GROUP 33791
dead 33791
php 33789
health@@ 33787
Zone 33785
maker 33784
pkl 33784
exponent 33783
httplib 33779
opti@@ 33772
sav@@ 33763
describe 33759
7-@@ 33751
get_queryset 33749
design@@ 33748
Offset@@ 33746
2010 33742
mic@@ 33742
AN_@@ 33738
watcher 33732
creation_@@ 33727
setFont 33727
Check▯@@ 33720
logical_@@ 33717
test_parse_@@ 33716
%s▯(@@ 33706
lar@@ 33704
sigmoid 33704
treeview 33698
add_subplot 33696
ched_@@ 33685
artist_@@ 33680
▯▯▯▯▯▯▯▯▯@@ 33678
arn 33677
INFO@@ 33674
ka@@ 33674
Available 33669
matmul 33667
get_template 33658
roll@@ 33652
igr@@ 33646
weekday 33646
highest 33633
License 33626
meters 33625
3e@@ 33620
addNode 33620
interpol@@ 33618
=%s&@@ 33614
jk@@ 33607
machines 33604
II@@ 33603
sqlite 33598
little 33597
2d_@@ 33596
shop 33596
pk_@@ 33591
ns3::empty 33589
u▯@@ 33582
▯*@@ 33582
indx 33574
account_name 33563
setWindowTitle 33560
Null@@ 33551
equi@@ 33549
myp@@ 33548
syste@@ 33546
Subject 33538
typename 33531
94 33530
lm 33526
negative_@@ 33526
01_@@ 33525
m2@@ 33517
way@@ 33517
sdk_@@ 33516
wcs 33515
Slot 33510
actu@@ 33508
possibly 33508
learn 33507
Exception▯@@ 33501
enum_@@ 33499
_in 33491
Create▯@@ 33481
inter 33479
sResponse 33476
Basic 33473
participant 33473
Cent@@ 33470
ring@@ 33470
exce@@ 33465
Allow 33463
.log 33462
protocol@@ 33460
")@@ 33447
Could▯not▯find▯@@ 33428
zoom_@@ 33417
vtk 33413
ftp 33412
depth@@ 33404
%Y-%m-%d▯%H:%M:%S 33399
WI@@ 33398
samp@@ 33395
chmod 33394
b/@@ 33393
COLOR@@ 33387
)?@@ 33385
0x7@@ 33379
reduced 33379
Hi@@ 33378
station_@@ 33373
LT@@ 33366
image_path 33357
add_child 33356
inserted 33353
Merge 33351
rf@@ 33338
2e@@ 33332
DOTALL 33327
could▯not▯@@ 33326
placement 33326
Notification 33316
[-@@ 33316
inser@@ 33316
physical_@@ 33315
jump@@ 33313
Private@@ 33310
requirement 33310
Big@@ 33303
onto 33300
example.com 33280
PD@@ 33272
response_data 33269
tup@@ 33269
keyword_@@ 33268
BE 33267
embed_@@ 33266
aligned 33256
occurs 33255
scrap@@ 33253
shif@@ 33253
formset 33252
Amount 33250
swap_@@ 33250
7▯@@ 33248
ALL@@ 33246
Gu@@ 33246
local_path 33245
MAN@@ 33238
submitted 33237
Syn@@ 33235
expo@@ 33231
Tur@@ 33227
Tor@@ 33226
wee@@ 33226
factor@@ 33216
costs 33214
din@@ 33214
dropout_@@ 33214
crash@@ 33211
pane 33211
Fun@@ 33203
middleware 33202
v1@@ 33200
tot_@@ 33199
Force 33193
appendChild 33186
opacity 33186
ware@@ 33176
</p@@ 33173
2012 33167
creating▯@@ 33162
distributions 33160
support_@@ 33159
ст@@ 33155
vec_@@ 33152
ATION@@ 33150
quick@@ 33148
playing 33142
HI@@ 33141
ou 33136
wall@@ 33136
4d@@ 33134
rou@@ 33132
15.@@ 33130
eid 33127
ww@@ 33123
factories 33115
closest 33106
93 33104
cert@@ 33101
▯for▯the▯@@ 33100
stations 33099
X_train 33097
ing▯ 33093
scene_@@ 33093
inver@@ 33091
max_size 33088
LOC@@ 33085
ning@@ 33082
Uni@@ 33080
ga 33068
gest@@ 33068
Links 33065
Login@@ 33064
procedure 33055
Named@@ 33049
vote@@ 33048
dense_@@ 33046
ascii_@@ 33040
Fix@@ 33033
_is@@ 33032
TRI@@ 33024
glob@@ 33021
wind 33021
gdk 33020
sPer@@ 33016
PI@@ 33009
partition@@ 33009
Radius 33007
lfile 33006
ffi 33003
postfix 32998
effec@@ 32994
banner 32993
issue@@ 32990
а 32986
Ra@@ 32980
pd@@ 32978
hard@@ 32977
_model 32975
con_@@ 32970
value2 32965
stddev 32963
sorting 32962
match▯@@ 32956
tw 32955
aps 32953
pn 32952
signatures 32937
constraint_@@ 32930
UNKNOWN 32923
plug 32921
%s,@@ 32920
_compute_@@ 32920
Console 32917
hl 32915
spectra 32911
ing/@@ 32899
2012@@ 32895
sensor_@@ 32891
>〖lf〗▯▯▯▯▯▯▯▯▯▯▯▯<@@ 32889
Append@@ 32886
Program 32885
doesn't▯@@ 32885
Memory 32874
fx@@ 32871
division 32870
MAR@@ 32865
triangle 32864
rnn_@@ 32860
为@@ 32858
residual 32857
fitness 32851
ctx_@@ 32849
do▯not▯@@ 32847
transformed 32847
mag_@@ 32845
***▯@@ 32840
decrypt 32840
got@@ 32830
us▯@@ 32826
Two 32823
Extra@@ 32821
Route 32820
>〖lf〗▯▯▯▯▯▯▯▯▯▯▯▯▯▯▯▯@@ 32816
mono@@ 32816
mongo_@@ 32803
Wrong▯@@ 32801
escape_@@ 32800
Literal 32797
Input▯@@ 32793
Vars 32793
nav 32793
x/@@ 32793
polynomial 32792
Article 32790
Clear@@ 32779
alloc 32778
Scal@@ 32777
subscription_@@ 32777
ham@@ 32769
conv2d 32765
atomic 32758
redu@@ 32756
Interval@@ 32754
Let 32752
ward 32747
acqui@@ 32745
Boo@@ 32744
Sensor@@ 32744
of▯ 32743
CAS@@ 32741
dl_@@ 32739
Oper@@ 32736
kit@@ 32735
%s\n@@ 32732
res▯@@ 32729
Descriptor 32725
arbitrary 32724
SM 32719
cel@@ 32717
transformer 32717
subjects 32713
environment_@@ 32707
neutron 32700
{self.@@ 32696
simplify 32695
buf_@@ 32694
test_session 32690
Batch 32685
rooms 32685
obj_ 32684
noti@@ 32680
HH@@ 32663
ki 32663
Endpoint 32661
equal_@@ 32659
undefined 32651
general_@@ 32637
Http404 32631
adz 32630
wf_@@ 32627
dispatch_@@ 32625
.com/ 32619
excluded 32619
paging 32618
soft 32617
\n\t@@ 32614
kin@@ 32610
cond_@@ 32602
Clean 32601
aggregate_@@ 32598
audit_@@ 32598
stroke 32597
ther 32592
warning_@@ 32587
Deferred 32584
Hello 32580
_parent 32579
ID_ANY 32576
had 32573
menubar 32573
submission@@ 32573
REF@@ 32571
list-@@ 32570
addCleanup 32566
mn 32564
RESPONSE_@@ 32560
odd 32560
out▯of▯@@ 32556
>\n@@ 32553
serial@@ 32552
Launch@@ 32549
plan_@@ 32545
dialog_@@ 32544
-10@@ 32541
sBy@@ 32541
access▯@@ 32530
scene@@ 32522
].@@ 32517
You▯can▯@@ 32514
apikey 32513
winner 32513
jj 32512
Mut@@ 32509
MT@@ 32492
sw_@@ 32486
serv@@ 32479
setUpClass 32478
Wor@@ 32477
Generates 32471
turn_@@ 32458
中@@ 32455
bad▯@@ 32452
Termin@@ 32447
Cli@@ 32446
counter_@@ 32445
grouped 32445
encryp@@ 32434
username_@@ 32432
Provider@@ 32430
>〖lf〗</@@ 32426
masked_@@ 32426
Coun@@ 32420
BAS@@ 32416
_remove_@@ 32411
uid@@ 32411
mol@@ 32407
MSG 32404
subtitles 32404
Long@@ 32403
a3 32397
DP@@ 32396
nx@@ 32396
〖docopenf:"〗 32395
_v@@ 32393
defined_@@ 32391
imgs 32391
RS@@ 32387
com_@@ 32384
fake-@@ 32383
mas 32377
DF 32367
ball_@@ 32365
deltas 32356
cub@@ 32353
incorrect 32353
example.@@ 32352
sector 32351
prints 32350
s▯must▯be▯@@ 32348
ments_@@ 32346
Ratio 32326
chk@@ 32319
lies 32315
Workspace 32313
cherrypy 32313
server_name 32311
-01-01 32310
eno@@ 32308
replica_@@ 32306
stand@@ 32306
STR 32299
ability@@ 32298
xy_@@ 32298
{0@@ 32290
met 32289
series@@ 32286
>〖lf〗▯▯▯▯▯▯▯▯▯▯▯▯▯▯▯▯<@@ 32277
]{@@ 32277
centroid 32271
accept_language 32270
Au@@ 32268
5f@@ 32263
[%s]▯@@ 32259
Ex 32255
raster 32252
addHandler 32251
archi@@ 32250
ory 32248
tify 32248
Results@@ 32239
_values 32238
AUTH_@@ 32231
Ev@@ 32230
directions 32230
offer 32215
manager@@ 32214
succeed 32213
Indices 32212
TestAction 32207
bil@@ 32207
1000.0 32206
一@@ 32205
DATE 32204
upgrade_@@ 32202
Mix@@ 32197
Fail@@ 32189
properties_@@ 32174
importer 32154
positive_@@ 32153
\'t▯@@ 32140
simp@@ 32138
SF@@ 32133
service▯@@ 32131
Double 32126
ene@@ 32125
OFP@@ 32122
preds 32119
-i 32114
percent@@ 32107
twitter 32097
embedded 32096
Enable@@ 32088
visitor 32085
associ@@ 32082
config_dict 32080
成@@ 32079
DL@@ 32077
local_var_params 32072
STDOUT 32070
GENER@@ 32069
acti@@ 32064
id_to_@@ 32063
argstr 32057
lr_@@ 32053
cache_dir 32048
protobuf 32044
0.0000@@ 32042
rejected 32041
fact@@ 32040
versionadded 32039
IT_@@ 32038
MODIFICATIONS 32028
indexing 32027
That 32026
starttime 32026
tgt_@@ 32014
SQ@@ 32012
dh@@ 32012
paused 32011
0▯0▯@@ 32008
present@@ 32007
0.00 31998
items@@ 31991
migrate_@@ 31990
(▯@@ 31988
Def@@ 31984
Del@@ 31976
enter_@@ 31961
router@@ 31956
ISO@@ 31942
h5 31942
raw_result 31942
_start_@@ 31939
deque 31938
ings_@@ 31938
perio@@ 31934
peers 31932
pytz 31925
keyword@@ 31919
Binary 31915
send▯@@ 31906
po_@@ 31905
〖tab〗〖tab〗〖tab〗@@ 31903
vl 31897
HS@@ 31894
ABLE 31891
older 31890
preference 31885
area@@ 31882
ken 31881
com.@@ 31878
ec2 31872
Lock@@ 31864
available▯@@ 31850
uploaded 31850
Mu@@ 31849
index▯@@ 31848
statistic 31847
ationError 31845
exec_ 31842
showIndent 31837
aj@@ 31830
Editor@@ 31829
Finished 31829
__module__ 31829
integrate 31822
faster 31816
zz 31814
mixed 31811
asc 31806
km@@ 31804
spr@@ 31802
prior_@@ 31800
goes 31799
blobs 31798
name_scope 31795
fork 31791
AUTO@@ 31778
fle@@ 31771
kt 31771
rem 31771
ric 31759
ear@@ 31754
<b>@@ 31750
Radi@@ 31750
adi@@ 31744
ure▯@@ 31742
sa_@@ 31738
expand@@ 31735
ever 31734
describe_@@ 31732
nome 31732
dbus 31730
Origin 31728
cirq 31724
verification 31723
1e-3 31722
he 31720
test_case 31719
\(@@ 31714
network▯@@ 31704
ase▯@@ 31703
Wdg 31697
conditional 31693
evaluate_@@ 31692
ron@@ 31687
penalty 31683
1: 31677
Google 31654
_execute 31650
ipv6_@@ 31645
Shared@@ 31643
broadcast_@@ 31641
form▯@@ 31639
found. 31638
Head@@ 31634
192 31630
APP_@@ 31627
DeprecationWarning 31627
Socket@@ 31626
行@@ 31622
Coord 31621
B▯@@ 31617
fmt_@@ 31615
1.3 31608
Diff 31607
benchmark_@@ 31607
comput@@ 31607
gettext 31606
subclasses 31605
/?@@ 31601
448 31600
tical 31600
Err 31594
ssl@@ 31592
z1 31592
OS_@@ 31589
deep@@ 31589
get_all 31586
Times 31585
Raw 31575
playlist_@@ 31574
Export 31572
cation 31567
may▯@@ 31566
prof 31565
Dense 31557
room@@ 31553
Mat 31551
800@@ 31548
feeds 31545
PB@@ 31536
diag@@ 31531
utf 31530
_x@@ 31524
Db 31515
spath 31513
1000000 31510
get_absolute_url 31507
Same 31506
s▯-@@ 31502
Power 31492
-t 31489
continue@@ 31486
Prop 31484
activities 31484
Day@@ 31478
cks 31476
physical 31475
good@@ 31472
UPDATE 31471
Gre@@ 31469
Validation@@ 31465
consume 31462
loaded▯@@ 31458
Bucket 31457
cleaned 31455
zs 31449
delete_table 31446
subnet_id 31444
foreground 31436
transfer@@ 31431
visu@@ 31411
ATTR_@@ 31407
Rules 31404
analyzer 31402
une@@ 31398
,〖lf〗▯▯▯▯▯▯▯▯▯▯▯▯@@ 31396
3}@@ 31395
F▯@@ 31394
3,▯@@ 31393
Stat 31387
padding_@@ 31382
ado@@ 31379
MF@@ 31370
open▯@@ 31370
bugs 31367
ente 31365
maximum_@@ 31358
channel_id 31357
,▯and▯@@ 31352
new_data 31351
4096 31344
compound 31344
intr@@ 31344
Prote@@ 31339
reduction 31335
cdf 31334
=▯(@@ 31333
URLs 31332
different▯@@ 31330
Activity 31324
adjust@@ 31320
Expect@@ 31317
NP@@ 31308
logical 31304
concept 31301
rep_@@ 31300
"] 31298
CS 31290
AP_@@ 31288
9999 31287
from▯the▯@@ 31287
\n▯▯@@ 31280
ency_@@ 31277
libvirt 31277
ames 31274
Failed▯@@ 31273
sums 31270
watch_@@ 31266
hd 31263
echo▯@@ 31258
src/@@ 31258
ground_@@ 31257
linked_@@ 31257
certs 31254
})@@ 31245
AC 31240
Generate@@ 31230
USERNAME 31219
Renderer 31217
_db 31215
e+@@ 31205
Html@@ 31204
object/@@ 31202
confirm@@ 31195
two▯@@ 31195
FAIL 31192
assertListEqual 31188
Unique@@ 31185
os-@@ 31180
cha@@ 31172
trun@@ 31162
SIGN@@ 31161
loaded@@ 31155
Done@@ 31154
dom_@@ 31151
RC@@ 31147
Endpoint@@ 31146
curve@@ 31143
7f@@ 31134
iti@@ 31126
land 31126
json_response 31125
logy 31125
denominator 31122
gather 31122
Adapter 31121
race 31117
django.db.models.fields.related.ForeignKey 31115
devs 31114
locks 31113
multip@@ 31113
CV@@ 31111
context_instance 31106
%Y@@ 31104
TABLE_@@ 31095
is_admin 31088
mongo@@ 31087
arrow@@ 31086
Handle@@ 31084
Success@@ 31080
dependency_@@ 31064
%i 31063
subscriber 31051
-m 31045
text:@@ 31043
GB 31042
billing_@@ 31039
poller 31038
dut@@ 31037
_in@@ 31020
modname 31013
setLayout 31011
closure 31009
ctrl_@@ 31009
tai@@ 31009
v▯@@ 31008
ult 31004
secure_@@ 31002
sib@@ 31002
material_@@ 31001
NODE_@@ 31000
TEMPLATE 30992
legend@@ 30988
macros 30988
company_@@ 30987
MSG_@@ 30986
elem_@@ 30983
PK@@ 30979
Upload 30976
received@@ 30975
capitalize 30974
USE 30973
hide@@ 30968
FAKE_@@ 30965
Light@@ 30959
az 30958
removing 30957
tags@@ 30957
produced 30949
tem 30938
pywikibot 30937
spatial_@@ 30934
syslog 30934
〖docopenb:'〗 30934
Show▯@@ 30926
elem@@ 30916
accepts 30914
border_@@ 30914
invert 30911
mc_@@ 30907
gh 30905
ass@@ 30903
directed 30898
Place@@ 30897
agg@@ 30896
Files@@ 30893
rval 30891
qual 30886
task▯@@ 30884
episode@@ 30881
rot_@@ 30873
ME 30870
block▯@@ 30866
SHA@@ 30861
set_active 30858
expression@@ 30857
uk_@@ 30856
Zero 30851
LROPoller 30844
Wa@@ 30837
til@@ 30830
Distribution 30826
mismatch 30825
Does 30819
.〖lf〗@@ 30815
hardware 30815
Author 30810
Desc@@ 30809
stages 30807
photo_@@ 30799
⁄ 30796
ET@@ 30795
d3 30790
star_@@ 30788
vin 30785
User-Agent 30781
lic 30780
Na@@ 30779
vote_@@ 30778
Sys@@ 30777
rup@@ 30777
LINE_@@ 30765
updated_at 30764
Computes 30758
cluster_id 30757
processing_@@ 30740
tb_@@ 30740
sta 30738
64_@@ 30734
Changed@@ 30734
Fixed 30734
ged@@ 30733
air_@@ 30731
updater 30727
ill 30725
í@@ 30725
is_training 30720
repeated 30718
invi@@ 30712
lost 30706
upstream 30699
t2@@ 30697
__getattr__ 30696
ush 30690
google@@ 30688
acts 30680
webob 30678
biases 30676
health_@@ 30675
Forward 30671
Nu@@ 30671
software 30670
DT 30668
ous_@@ 30668
s▯WHERE▯@@ 30668
phy@@ 30655
Func@@ 30653
UserProfile 30646
ASCII 30644
Metric@@ 30639
wan@@ 30639
recipient_@@ 30635
consistency 30621
kv@@ 30619
seeds 30613
minimize 30612
13.@@ 30611
LIN@@ 30611
2011@@ 30610
holds 30610
approx 30604
{2@@ 30599
00▯@@ 30596
bus@@ 30594
tuple@@ 30594
0x%@@ 30592
confirmed 30589
ea 30589
Roo@@ 30587
vi 30586
gate@@ 30585
>▯<@@ 30584
affine 30583
pw_@@ 30580
NodeClass 30579
Distance@@ 30578
linear@@ 30577
>>@@ 30574
m3 30574
deli@@ 30571
Sym@@ 30569
producer 30569
chat_@@ 30564
OUT@@ 30563
_lib 30559
2017@@ 30558
ous▯@@ 30557
是@@ 30557
h2o 30554
changing 30544
Steps 30543
repor@@ 30542
sugge@@ 30537
sale_@@ 30533
-r 30530
restart_@@ 30519
recipe_@@ 30518
verti@@ 30518
datap@@ 30515
}/{@@ 30513
LS@@ 30498
xbmcgui 30494
user-@@ 30489
clic@@ 30484
LIMIT 30483
file2 30481
focus_@@ 30481
NumberOf@@ 30480
Changes 30478
sound@@ 30476
BIT@@ 30468
macro@@ 30467
valu@@ 30462
Random 30461
Hook 30460
anonymous 30456
plist 30456
arg0 30455
vy 30447
1e-6 30436
bk@@ 30423
f0 30422
hh@@ 30413
WARNING:▯@@ 30412
_PREFIX 30412
RES@@ 30410
decision 30410
package▯@@ 30406
qname 30403
successfully▯@@ 30401
p-@@ 30400
List▯@@ 30396
CPU@@ 30393
Core 30389
total▯@@ 30375
Face@@ 30361
es/@@ 30355
orient 30355
Alexa 30348
policy@@ 30347
extra_args 30345
ForeignKey 30341
qr@@ 30338
CH 30335
L1 30334
voice 30333
lob@@ 30331
object_type 30331
COR@@ 30330
gue@@ 30329
Re 30328
_delete_@@ 30328
Enter▯@@ 30325
vault 30323
direc@@ 30318
0xFF 30309
path_params 30309
squared 30304
maxsize 30303
ql@@ 30302
_ctx 30299
s_url 30294
Fail 30287
Publish@@ 30286
lay 30286
routing 30283
arg2 30277
Trigger 30275
_pre@@ 30267
lead 30266
supported▯@@ 30266
meter@@ 30264
lam 30253
s_on_@@ 30243
assert_equals 30241
operands 30240
utili@@ 30239
Act 30234
Ang@@ 30234
512@@ 30233
OP 30233
removed_@@ 30226
〖lf〗▯▯▯▯▯▯▯▯▯▯▯▯▯▯▯▯▯▯▯▯▯▯@@ 30221
ONE 30219
bool_@@ 30216
OF@@ 30213
uname 30212
Encoder 30208
Vol@@ 30205
fromtimestamp 30203
wanted 30203
CLASS 30201
about@@ 30201
ek@@ 30196
);〖lf〗▯▯▯▯▯▯▯▯@@ 30189
notify@@ 30188
serialized_@@ 30188
WOR@@ 30183
find_one 30181
ame▯@@ 30179
%d) 30178
cau@@ 30167
regs 30162
Exceptions 30160
Initi@@ 30157
belongs 30152
connectivity 30148
routers 30148
ed. 30144
_list_@@ 30143
ange 30139
zmq 30134
orbit@@ 30129
-1.@@ 30123
splitter 30120
$$@@ 30114
datapath 30111
SSL@@ 30109
TR 30109
xyz@@ 30109
Layers 30108
wl 30105
injec@@ 30103
spac@@ 30100
std::@@ 30098
dup 30097
array▯@@ 30095
cation_@@ 30094
max_value 30094
moder@@ 30091
Dim@@ 30090
cats 30090
Example@@ 30084
bug_@@ 30076
received▯@@ 30074
generators 30073
increase 30072
%}@@ 30070
08 30069
:▯▯@@ 30069
HORIZONTAL 30069
cher 30066
realm_@@ 30060
region_name 30060
picks 30054
prec@@ 30053
Either 30052
fee@@ 30046
Handler@@ 30044
currency_@@ 30037
headers_@@ 30035
delete_column 30033
ish 30032
o-@@ 30031
StubOutWithMock 30024
process▯@@ 30024
SSH@@ 30019
uv 30012
Proce@@ 30009
lint 30009
rw 30001
DV@@ 29990
0.02 29969
adj_@@ 29969
lights 29953
blk 29952
v4 29942
LS 29938
ele 29936
stamp@@ 29935
don't▯@@ 29933
company_id 29931
per_page 29918
Ni@@ 29916
ator▯@@ 29916
http:// 29910
coding 29909
plugintools 29906
evi@@ 29903
accept@@ 29902
rm_@@ 29900
Switch@@ 29899
_transport 29898
Put 29894
analyze 29890
alias@@ 29889
_get 29884
_PORT 29874
S3 29870
tools_@@ 29870
Signature 29868
Loc 29865
return_code 29862
breaks 29854
consumer_@@ 29854
4b@@ 29848
<p>@@ 29841
〖lf〗〖tab〗〖tab〗〖tab〗@@ 29835
svg@@ 29832
ᅡ@@ 29832
rpm 29830
else@@ 29828
simulate 29828
INDEX 29822
Analysis 29820
episo@@ 29817
species_@@ 29812
Worker 29803
lr@@ 29803
followed 29801
Entries 29794
]▯[@@ 29794
paste 29794
Skipping▯@@ 29790
define@@ 29782
exclusive 29781
students 29781
SI 29776
starting▯@@ 29776
\w@@ 29773
1e 29768
in▯ 29768
gy@@ 29767
weather 29767
c7@@ 29762
sublime 29761
Take 29757
utt@@ 29754
fab@@ 29749
tests_@@ 29748
argsort 29746
poly_@@ 29746
choose_@@ 29738
pc_@@ 29736
mission@@ 29731
oauth 29723
Html 29718
tm_@@ 29710
registered_@@ 29708
м@@ 29703
Expanding 29700
hap@@ 29698
colormap 29696
ho 29693
rc_@@ 29692
sive@@ 29689
Setting▯@@ 29687
/api/v1/@@ 29684
XY 29683
r0 29683
basis_@@ 29680
sd_@@ 29680
Gene@@ 29673
Team 29673
rfind 29670
follows 29669
ONE_@@ 29667
zen@@ 29667
Install 29664
CalledProcessError 29656
mountpoint 29650
plus_@@ 29645
Gen 29643
created@@ 29642
permutation 29638
joined 29632
Iterate 29629
,"@@ 29625
structure_@@ 29624
setIcon 29622
Valid@@ 29620
2.1 29616
ENT_@@ 29614
numeric_@@ 29612
á@@ 29612
transcript 29609
span_@@ 29608
</a@@ 29607
root_path 29603
restricted 29600
instance_name 29599
NotFoundError 29596
docker@@ 29596
(s@@ 29595
aws 29595
inference 29592
07 29591
ok_ 29588
aries 29584
TRUE 29581
current_time 29581
BUILD_@@ 29580
assigned_@@ 29579
is_virtual 29578
е 29577
phases 29576
Sur@@ 29569
gdal 29564
srv_@@ 29561
claim 29557
lvl 29556
Constraints 29553
ann 29553
completed_@@ 29547
finish@@ 29544
Scheduler 29541
field_type 29541
gaussian 29539
__get@@ 29533
tornado 29530
Axis@@ 29528
IP_@@ 29527
URL_@@ 29524
length▯@@ 29521
sheets 29520
sms 29519
purpose 29517
8.0 29515
Destroy 29512
energies 29512
IF 29511
test_invalid_@@ 29508
EB@@ 29499
timer_@@ 29498
CAT@@ 29497
neighbor@@ 29496
▯name@@ 29495
finite 29494
finished_@@ 29487
DICT 29477
||▯@@ 29477
shel@@ 29473
_call_@@ 29465
cycle_@@ 29460
cap_@@ 29459
feats 29457
cit@@ 29450
Buttons 29448
16.@@ 29447
1E@@ 29446
comps 29446
LIB@@ 29442
testing_@@ 29434
deployment_@@ 29430
must_@@ 29423
</span@@ 29422
Full 29421
QFrame 29421
ranks 29421
selected▯@@ 29420
[]@@ 29419
x1@@ 29414
on_error 29411
-11@@ 29408
▯=▯%s 29403
feat_@@ 29402
Background 29397
offline 29394
kill@@ 29393
marke@@ 29390
moving_@@ 29376
prompt_@@ 29373
6e@@ 29371
delay@@ 29366
cpp@@ 29363
mins 29363
blank_@@ 29358
tid@@ 29358
Assign 29356
happ@@ 29356
event▯@@ 29355
NAMES 29352
cad@@ 29351
upon 29350
mobile 29348
root▯@@ 29341
BT@@ 29336
maxlen 29336
Produ@@ 29334
mit 29333
schemas 29331
assembly 29329
assertDictEqual 29326
wire 29323
Second 29322
sensitive 29322
INT_@@ 29320
Compare 29312
Modified 29311
Pixmap 29310
preview_@@ 29309
DNS 29308
Fill@@ 29307
art_@@ 29285
rp_@@ 29284
Iter 29280
〖lf〗〖tab〗@@ 29277
_has_@@ 29265
ground@@ 29265
existing▯@@ 29264
workflow@@ 29259
Internal 29256
QObject 29255
setAttribute 29253
tif 29253
countries 29250
:0 29245
LINE@@ 29245
wizard 29245
ing... 29244
functionality 29243
repositories 29243
Inte@@ 29242
RU@@ 29234
configfile 29233
authorized 29232
9-@@ 29228
repl 29227
ij 29226
AK@@ 29225
glo@@ 29225
recall 29219
stock@@ 29217
case▯@@ 29211
downloads 29198
Classes 29195
quad 29195
OF_@@ 29192
coverage_@@ 29192
NI@@ 29189
BLOCK_@@ 29188
finger@@ 29185
Tele@@ 29184
Keep 29182
AsyncLROPoller 29177
Fn 29174
100. 29173
scope@@ 29171
thus 29171
writeFieldBegin 29171
tp_@@ 29169
bonds 29166
writeFieldEnd 29164
return_type 29163
a:@@ 29160
horizontal@@ 29159
ndims 29157
blocked 29154
PATH@@ 29152
cancelled 29151
assemb@@ 29150
occup@@ 29146
song_@@ 29146
rnn 29143
materials 29136
parsers 29131
fragments 29128
delim 29127
programs 29127
kk 29124
drive_@@ 29114
delivery_@@ 29113
Lib 29111
R▯@@ 29111
data_list 29110
occur 29109
o1 29106
lowercase 29105
1000@@ 29095
Loop@@ 29095
CUR@@ 29092
[COLOR▯@@ 29092
Disabled 29086
discount 29083
ally@@ 29078
envelope 29073
usage@@ 29071
Cal@@ 29070
Gateway@@ 29070
TP 29070
w▯@@ 29068
work_dir 29067
Reset@@ 29065
vars_@@ 29054
Atom 29052
recv@@ 29052
motor 29048
soft_@@ 29048
quote_plus 29045
lot@@ 29040
rich@@ 29035
igh@@ 29034
Du@@ 29031
enrollment 29031
Payload 29029
grade@@ 29025
pins 29024
coder 29022
in-@@ 29018
hl@@ 29009
Nothing 29008
Question 29007
ting@@ 29004
JsonResponse 28998
cou@@ 28991
notifier 28990
用@@ 28988
Patch@@ 28984
ight@@ 28983
legend_@@ 28982
anc@@ 28979
Custom 28972
assertRaisesRegex 28972
Transfer@@ 28970
whatever 28963
restored 28959
IGNORECASE 28956
Metric 28950
groupBox_@@ 28950
df2 28946
materi@@ 28944
binding@@ 28938
information▯@@ 28933
pi_@@ 28933
CMD_@@ 28928
Sql@@ 28926
Back 28923
hdu 28918
sorted@@ 28914
bucket@@ 28911
vocab@@ 28908
nc_@@ 28905
WP@@ 28904
Tkinter 28901
treated 28901
ADD 28899
Machine@@ 28897
set▯to▯@@ 28894
sides 28894
WHERE 28892
sname 28892
cycle@@ 28890
tipo 28890
GROUP_@@ 28888
ur_@@ 28883
dig@@ 28879
encryption_@@ 28879
::▯@@ 28876
see▯@@ 28876
conflicts 28875
decre@@ 28874
Expression@@ 28873
ancestor 28873
enumeration 28871
finding 28864
1e-@@ 28858
comple@@ 28858
dia 28857
Additional 28848
line_number 28845
ffff@@ 28840
outbox 28836
pointer@@ 28834
utils_@@ 28831
manual_@@ 28825
plug@@ 28823
14.@@ 28822
s/%s 28819
input_fn 28816
False@@ 28814
[] 28811
ratio_@@ 28811
)*@@ 28810
because▯@@ 28806
compliance 28804
activate_@@ 28803
lem@@ 28803
window_size 28802
pagin@@ 28799
Amazon 28797
EOF 28797
]+) 28797
wat@@ 28797
BP@@ 28792
_RE@@ 28789
wc_dir 28787
ess@@ 28785
compare@@ 28784
Integer@@ 28783
trial_@@ 28781
Pair 28775
X1 28775
king@@ 28774
experiments 28772
traits 28771
>〖lf〗▯▯▯▯▯▯▯▯▯▯▯▯@@ 28759
friend@@ 28759
working_dir 28758
journal_@@ 28755
fall 28753
arcpy 28751
extract_data 28748
Common 28742
findAll 28742
Last 28741
discovery 28737
;▯ 28736
Mark 28736
late 28736
sage 28735
wid@@ 28733
TION@@ 28731
Axes 28730
xdata 28730
Proto@@ 28723
expr_@@ 28721
i18n 28720
daemon@@ 28716
Monitor 28708
transi@@ 28708
replication_@@ 28707
Google@@ 28706
flux_@@ 28706
sender_@@ 28705
$\@@ 28704
pic 28702
3000 28701
minute@@ 28699
test_un@@ 28698
componen@@ 28690
mb_@@ 28685
contra@@ 28682
Watch@@ 28681
blueprint 28680
Py 28679
call▯@@ 28679
squares 28679
qr 28677
requires_@@ 28676
caches 28672
vt 28671
yes@@ 28669
sci@@ 28668
relation_@@ 28663
get_url 28662
pipeline@@ 28662
stru@@ 28662
,〖lf〗▯▯▯▯▯▯▯▯▯▯▯▯▯▯▯▯▯▯▯▯@@ 28657
****@@ 28653
Pipeline 28653
published_@@ 28650
READ@@ 28641
PDF 28639
Received▯@@ 28639
loglevel 28636
wav 28636
START_@@ 28633
study 28630
Cookie 28629
Cols 28622
TG@@ 28621
contours 28619
curl 28618
Actor 28617
0o@@ 28613
strict_@@ 28612
Merge@@ 28611
LP@@ 28608
fault 28608
redirects 28604
ready_@@ 28603
PN@@ 28602
emit_@@ 28601
assertRaisesRegexp 28593
already▯exist@@ 28592
fasta_@@ 28592
ncols 28591
det@@ 28581
QPalette 28570
tors 28566
32_@@ 28557
unexpected▯@@ 28550
_save_@@ 28549
actual@@ 28547
abilities 28544
set_defaults 28544
/> 28543
?) 28539
mysql@@ 28537
jpeg 28534
Raise 28533
style="@@ 28531
Btn 28528
In▯@@ 28524
Img 28522
nz 28514
restype 28513
Commit 28509
dv 28508
title▯@@ 28502
Width@@ 28489
perm_@@ 28480
processors 28476
translator 28473
toc 28470
sky 28468
assumes 28467
break_@@ 28462
inverse_@@ 28460
Browser 28459
z2 28458
its▯@@ 28456
optionally 28450
doc_id 28447
l3_@@ 28444
ru 28444
Expr@@ 28441
located 28438
keep_default 28436
wid 28436
FILENAME 28434
_obj 28430
plaintext 28423
ative▯@@ 28421
Inser@@ 28416
exe_@@ 28412
GEN@@ 28411
lens 28405
gl_@@ 28402
GPU 28401
directive 28389
matic 28387
referenced 28386
\">@@ 28383
covered 28380
overridden 28378
gau@@ 28376
topo 28374
_debug 28371
files/@@ 28369
produ@@ 28367
recid 28365
Fu@@ 28362
copies 28362
IsA 28361
NODE 28358
Sup@@ 28355
ant▯@@ 28354
settings@@ 28354
effective_@@ 28352
inclu@@ 28350
_max_@@ 28342
reload_@@ 28338
calendar@@ 28336
image_url 28335
spans 28333
builtin 28331
:▯%.@@ 28327
rpc@@ 28325
dout 28324
sz@@ 28320
gm@@ 28319
sk 28315
%s%s@@ 28312
Sta@@ 28309
desktop 28307
za 28298
LED 28294
010@@ 28293
get_active 28292
pose@@ 28289
order_id 28288
pulse 28283
sym_@@ 28275
scheduled 28273
mage 28267
eff@@ 28263
github_@@ 28260
ager 28258
enumer@@ 28255
flush_@@ 28255
rfc@@ 28255
resize@@ 28254
model_dir 28253
Current▯@@ 28245
Hyper@@ 28245
Dev@@ 28243
redirect@@ 28241
composite 28235
flavor_@@ 28234
Records 28231
mil@@ 28230
instrument_@@ 28228
caching 28225
ERR_@@ 28224
field_names 28224
.pdf 28221
speaker 28221
movies 28219
buttonBox 28218
corr_@@ 28216
__setattr__ 28214
excinfo 28214
Flo@@ 28212
Ed@@ 28209
ao 28209
Asset@@ 28206
kws 28206
serializers 28206
to_proto 28205
fname_@@ 28202
Tax@@ 28200
constraint@@ 28195
prepare_request 28191
Issue 28189
Strategy 28184
ZipFile 28182
XX 28178
enci@@ 28178
cf_@@ 28171
Resi@@ 28163
show_all 28163
grade_@@ 28155
ump 28154
Arn 28152
horizontalLayout 28150
workbook 28150
coord@@ 28149
ope@@ 28142
y_test 28141
png@@ 28139
td▯@@ 28136
INVALID_@@ 28134
file_ 28134
person_id 28133
OC@@ 28127
8f@@ 28120
ConnectionError 28120
minimiz@@ 28118
gw@@ 28117
〖lf〗#@@ 28115
canonical_@@ 28108
><br@@ 28106
argtypes 28102
Family 28101
Trace@@ 28101
preci@@ 28100
CREATE▯TABLE▯@@ 28097
textwrap 28092
email▯@@ 28089
stderr_@@ 28087
IG@@ 28082
sentence_@@ 28082
during▯@@ 28079
pivot 28079
request_data 28078
instance_type 28077
matche@@ 28073
where_@@ 28073
builder@@ 28072
Integral 28063
Medi@@ 28062
pod@@ 28062
recover@@ 28061
entry▯@@ 28056
packe@@ 28056
trip 28052
action▯@@ 28050
EF@@ 28049
p1@@ 28047
Gaussian 28046
_py@@ 28043
valor 28042
cgi 28041
2048 28040
v6 28037
corrup@@ 28025
binascii 28023
Radio@@ 28021
Slider 28017
(\d+)@@ 28016
nova_@@ 28010
une 28009
OUT_@@ 28004
_convert_@@ 28000
substit@@ 28000
THE 27996
arm_@@ 27993
decl@@ 27993
emul@@ 27992
====@@ 27991
fk_@@ 27986
</tr@@ 27985
Const 27980
folds 27980
assertion 27976
outer_class 27973
_return_http_data_only 27966
Xml 27965
rename@@ 27962
wildcard 27960
morph@@ 27957
ven 27951
trait 27949
srv_msg 27948
nel@@ 27947
Air@@ 27946
activation_@@ 27945
bounding 27944
ACC@@ 27935
ipv4_@@ 27929
IV@@ 27927
cos_@@ 27927
javascript 27925
runner_@@ 27925
AB 27924
options@@ 27912
sError 27911
value_type 27906
Other@@ 27904
Optimizer 27897
ascending 27897
fixed@@ 27897
values▯@@ 27895
sv_@@ 27894
MER@@ 27891
OW@@ 27887
influ@@ 27886
search▯@@ 27885
Ke@@ 27880
tn@@ 27877
MAT@@ 27876
vide@@ 27876
limited 27873
requires▯@@ 27866
send_keys 27866
carri@@ 27865
endian 27862
Chain 27860
could▯not▯be▯@@ 27860
Pop@@ 27859
CSV@@ 27858
advanced 27857
wiki_@@ 27856
error:▯@@ 27852
Stats@@ 27847
Kind 27846
Master@@ 27843
spline 27843
accumul@@ 27841
artifact_@@ 27838
Two@@ 27836
album_@@ 27836
fig_@@ 27836
tender@@ 27829
_kwargs 27820
Refresh 27819
scaled_@@ 27816
not▯found@@ 27815
CHAR@@ 27812
RH@@ 27806
geom_@@ 27804
solve_@@ 27802
fastbinary 27797
getnewaddress 27795
removes 27795
Arr 27793
Expi@@ 27789
mission 27787
dit 27785
n_jobs 27784
FD@@ 27783
repeat_@@ 27781
facecolor 27775
clone@@ 27770
your@@ 27769
Quality 27763
allocated 27762
memo 27761
datafile 27759
00:00:@@ 27758
big_@@ 27753
_prepare_@@ 27752
ACK 27751
Words 27751
rendering 27749
xl@@ 27748
largest 27746
c5@@ 27745
exception▯@@ 27745
find_element_by_id 27744
ticket_@@ 27743
installation 27740
migrations 27740
idle_@@ 27731
vr 27722
Primitive 27721
relationships 27720
="%s@@ 27713
appear@@ 27712
total_seconds 27693
can▯be▯@@ 27691
times_@@ 27691
%s▯is▯@@ 27690
aw 27687
Execution@@ 27685
X_test 27684
Dimension 27682
Gateway 27680
attribs 27677
VERSION_@@ 27675
▯▯▯▯▯▯▯▯▯▯▯@@ 27673
ute@@ 27669
ble_@@ 27668
pct 27668
Mean 27665
can't▯@@ 27665
printing 27655
2017 27654
buffer_size 27650
lons 27646
MAC 27644
Null 27640
so▯@@ 27638
overview 27635
large_@@ 27634
a,▯@@ 27626
bol@@ 27625
internal@@ 27624
magic_@@ 27621
inputfile 27619
state▯@@ 27611
jav@@ 27610
mapp@@ 27609
requests_@@ 27609
mime@@ 27604
NON@@ 27603
newly 27603
ks_@@ 27600
column▯@@ 27598
rotatePoint 27592
detect@@ 27590
ー@@ 27585
construction 27578
nick@@ 27578
5e@@ 27577
sample_rate 27577
AGE_@@ 27564
walk_@@ 27564
Select▯@@ 27561
CAP@@ 27560
s)@@ 27559
▯%d@@ 27559
在@@ 27559
je 27554
srs 27552
source_path 27549
slash 27548
thre@@ 27548
nose 27544
uts 27544
mit_@@ 27540
fil 27539
svc_@@ 27536
POINTER 27534
nid 27534
ec2_@@ 27533
harve@@ 27532
Solution 27530
ally_@@ 27529
DER 27519
change▯@@ 27519
rootNode 27515
alig@@ 27512
connection▯@@ 27510
Snapshot 27509
final_update 27504
Cl@@ 27492
toggle@@ 27492
▯is▯not▯a▯@@ 27492
〖lf〗#▯@@ 27489
texto 27487
f2@@ 27485
pai@@ 27481
":▯0,▯"@@ 27480
.▯Please▯@@ 27476
security_groups 27474
image/@@ 27469
toString 27468
preferred_@@ 27466
Audio@@ 27463
Currently 27463
daily 27459
fk 27459
_01 27456
hop 27456
READ 27451
%2@@ 27450
LEN 27450
POS 27450
param_name 27445
dispatch@@ 27443
ctime 27439
_fields 27436
OPEN@@ 27434
neutron_@@ 27433
MA 27430
Rational 27430
assert_has_calls 27429
Feed 27427
MESSAGE 27425
d▯=▯@@ 27423
expand_dims 27419
unexpected 27419
Dump@@ 27418
定@@ 27418
fw_@@ 27417
Res 27414
prod_@@ 27413
Branch 27411
kn@@ 27411
rss 27408
LAY@@ 27406
custo@@ 27406
cluster_name 27403
desc_@@ 27399
unique_id 27398
Combo 27393
bookmark 27392
new_config 27375
ency@@ 27370
occurred 27369
vocab_size 27369
chor@@ 27368
traffic 27364
crop@@ 27361
symmetric 27359
intercept 27357
ore 27357
conversation 27356
shed 27356
moc@@ 27355
1, 27353
describing 27353
quality_@@ 27353
\7@@ 27351
loading▯@@ 27347
OD@@ 27346
ray@@ 27346
the▯ 27346
intent 27345
west 27344
actors 27339
kg@@ 27339
license_@@ 27332
CloudError 27327
spe@@ 27319
dbs 27317
represented 27317
ingredi@@ 27314
secre@@ 27307
osc@@ 27298
Turn 27297
authentic@@ 27290
rgba 27284
Dock@@ 27281
]) 27280
independent 27278
sched 27278
Movie@@ 27275
Train 27273
meas@@ 27273
aggregation 27271
_sub@@ 27270
mpl 27270
Connections 27268
RR@@ 27266
Items@@ 27265
optparse 27265
expected_status 27264
transport@@ 27264
を@@ 27263
Ca@@ 27262
':▯@@ 27257
positional 27254
COUN@@ 27250
test_is_@@ 27245
Monitor@@ 27244
logger_@@ 27244
pet@@ 27243
1e-5 27237
applies 27235
forces 27233
trainer 27232
unable▯to▯@@ 27227
Har@@ 27223
choo@@ 27223
joint@@ 27220
>〖lf〗▯▯▯▯▯▯▯▯@@ 27218
CACHE_@@ 27216
FP@@ 27212
chem@@ 27211
mt_@@ 27210
approved 27208
ai_@@ 27207
asc@@ 27205
unknown@@ 27205
cro@@ 27197
NU@@ 27195
protocols 27194
Codes 27189
assessment 27186
lxml 27181
bootstrap_@@ 27178
kine@@ 27178
Go 27177
respond 27170
psi@@ 27164
sh▯@@ 27164
confirmation 27159
MessageBox 27156
hover@@ 27153
toggled 27152
▯(%s) 27150
catch@@ 27147
evaluated 27146
val2 27143
Support 27142
ll_@@ 27138
features@@ 27134
IP▯@@ 27124
Stri@@ 27119
org.@@ 27119
\s 27113
ently 27113
anchors 27112
secrets 27112
Key▯@@ 27111
http_client 27111
E+@@ 27108
locate 27106
Output▯@@ 27104
reported 27103
scheduler_@@ 27103
hole 27102
rt_@@ 27102
Utility 27100
shadow 27097
g_name 27085
rounds 27081
combine_@@ 27080
BEGIN 27075
_table 27072
userdata 27066
unpack@@ 27049
Pol@@ 27046
take_@@ 27043
Lab@@ 27034
buf@@ 27034
SPACE 27031
xr 27031
about_@@ 27019
finalize 27019
Compo@@ 27018
chart_@@ 27018
memory@@ 27016
\0 27015
abb@@ 27014
record_id 27012
setCurrentIndex 27011
assignment_@@ 27010
FIELD 27007
https://github.com/@@ 27007
rotate_@@ 27007
vx 27007
)▯(@@ 27001
Issue@@ 26996
pids 26996
datasource 26994
spectr@@ 26988
elevation 26986
Score@@ 26982
ers_@@ 26982
IC 26981
getsize 26980
jec@@ 26980
sive_@@ 26980
2010@@ 26976
Quali@@ 26971
bucke@@ 26971
attachment_@@ 26966
VERTICAL 26963
ljust 26958
Vertex@@ 26955
]+ 26955
la_@@ 26955
b-@@ 26952
http://localhost:@@ 26949
2000@@ 26948
Mas@@ 26948
debugger 26943
AGE@@ 26939
Content-@@ 26939
ENABLED 26939
socket@@ 26937
(-@@ 26935
geno@@ 26931
Marker 26927
songs 26927
tim 26925
bz@@ 26924
How 26919
format▯@@ 26918
ballo@@ 26917
copyfile 26917
gamma_@@ 26914
▯|▯@@ 26912
generated▯@@ 26910
helper_@@ 26909
text() 26906
staff_@@ 26905
sex@@ 26903
appli@@ 26900
Clas@@ 26895
store▯@@ 26895
Unsupported▯@@ 26894
nf@@ 26894
Try@@ 26889
md5@@ 26882
audit 26878
operator_@@ 26875
lf 26870
remote▯@@ 26866
Head 26864
name} 26864
y_true 26862
arglist 26859
\t▯@@ 26853
guide 26851
Adding▯@@ 26850
setVisible 26846
infer_@@ 26844
p4 26843
Pla@@ 26841
Sparse@@ 26841
SETTINGS 26835
manu@@ 26834
Created 26833
RUNNING 26832
contract_@@ 26832
.h@@ 26829
miss 26823
season@@ 26822
=" 26814
verbose_@@ 26814
identifi@@ 26812
tmpfile 26812
TX@@ 26811
arch_@@ 26811
delegate 26807
fail_json 26804
clai@@ 26801
Pat@@ 26798
cx@@ 26798
gal@@ 26797
bet@@ 26796
meaning 26794
Eq 26790
Cy@@ 26788
Locator 26787
TE_@@ 26786
sation 26783
prep_@@ 26782
discord 26781
repo_name 26780
Controller@@ 26769
Ax@@ 26766
HTTP▯@@ 26764
Mapper 26761
Pixel@@ 26756
Byte 26755
Environment@@ 26754
onal 26754
PDF@@ 26752
(%s)▯@@ 26742
condu@@ 26740
bility 26729
FOLDER 26725
KS 26723
Removes 26722
Trace 26722
liste 26718
regex@@ 26718
datase@@ 26716
\\n@@ 26715
client▯@@ 26715
TE 26714
agg_@@ 26714
ONS 26713
get_test_@@ 26713
_B@@ 26707
distributed 26703
%s▯=▯@@ 26701
ratings 26700
Rec 26698
bid@@ 26695
consum@@ 26695
Lu@@ 26692
please▯@@ 26690
sampled 26690
che 26689
224 26687
msrest 26685
plural 26685
reservation 26685
CLO@@ 26682
Reply 26681
frozen 26679
arrow_@@ 26671
cov@@ 26669
fetched 26669
&= 26668
sFrom@@ 26668
sample_weight 26668
fly 26666
tc_@@ 26660
organization_@@ 26659
nom 26656
quit@@ 26654
progres@@ 26653
circu@@ 26648
generates 26648
Bl@@ 26647
measures 26646
name_value 26645
send_create_signal 26642
coerce 26635
foo▯@@ 26634
trim_@@ 26634
flags@@ 26633
vpn_@@ 26632
s▯in▯the▯@@ 26630
hot 26625
db_id 26624
CLIENT_@@ 26623
09 26622
lan 26621
Exist@@ 26617
line2 26612
%-@@ 26609
Normali@@ 26609
fft_@@ 26609
OR▯@@ 26607
kit 26601
>>▯@@ 26599
CY@@ 26598
##@@ 26597
Body@@ 26595
Indi@@ 26595
k/@@ 26594
sampling_@@ 26594
Initializes 26593
MASK 26593
Patch 26593
start_index 26592
Delete▯@@ 26589
active▯@@ 26589
Linear 26588
Constraint@@ 26586
now▯@@ 26585
sdk 26585
RB@@ 26581
s▯that▯@@ 26580
alter_column 26579
ations▯@@ 26579
mk_@@ 26576
purposes 26576
hole@@ 26575
transports 26575
www.@@ 26573
cool@@ 26571
Request▯@@ 26569
addons 26569
organisation 26562
wallet_@@ 26558
tls_@@ 26547
credit_@@ 26545
shop@@ 26544
described 26539
device▯@@ 26532
drawn 26531
ously 26530
NN 26525
ignored_@@ 26524
Extr@@ 26523
Deletes 26520
atz 26516
reason@@ 26515
polling_interval 26514
android 26508
name_to_@@ 26508
client_secret 26504
rv@@ 26503
bio 26500
uris 26499
editor_@@ 26497
following▯@@ 26494
Username 26492
ward@@ 26492
%f 26490
ogr 26489
get_next_@@ 26485
Normal@@ 26480
6,@@ 26478
有@@ 26476
▯=▯"@@ 26471
%d/@@ 26470
compressed_@@ 26467
0.16@@ 26464
appears 26462
Pass@@ 26460
account.@@ 26460
subnet@@ 26457
Progress@@ 26456
'. 26454
ttk 26453
library@@ 26451
obtained 26448
_print_@@ 26447
Hello@@ 26445
eth_@@ 26445
cod@@ 26444
c_name 26443
what@@ 26442
PermissionDenied 26433
combo_@@ 26432
"} 26424
Focus 26424
JOIN▯@@ 26418
res2 26418
as_string 26413
exc_type 26407
hoo@@ 26405
mw 26405
_filter_@@ 26404
Backup@@ 26402
initialize@@ 26402
JS 26397
patched 26397
ense 26395
rights 26395
Spin@@ 26394
ya@@ 26392
swap@@ 26391
contains▯@@ 26390
diameter 26378
ced 26377
source_file 26377
assoc 26370
_new_@@ 26363
proble@@ 26360
FIX@@ 26359
exi@@ 26358
Review@@ 26354
sm_@@ 26352
queued 26351
submissions 26351
Bound@@ 26350
constructed 26350
comes 26346
party_@@ 26344
predicted_@@ 26344
{}. 26343
adc 26337
recursively 26336
字@@ 26334
%d_@@ 26332
STOCK_@@ 26331
[1@@ 26330
have▯been▯@@ 26329
particip@@ 26327
tanh 26326
Delay 26325
allocate 26325
ater 26325
BG@@ 26321
spot 26321
MIN 26320
Click@@ 26319
utc_@@ 26319
fici@@ 26315
composition 26306
Tile@@ 26303
,▯'@@ 26297
ab_@@ 26296
'%s',▯@@ 26295
This▯is▯@@ 26295
throw@@ 26294
Counts 26291
many_@@ 26291
Coords 26290
transition@@ 26290
damage 26286
Bot 26285
Experiment@@ 26284
]▯ 26283
SED 26279
DESC@@ 26277
connec@@ 26276
wikipedia 26275
smtp_@@ 26274
key_file 26271
site_id 26270
Sam@@ 26269
Std@@ 26267
gpu_@@ 26267
reci@@ 26265
ree@@ 26265
augment@@ 26264
collected 26263
complex@@ 26263
github@@ 26262
logdir 26258
5/@@ 26254
hp@@ 26254
HSG 26253
T1 26239
atype 26236
fragment@@ 26236
CT 26235
text-@@ 26235
DN 26233
{\n 26231
rgb_@@ 26230
Some▯@@ 26229
ing▯a▯@@ 26226
shards 26225
SOCK_STREAM 26224
daily_@@ 26218
required@@ 26218
samples_@@ 26211
sup 26208
line1 26202
Seconds 26200
sender@@ 26200
Vertex 26198
pipe_@@ 26194
setStyleSheet 26191
save_path 26189
GD@@ 26183
organiz@@ 26182
1\n 26180
OFF@@ 26175
equival@@ 26170
Phy@@ 26169
140 26168
TLS 26164
Cells 26163
iss@@ 26158
ma▯@@ 26157
Schedule 26155
target_dir 26155
usuario 26154
leaf_@@ 26153
temperature_@@ 26153
[0@@ 26150
Master 26144
ydata 26144
keyp@@ 26143
wer 26142
Gui 26141
new_path 26135
hack@@ 26134
artists 26132
drv 26125
vnf_@@ 26122
getCurrent@@ 26120
base_name 26119
ins@@ 26118
Complex@@ 26115
csvfile 26115
resume@@ 26115
Alias 26114
trai@@ 26113
retry@@ 26109
Warning:▯@@ 26107
particle_@@ 26107
trade 26105
Parses 26101
_PAR@@ 26100
fec@@ 26100
zlib 26100
vehicle 26097
Summary@@ 26090
poll@@ 26088
function_name 26086
differences 26084
.js 26083
brightness 26082
er/@@ 26082
coo@@ 26079
Filters 26078
blah 26078
Samples 26077
distribution_@@ 26069
chance 26064
Repo@@ 26063
formul@@ 26063
My▯@@ 26060
setSizePolicy 26059
City 26058
tour@@ 26058
persistent 26057
-a 26055
availability 26053
Temperature 26050
TEN@@ 26049
sor 26049
placeholders 26047
tang@@ 26045
stacks 26041
tive▯@@ 26041
Fix 26034
recurse 26029
_verify_@@ 26023
regi@@ 26019
tty 26019
loader_@@ 26018
You▯must▯@@ 26017
quotas 26015
letter@@ 26014
twitter_@@ 26014
raises_@@ 26013
)▯VALUES▯(@@ 26011
s▯not▯@@ 26011
Frequency 26008
rdf@@ 26007
Black@@ 26004
(a@@ 25996
): 25991
new_state 25990
2018@@ 25988
et_@@ 25986
preset 25983
Photo@@ 25980
ili@@ 25980
recs 25980
unicode@@ 25974
Hint 25973
linux_@@ 25968
_lock 25967
Uses 25965
sometimes 25958
ret_val 25956
Or 25955
Br@@ 25950
city_@@ 25950
emit@@ 25950
files@@ 25948
suitable 25946
Replace@@ 25942
measure_@@ 25942
Configure 25940
leader 25939
w+ 25939
grant 25938
Join 25937
clipboard 25930
det_@@ 25928
instan@@ 25928
oc 25923
colle@@ 25920
EST 25919
IMAGE 25918
Detail@@ 25917
alice 25917
Calculates 25912
respect 25912
pil@@ 25910
clock_@@ 25906
{}▯{} 25905
future_@@ 25904
EMAIL 25903
risk 25902
ContentType 25899
authorization_@@ 25899
controller@@ 25898
may@@ 25898
ace_@@ 25891
mongo 25891
Question@@ 25888
children@@ 25888
mid_@@ 25879
acces@@ 25876
по@@ 25873
270 25871
QFont 25869
BACK@@ 25868
Dot@@ 25865
bed_@@ 25860
account▯@@ 25857
here@@ 25857
provided▯@@ 25856
(.*@@ 25854
bond_@@ 25853
ftp@@ 25850
An▯@@ 25849
rando@@ 25849
yo@@ 25849
adjust_@@ 25842
organization@@ 25841
altitude 25839
mtype 25839
name>@@ 25839
sen 25838
timeseries 25837
easy 25835
%s,▯%s,▯@@ 25834
electr@@ 25834
simpli@@ 25834
Globals 25833
Visible 25827
dtype_@@ 25826
т 25822
EN_@@ 25820
pci_@@ 25820
Extract@@ 25816
advance 25814
ards 25814
asi@@ 25814
get_user 25814
glu@@ 25814
pl_@@ 25811
sanity 25810
)\@@ 25807
)〖lf〗▯▯▯▯▯▯▯▯▯▯▯▯@@ 25807
Bits 25806
milliseconds 25804
classi@@ 25802
image_size 25801
Attach@@ 25800
canonical 25800
yi 25792
320 25790
fy_@@ 25790
is_superuser 25784
〖lf〗▯▯▯▯▯▯▯▯▯▯▯▯ 25783
_status 25780
fld 25780
Av@@ 25779
xmlns:@@ 25779
called_@@ 25776
ii@@ 25771
MAP_@@ 25764
S-@@ 25763
ami@@ 25763
fitting 25761
------------@@ 25756
deg@@ 25755
d_data 25752
playlist@@ 25751
но@@ 25751
TIC@@ 25749
invalid@@ 25749
Win 25748
Ip 25740
ReplayAll 25739
fft@@ 25739
NEW@@ 25737
1st 25732
Geometry@@ 25730
moment@@ 25730
COL@@ 25726
endi@@ 25722
polygons 25721
ular 25721
season_@@ 25719
auth_settings 25718
ql_@@ 25718
set_status 25715
%s▯is▯not▯@@ 25714
\x03@@ 25713
authoriz@@ 25712
und 25708
hm@@ 25706
substitute 25704
denom 25702
autospec 25698
log_dir 25695
Rest@@ 25691
Platform 25690
startup@@ 25688
P2@@ 25685
set_ylim 25683
combin@@ 25682
Struct@@ 25680
o2 25679
like_@@ 25677
ip▯@@ 25674
mj@@ 25673
synap@@ 25671
column_names 25666
Prefix@@ 25663
"%s@@ 25662
V1 25660
pdb_@@ 25656
theme_@@ 25654
Edges 25649
0000000@@ 25648
assert_series_equal 25641
Pack@@ 25639
indices_@@ 25639
flatten_@@ 25634
fat@@ 25633
arti@@ 25631
longit@@ 25623
%i▯@@ 25621
certificates 25621
Year@@ 25619
conj 25618
getSetting 25611
d▯by▯@@ 25609
integral 25606
=>▯@@ 25605
preserve 25603
SIZE_@@ 25601
Complete 25597
include▯@@ 25595
n_features 25595
Cost 25594
ank 25589
wfile 25588
grids 25584
continuous 25582
PASSWORD 25578
ipaddress 25575
forum 25569
just@@ 25569
left▯@@ 25565
test_client 25565
vg 25565
output_shape 25564
edges_@@ 25563
PRI@@ 25554
END_@@ 25553
symbolic 25553
TAG@@ 25550
indice@@ 25549
scrol@@ 25549
wf@@ 25549
validity 25548
gold 25543
net▯@@ 25543
crc 25541
locale_@@ 25538
subtract 25532
test_id 25532
coords_@@ 25529
tagged 25528
,▯or▯@@ 25527
al/@@ 25527
reader_@@ 25525
Design@@ 25524
nf 25521
[0 25520
tional 25517
','@@ 25513
_add@@ 25509
htm 25506
-n 25505
auth.@@ 25500
scenario_@@ 25495
fer 25494
scaling_@@ 25491
O▯@@ 25485
PW@@ 25485
easy@@ 25481
Converter 25480
ures 25480
INTEGER 25478
get_path 25478
lyr 25473
Scan 25472
server.@@ 25472
external@@ 25471
5d@@ 25470
ld_@@ 25470
occur@@ 25470
perm@@ 25470
history@@ 25469
2015-0@@ 25466
Wri@@ 25465
serv 25463
sleep_@@ 25463
st-@@ 25460
Mod 25457
Regex 25457
test_util 25456
predict@@ 25455
sibling 25454
childNodes 25451
-D@@ 25448
to_list 25446
d0 25445
cor 25443
mime_type 25442
suppres@@ 25442
MQ@@ 25439
convolution 25431
Activity@@ 25429
/usr/@@ 25424
import_module 25424
excluded_@@ 25423
-01-0@@ 25420
ensemble 25419
facets 25417
3b@@ 25416
Long 25416
Backend@@ 25415
res1 25415
SA@@ 25414
authorize 25414
friends 25414
attachment@@ 25412
mac_address 25412
Pipeline@@ 25411
<%s@@ 25410
reli@@ 25409
shift@@ 25409
RC 25408
secret@@ 25406
Language@@ 25405
aug 25399
ation-@@ 25395
information@@ 25395
{0}.@@ 25394
stripped 25390
cke@@ 25389
futures 25389
lis 25389
thread_id 25389
INPUT_@@ 25387
Peer@@ 25387
Signal@@ 25383
rl 25381
SerializeToString 25377
near 25374
Library@@ 25373
plotly_name 25370
closed_@@ 25366
LA 25364
spider 25364
loo@@ 25361
latency 25360
specified@@ 25359
instance_uuid 25350
same@@ 25350
ы@@ 25345
sandbox 25341
</p> 25338
hum@@ 25337
0x2@@ 25336
\x8@@ 25335
Specify 25333
_output_@@ 25331
Serial@@ 25330
ware 25325
vcf 25321
solid 25320
Redirect 25318
Dynamic@@ 25316
special@@ 25315
terminal_@@ 25314
stream_id 25313
have@@ 25312
android_@@ 25305
rebuild 25304
deleting 25302
disabled_@@ 25301
Alignment 25300
minor_@@ 25297
tasks_@@ 25295
Clock 25290
miz@@ 25290
RGB@@ 25289
recommen@@ 25289
NameError 25288
X2 25285
pipe@@ 25284
call_args_list 25283
tri 25280
intensi@@ 25275
ped▯@@ 25270
vertical_@@ 25270
intermediate 25264
LV@@ 25263
boto 25260
json_file 25259
Wave@@ 25258
CAL@@ 25254
yr 25254
app.@@ 25253
grow@@ 25253
keepdims 25248
square_@@ 25248
ted. 25246
fcntl 25243
mm_@@ 25243
STOP 25242
ation/@@ 25238
cted 25235
typehandlers 25229
skill 25226
Poly 25222
Camera 25220
e2@@ 25217
Disk 25214
downloader 25210
num_samples 25210
obtain 25210
campaign_@@ 25208
fri@@ 25206
p/@@ 25204
max-@@ 25201
matter 25197
secret_key 25197
qos_@@ 25196
type:▯@@ 25192
__import__ 25190
dots 25188
listen_@@ 25187
Worker@@ 25186
operator@@ 25185
AS_@@ 25183
destination@@ 25181
client_options 25177
Templates 25174
C2 25170
epoch@@ 25170
Frames 25168
week_@@ 25168
f7@@ 25166
from_json 25166
ing_type 25161
patcher 25160
var1 25160
detailed 25159
remain 25153
rows_@@ 25153
alerts 25151
desi@@ 25150
ong@@ 25149
tg 25144
alo@@ 25140
ajax 25134
scheduled_@@ 25133
grouping 25128
Scene@@ 25127
listen@@ 25127
too_@@ 25126
_connection 25123
security_group 25121
text/html 25119
Hy@@ 25117
tau_@@ 25117
cd_@@ 25115
add_type_alias 25113
virtual_network_@@ 25113
sex 25112
chromosome 25110
decorated 25110
soft@@ 25108
wrapper_@@ 25105
ORT 25103
Services 25102
pushButton_@@ 25101
dan@@ 25099
domain▯@@ 25090
9▯@@ 25087
Dic 25084
algorithms 25080
toolchain 25078
IPv6 25076
controllers 25075
max_iter 25075
queue_name 25072
YES 25071
simulator 25070
Place 25069
more@@ 25067
memcache 25066
shared@@ 25055
reboot 25051
source_id 25051
mount@@ 25042
Appro@@ 25037
infer 25036
forecast 25034
inspec@@ 25034
centre 25033
endpoint@@ 25029
stal@@ 25028
sian 25024
ptype 25021
rewrite 25021
snmp@@ 25021
processing▯@@ 25018
0.0.@@ 25017
%r▯@@ 25013
rdf_@@ 25012
Received 25010
statistic@@ 25009
page_url 25008
installer 25007
repeat@@ 25005
Verify@@ 24999
Authentication 24993
Couldn't▯@@ 24989
property▯@@ 24989
api/@@ 24988
fee_@@ 24984
pager 24980
table_id 24978
_file_@@ 24977
artic@@ 24977
pot@@ 24975
as▯a▯@@ 24970
ctr 24968
After@@ 24962
LL 24962
\5@@ 24962
----------------@@ 24961
ᄉ@@ 24960
instance▯@@ 24959
into_@@ 24957
plugin_name 24956
slim 24956
sted▯@@ 24955
Center@@ 24943
ating_@@ 24943
children_@@ 24942
Shell 24940
destroy_@@ 24934
Widget_@@ 24931
fr_@@ 24931
wind_@@ 24927
prim@@ 24924
fonts 24923
esc@@ 24922
cube_@@ 24915
quoted 24915
characteri@@ 24912
string_to_@@ 24908
TRANS@@ 24907
press_@@ 24906
Alembic 24903
dj@@ 24901
have▯a▯@@ 24901
is▯ 24901
shader 24899
ability_@@ 24895
Private 24894
atomic_@@ 24894
half@@ 24894
SET@@ 24893
Sub 24893
visit@@ 24892
Execute@@ 24888
_run 24885
probe_@@ 24885
s__@@ 24884
eng 24883
nm@@ 24881
ando 24880
HT@@ 24879
accessible 24878
{}-@@ 24878
tweet@@ 24877
variable▯@@ 24872
elect@@ 24869
speech 24867
tre 24867
liste@@ 24864
);〖lf〗▯▯▯▯@@ 24861
rounding 24858
Tile 24857
to_str 24856
sudo▯@@ 24854
ence▯@@ 24847
c_void_p 24846
mine 24846
list1 24840
reasons 24834
list2 24830
wsgi 24830
stdout@@ 24827
ᄀ@@ 24824
old▯@@ 24820
FAIL@@ 24819
mutation 24819
Outputs 24815
patient 24815
stackoverflow 24815
add_header 24809
cra@@ 24804
tsv 24800
hot_@@ 24799
primary@@ 24798
expiry 24794
topolog@@ 24787
'{@@ 24780
Cancel@@ 24780
sale 24777
ading 24774
date_range 24772
file. 24772
lro_delay 24770
Sor@@ 24762
causes 24755
vent 24755
lun 24754
heartbeat 24753
/>@@ 24749
snap_@@ 24749
browser_@@ 24748
Author@@ 24744
cing 24743
]▯=▯@@ 24742
vid@@ 24742
Shortcut 24741
Attempt 24739
vcf_@@ 24739
Under@@ 24737
Gl@@ 24730
interrup@@ 24728
Conf@@ 24727
}〖lf〗▯▯▯▯@@ 24726
moun@@ 24722
integer_@@ 24719
ACCESS_@@ 24718
purchase_@@ 24717
referer 24713
R1 24705
3c@@ 24702
disc 24702
rendered_@@ 24701
basicConfig 24699
sche@@ 24698
What 24695
reviews 24692
2.2 24691
Apply@@ 24691
PLAY@@ 24691
Tasks 24689
gc_@@ 24681
Sav@@ 24678
mf@@ 24677
ical▯@@ 24676
payload@@ 24674
restric@@ 24673
school@@ 24665
TEXT@@ 24663
Future 24655
rg 24654
measure@@ 24651
storing 24650
ports_@@ 24648
ISO 24644
newlines 24644
usu@@ 24644
dur 24641
105 24639
relative@@ 24636
rgb@@ 24631
Force@@ 24630
convention 24626
Sheet 24622
\t\t\t@@ 24619
GRE@@ 24618
synchronous 24617
ero@@ 24612
MOD@@ 24605
actions_@@ 24605
vp 24604
.get@@ 24603
rotate@@ 24603
trust 24603
guild 24602
lazy_@@ 24599
lv 24598
getpass 24596
before@@ 24592
sends 24592
Content-Length 24591
filesize 24591
Pattern@@ 24588
inventory_@@ 24588
.\n@@ 24587
col1 24585
384 24583
continuation_token 24583
doub@@ 24581
probe@@ 24579
qc 24578
sendMessage 24578
0.15 24577
9_@@ 24571
called▯@@ 24571
mang@@ 24570
6. 24569
s?@@ 24565
expi@@ 24561
in_ 24560
Que@@ 24559
calculate@@ 24557
10) 24554
object_list 24553
dash 24547
TreeNode 24542
Am@@ 24541
alization 24541
minimal 24539
padded 24535
Time▯@@ 24533
USE@@ 24527
name_list 24521
!r} 24517
manifest@@ 24517
extend_@@ 24516
rat@@ 24514
guard 24513
parm 24513
/usr/bin/@@ 24507
unchanged 24495
MT_pre__@@ 24491
definition_@@ 24490
email_address 24488
_f 24487
plate 24487
job_name 24486
launcher 24482
subscribers 24477
zo@@ 24474
Pt 24472
viol@@ 24471
modification 24470
Workflow@@ 24468
zed@@ 24468
Clicked 24467
XY@@ 24467
large@@ 24467
") 24466
offer@@ 24466
sam 24465
bv 24464
Tk 24463
void▯@@ 24458
[{}@@ 24454
convert_to_tensor 24454
anyway 24452
:00@@ 24451
b64decode 24447
Equ@@ 24446
completions 24441
drag_@@ 24441
ITI@@ 24438
output_filename 24430
trust_@@ 24427
я@@ 24426
use▯the▯@@ 24424
gap@@ 24422
CMD 24420
T2 24418
ITEM_@@ 24416
ties_@@ 24415
major_@@ 24413
currently▯@@ 24409
generating 24406
scrapertools 24406
Sli@@ 24405
behaviour 24401
/*▯@@ 24400
lowest 24400
qry 24400
coming 24399
dataset_id 24397
roll_@@ 24397
0x4@@ 24396
Platform@@ 24392
div_@@ 24390
lement@@ 24389
on-@@ 24387
LC@@ 24386
counts_@@ 24375
izer 24374
FIELDS 24372
Posi@@ 24372
ed▯to▯@@ 24370
Bug@@ 24364
Command▯@@ 24358
main_window 24358
n_components 24358
setupUi 24357
refer 24356
hh 24355
700 24353
Chat@@ 24352
unquote 24350
ldb 24346
mize 24343
set_xlim 24343
00000000 24337
require@@ 24334
Face 24333
SP 24331
ici@@ 24331
Single 24327
文@@ 24327
dend 24325
Ter@@ 24317
lambd@@ 24316
read_file 24311
fi_@@ 24310
8,@@ 24309
History@@ 24309
Tokens 24305
tin@@ 24305
tmp_path 24303
_mock_@@ 24301
clustering 24301
template▯@@ 24301
BaseException 24297
categorical 24297
conversion_@@ 24297
MESSAGE_@@ 24296
excludes 24295
flux@@ 24295
ATED 24292
fd_@@ 24291
repr@@ 24291
ren 24283
PID 24280
pool_size 24277
ва@@ 24276
bag 24273
xform 24272
"▯value="@@ 24270
content▯@@ 24268
firewall_@@ 24267
svn_@@ 24267
expire_@@ 24265
_settings 24259
Lj@@ 24258
3a@@ 24256
early 24256
"〖lf〗@@ 24252
_y 24249
tls 24249
Flag@@ 24244
una 24244
raise@@ 24243
ction▯@@ 24242
think 24240
Added 24238
fnmatch 24238
urn:@@ 24238
gdb 24237
lib/@@ 24237
dm_@@ 24235
о 24235
gens 24231
poo@@ 24231
Mgr 24230
base▯@@ 24229
s▯or▯@@ 24229
FRE@@ 24226
pickle_@@ 24226
conti@@ 24225
learning_@@ 24223
Logs 24220
\b@@ 24219
на@@ 24218
\n%s 24217
R2 24213
functional 24210
num_of_@@ 24210
streaming 24209
Inline@@ 24208
Successfully▯@@ 24203
Type▯@@ 24203
adjustment 24203
another▯@@ 24203
forced 24201
Rectangle 24200
balance@@ 24197
dp_@@ 24196
Ass@@ 24195
MR@@ 24193
dynamic@@ 24192
reduced_@@ 24192
Any@@ 24189
id} 24186
expression_@@ 24183
Slice 24178
opening 24177
=%s,▯@@ 24175
Browser@@ 24175
Lookup 24174
bam@@ 24174
Pair@@ 24172
\xff@@ 24169
ctor@@ 24166
dg@@ 24165
Lambda 24158
rules_@@ 24156
itemgetter 24155
1e-4 24153
east 24152
eta@@ 24148
socke@@ 24147
FOR 24138
GS 24138
get_attribute 24137
parameters_@@ 24137
router_id 24137
resolved_@@ 24135
graphic@@ 24134
prediction_@@ 24133
tmpl_@@ 24129
LAN@@ 24128
/v2/@@ 24122
via▯@@ 24118
userId 24117
Expected@@ 24113
intern@@ 24112
drivers 24111
ick 24110
,▯the▯@@ 24106
Sch@@ 24105
cmp_@@ 24105
Pic@@ 24103
help_text 24103
channel▯@@ 24099
annotation@@ 24098
ко@@ 24098
listitem 24097
oper 24097
preprocess 24096
threshol@@ 24096
Public 24094
TER_@@ 24091
test_path 24089
220@@ 24086
ays 24080
read_only 24080
Band 24078
ase_@@ 24077
flash@@ 24076
wil@@ 24074
Checking▯@@ 24070
uv@@ 24063
field_value 24058
̃@@ 24058
ERR 24055
6d@@ 24054
act▯@@ 24054
shifts 24052
boundary_@@ 24050
bay@@ 24045
tilt 24045
This▯is▯a▯@@ 24044
Calls 24040
ansible_@@ 24040
subtree 24039
os.@@ 24038
**▯@@ 24037
spin_@@ 24034
f-@@ 24029
db_path 24028
Curve@@ 24027
Share@@ 24027
extru@@ 24024
Comm@@ 24021
expec@@ 24021
Matches 24019
[%s]@@ 24019
alert@@ 24015
child_ 24013
replacements 24011
right▯@@ 24010
details_@@ 24009
type="@@ 24008
gamma@@ 24003
[...]
